21fda649
2e021966
27a367ab
44ac4c33
48847a34
2240856d
3a5a17ca
ee1d9ca8
d9e967e2
8bb9bd43
a928a37d
726a2186
566b2497
b626b32e
49365751
5b1b0405
e49c9164
59b7a5a0
c8967007
b6a02ce8
cc9794da
6f4cb372
669e5d4c
0d8d6f2b
6b42d153
1f703a6e
667a3b5a
abed7df9
c923e8b0
83a7d00c
886375f9
d0288627
6fedc5a2
3b0cef41
828472d7
2103ae7d
8e66f168
2902d7f5
ca2b4b6b
846318d0
6d572af3
e8219715
b37f596d
06af4b28
146fd8d8
ba7ff1cb
8e0a6584
9c100b98
094f5976
5b00b114
0f020772
1c45959f
fe476421
328eea49
0c8bc4b6
ce18ecaf
04c2836b
5a779536
ef49e9c7
c08e3234
344609c0
c292bc9d
3468208c
78a41e34
ca49ed52
cf8a1659
4086cb56
fc469dd9
0c6b21a8
df976bae
e8ba1cdd
519e5878
16b8cd0f
a00e4868
626a4726
09b5e517
10425444
ac1da105
cf6236f0
dcdbe5fc
6cd19a26
062eb86c
dc6498f5
b71b200d
e9714da1
8384c3c0
f9f73c6d
0b6a7774
bcfbae62
388a7c00
792a057d
00c4be56
3255b14f
ea666715
53b6f0f8
fa402cfe
c4694d13
e16b3f37
5e2c9ea8
fa06f1cf
928cba55
f92f3ea3
c4b69c02
10f2d53d
f9ad486c
2123fa89
f32dd4d0
57ebc12a
595e0d0a
5a8356bd
f1f2cb71
d38905dd
626323bb
a648f7f2
e94f5759
11640efb
368f4dec
ce1bd965
d4d22209
c781beb3
698faf3a
c2e4bb8e
bb44215b
b60f5ca0
3209caa0
c2311544
37c52a11
0747a0bf
554b5f46
e48da963
2df1cbfa
6fae4098
4b9cce57
226a0102
7486f6e9
ad6fa4a3
040f07a8
2d8b5d05
2ca2ad6d
c4938254
653b41a0
a05f4c33
5172eee3
cc5b6c63
86dba6ef
d9d3b765
00cfbaaa
fb64043e
c77d4976
5479170f
7ffa44c1
dbbc20f7
018b3490
c5f7c52e
4b6dabb2
63724976
18748b60
145c7d14
fd61b9cf
3eb3bd3c
148379bb
cc0abc06
6544205e
c234fae8
449d07e2
ad40f7aa
bb3fc7ba
fa705f50
f996c0fe
d9fe5608
cea0a712
bd36175b
af32cbf0
8ec6fdc3
f966d49a
7443926f
b00bb75c
58af2d6a
792bcf2e
5c3d5f20
cf58178b
71a8b96b
6dcfaa27
fd12d45f
57db88fc
d80276cc
8bef95dd
eb6d54ca
4122e2f0
2fb18932
5cf94bde
8b6214de
2dcd6845
5c84fdac
18384642
bd043097
ad0e7308
32712ceb
17193c14
b7afe286
af4d7e2d
7ff337e6
e89f0aa3
8124ee15
c16d406c
c22e8328
92efab03
ee355660
54886714
2588d3be
2d752904
34bac313
a77b7485
9ee56b33
947294ae
00d4c7dd
41339033
396d4fdd
4c04724f
f092ebc2
89a8b34a
00c40ac2
7ab2255b
f0fbe763
0def24c6
8b82f06e
3c487c71
99fdc30a
79cdd625
b4a26090
160d58a1
196fa798
a6c5f125
a87b927d
750096ce
056e4057
b0ef2cbd
b2049ff3
36e2d9f1
31fea6af
5b46cb27
7b531662
0c105eda
db6db9f6
3bcb2ff0
b68f58e9
e2dbf371
e21ba86d
8d988735
4bd9451e
c3104af2
d0c6d5b3
75ac339d
65a423cd
919cf1ce
aea9318b
e0ceefb8
63dbeabb
d760759f
51ebeabe
71f22fa7
49f31d31
c34df129
c78af4ad
6326e370
ead954fd
a8972b0c
59d1d72d
2594898b
5a371cd6
5a551f90
638feec3
ce968fc9
fa7772d9
e4ca530a
bb781749
6b5ec384
17f34adb
bb341b6e
8586328e
9c61f95e
68cd8bf2
e32b3573
f3429400
4272444e
e710b1db
b9fac6d2
b33b0e7e
93c62725
2c928ca4
b3f05b36
9691f513
a9ebabaf
758e2242
c44855a8
65df166d
812de04d
8ff12945
868656a0
d71bc1fe
b60219a1
b0dbc391
4536a331
b4a109c3
e5429fa7
c0898a8a
9f024f3b
48b51de8
a2bcba8e
204f1951
b003d4da
288cb163
68b80bbd
3872d2c3
8b95bf09
e0d27484
60583ea6
670fd6e3
4d4bf795
0b6057fe
0f097b0d
2d369c51
7a679863
682e6e90
42771e1b
662ee693
6a4cef5c
e7f2ac9d
27d4aff4
d7663e75
8ae61ffa
ed1a1c58
52cca000
2a0437e4
af637a8c
be68fa6d
ae8a6bdd
8dc04b2e
0ef3866e
137eb4a4
154c5d20
964b40c3
6f86675b
8ee2c3c1
1f57727f
6ca06a4f
b9fea0a5
058d93a6
4bc92d22
7f0574ce
8c43458d
64c2898b
b18b5e49
20a7d89b
359356da
99f2f226
569f4269
1ff4c49e
fb08d360
ac34126f
15f63514
727dbfc9
a9e1c910
9332115a
ae6ecc75
e1cce4f0
060281ab
8a8d62e4
0e4918bf
12b5bca4
b6b0e3eb
764671b1
ad12ae7e
7359dcd7
65b7543d
539b3b36
8d4bf964
72834fb3
41934e7b
15142982
04485456
a0412c8b
37474b23
9a7f18c0
2398441d
663f3fa3
af0ed193
07241809
3ad5cae0
6b7e37b8
3e868894
9de63ab8
12c6c5ce
b557855e
0c5b6186
9ebe879f
641abd45
97d21c03
2704590b
36478fcb
808a5614
56fed9b3
02dd350f
85e4f59b
dbd9b274
3a75f917
16df21fc
d004e474
f9d7313f
7500d74d
4317d60d
c0d3edba
9aab1394
d74fbd53
d63403c4
d29edf7e
187a9f95
fb2c8aab
14431577
e5c90b64
6b868343
a2ae6cdd
8eb246e5
6b55da59
18c2b768
6614b600
b9b63e38
9c0a53da
029be3b7
7ad2067e
28bff798
da9273a4
bf4001eb
1100b0d2
86f7ab5f
463e875b
47cc6525
4dabac90
4ed045a9
8e34487c
463fe709
de42595d
12657e76
8b7e4448
eaa7d63a
cc756cfb
fa5747a5
48819efa
516973d1
1bc262d2
4f9e7e59
2a195a36
7114ea34
4349fb2b
28920f28
67a4fc70
01041da5
77397a44
23d6a157
6a8d8845
33349403
f9b93fb5
b20fd0a8
f2902dc6
93858621
df60abc0
0059520c
6b60a97f
a55075da
5bb5c8a8
314c7fc5
15fc34fe
15436edd
738a8502
79d74f4e
f36fc30d
1afbb890
7fbf0506
85c91965
8ea62aa2
5ab94ee4
566086a5
d1d6940f
f8b37e59
4f409bcf
d9f9ac5e
29a4efdf
349fe825
c69ed5f8
2721310f
d2cf21f2
c52d294a
9acbf820
d31d589d
8d5895c2
c88312fa
c97e73ac
99599f82
2087b246
24262d7f
4c7b2a7b
31b3b897
935dbae4
3fb06f5a
fecf779c
5927e999
3f9a91d1
540b0733
0ccc5048
478cb067
ec61a5ac
b33937ee
ac7bc9d1
b0db414f
a9d7bbde
8d68e39f
030580a5
f9662c71
13aa1773
4fd8bf77
e0f29b54
a1ee270a
aee66edb
64ee543f
c1ec9f12
26bf13b3
2006c92c
d351ae9e
6ec47eeb
617b801b
710c09d8
3e9aece0
13431d2e
6283823e
83e27994
a9f43308
92d6232e
0d49976c
c75ac31a
90da85f8
d0e7d879
369fcf57
4c35107f
6229d5c4
3a23482e
b7f4af38
84de77c6
c1f797d4
983ba46d
a0d79a8e
6ceb7972
b951d847
58789ea4
4e52f591
8ab8e57f
177a0be6
0265a041
6e66a528
62db10d4
269645f1
a8795407
cdaa61fa
76936d7b
55e69bfe
2c850fcb
124e0a3d
468a1a72
675d2629
7011ac0a
c0f654c4
a73655ac
1fcdc5e9
15ec01a7
1d764f55
5e3a618c
79ac12c4
76c63f29
0cbe2f2e
306d4f4a
9a3cfbdd
74d756bf
220dc2ad
4563126b
53d5d331
cfbbac75
ac3a8885
c7b1f957
fa74effc
b04adbdc
b7229a5d
e0b645d7
6a0f9f6e
be67f803
315eb041
0fe45ea8
fab73b74
bdd4a3d6
a44226aa
404c6f7d
a53e7ecc
efd8c412
28f8e03d
db02ed37
23729486
ef46a66d
60d07871
61b6d859
278045d5
f9c58ac6
3c36ad4a
da65e8c5
a029e35a
6bac6f31
ca4ea2f4
9fc680a8
46d1c408
439d51ed
2868607a
2c653449
784859a9
f0d9d7d5
8eb43b6e
130504a3
8b06d229
2cbc6e95
12779774
19bb8942
5674b9e4
19d6ccfa
84245725
17750daf
b9dfda96
90209113
bca8a3f7
5c6864a9
55bfb2e2
9866fcc8
f3bab689
253ef00d
4abbab44
03a63798
f4d215e3
cb952649
1a06cd8a
4ff881f0
02bf8f85
55209241
99f92a0d
5580b4d4
38d0e76f
f22e83ae
1c2c013d
b8b8b291
24205cee
93fe52cf
6f9f43fc
a16c3de1
4877c359
c7839929
fa959279
e6245bd5
e0ec2375
f9fcda75
7627bb65
f929c178
e69a183b
501aa75a
4ef42733
71a66bd3
d0f82e2a
1c4d2db7
7edfe40f
17813c35
c3adcd7e
87c35e91
bf5d333f
14e6a6ef
b5a31424
d1a19279
d81a88ac
8c327729
e73d2e5a
6256b306
0c71809e
bee43112
bb2a2652
238ced27
cafbe2b1
317db4df
54ba3187
027ba268
a56cb7bf
1e2801e6
d9f36674
cf69154b
09963e2e
53776cc6
9b8b7b64
e6f4a218
88e7c10d
b5f75cbb
8a414138
1bcaa540
9103c346
013fc497
86682d9b
7c4c5702
cb55c7d7
eeb93bb0
e112b658
df7f3181
396fc71c
946663ce
de8464e6
087d5129
ada4d090
9499b5d5
fb0069f8
cd8e75a7
0db63de6
696a1d8f
337f1381
4bb6246e
57926f6b
95b0755f
2b659540
8fb77863
3f750fe1
ec23ba24
5e406ee3
dda64a42
1b79428d
f75cd424
a5dc9989
5515cb10
b1a687a3
6ee25894
c7432ef8
39fa6964
139199cb
d2ec64a6
040d2d0c
5c62627c
973661e9
47817b91
fef6fa0a
9d65b567
78346cf7
76b307f8
079ebe99
7888065b
d9805930
4280c907
02231950
17a47637
2ca88b0a
d30d0256
ae0f2854
f4b25a67
55d737c9
2db77785
45319e46
d9c4191d
d77880dd
e2589fd9
5a6af3f5
125e8c7c
4dc7eb3c
2c4a17e9
d7ae6ccd
78801f90
a22908aa
99038035
99db8be6
c875b119
0d0988a6
c47fcd2d
d13d3a53
0a26c2c6
44a6e2f4
334ef9d5
e463dbac
7ecf9fd1
c78994d4
158165c4
9afba423
d05b8619
664caf5e
7b5b09cf
7ccc28e9
2f393ac4
03377b70
159da9de
bfb0405c
221599ce
4469516c
95f1a342
0ee9321e
7db74602
e23bdc6f
140df12d
5c0f191e
18dd5ef4
8f4dfcea
7e4bda19
fb480108
5a21bc14
4736ae49
fe9d157f
e4f5e947
0081dabe
8770560b
6ef92463
96c9f469
ba3bce8b
3560a431
39d2d0f5
b0b07c3b
49cae9ef
1a06cfd3
5aa1c9e8
5d6c12c5
34bb0ef7
4e259a35
f38dabc8
81b605d9
b68212c6
f5894be9
90a05f9f
a381635b
2204cc00
fe85ce30
ee60bbb1
a59003a3
975ad47a
6aa8ba38
4e474c91
40795c27
8a3d557a
ea2347ae
3985e785
a0664314
2ce62907
69782481
913a4705
64ed4a76
fc4e991b
b0f33966
da5e6cc4
0864ee09
2e16c10a
5ab3eab6
4471d183
c6cb9cd7
f9eebc65
fcacc41b
ee82ec7c
ec0c44aa
c96d1b6c
5e6f7165
315338aa
417086fe
946ae97e
dfb1a182
aa7f46a7
04ecfd52
3e48ae28
41d15acc
50dfc34e
e0ef732d
59e4434a
f898a609
791755e1
2d3b6361
35e6f9b9
320a6e29
78071560
13ecbcd4
a5e5f08b
640de8a5
4fb5c344
cdbf3965
c96fd370
417b5954
00eef1d9
092bf122
4ae3bef3
2bead546
afcce059
d0872bb1
2c3fb151
477d1bfb
03a1b5bb
b4b04cda
86df62d3
d8ea6454
83d22c9f
fbbce6d6
3bdaae17
f35dcd83
9b8a2452
07f30911
7d280f45
645aeacb
e1b33f6a
72440414
0562e9a6
04f2b7c6
e2fc7b96
709ff7cf
2a1e0bb0
37b38f56
2828ae51
682a4022
80d1a8fb
6cb46e36
bd26f146
476143ab
7ad5069a
773fd06d
77797a7b
c41316c3
768b7ecf
578d1cde
7014e4ec
38fae741
9b9c60f1
163cb865
3b7ecd46
d5750e4f
afc021f0
2263b6b0
a973e1e5
3be3c738
5d05391c
262f7414
ed6305b3
6885dcbb
edc948aa
5dc27e6f
abb5aee6
2310935b
e513c487
1d3b54f6
4595b2f2
0d679dbd
db1f57e7
efa368ae
1eec36fa
373a6795
62721024
4d549df7
827acd05
41cc1667
dda7397c
9af0e3c7
d7ea3f03
a79beea6
6480f532
4867a3d5
f6bf282c
fe4ab629
de599202
58d0ce5e
ec109ddf
5aabea26
85a6d356
55004260
72b8f1a1
c0b26cf2
c0206772
b425e818
aa253d8d
11b3fd6a
b513d23d
b8ac8f2a
0e8ad05d
6a18fb55
bbc2b7f4
6f4e8742
a18faa07
6066c83a
32c9ef6c
c0882f72
2b723858
9442cd36
3251c6d6
15949465
76a269ac
7ae28ff9
3d8b9999
246e43ef
edd060c1
af3ef467
02ce5687
7cce81d2
ee15caac
85ea6ffb
123a65cf
2d2fd1be
2ee2602f
0210c5d4
7afdd39e
da671bc2
6feeace9
635763a5
17ef0bdd
dea4c1b1
7627e12f
766b3387
a45c9a5d
a5e2259f
5493517f
986f83d3
95c583da
370de591
38f50af4
cde06387
e7be95df
926278c8
30c5db93
9750a40f
c692162e
bc4c8fcf
725f0316
90c619b9
9a371183
5092ecf1
0dbc5e60
b27e071a
644d3a90
e139460b
8ce45fe3
e09ee87d
83653ddb
a982b7e6
c0fdad89
a8de53d5
5a81e189
c7cc6b81
3a5fb59a
93a345db
913a7dcb
9470b8c2
bcf360d9
c2189025
112a020a
84b6c199
89d08480
8c522fb1
5ca913d9
39c2716a
f03b0827
7fd12e78
cc484d3a
03cd5c63
c99f2052
b870778d
cb869176
d7ab6bef
ad579ca6
6486e169
ed37d5e7
3c2930ea
1cb5e151
b55ab78b
16e24ed1
80c134f2
f59aac6e
f07341fd
2e42805b
8410b48d
2d34a362
0ab1b5ed
57a0fde0
1ee1934b
41b80491
6d857676
92931945
087490b2
b8c8d626
9a62e6c4
69c3db33
4f94dc6f
aec44679
cf884ac3
9f2d74b0
a0165fdc
12342956
4e7e0c5a
cdfb91c8
7cd88bb2
6b619025
ac82a54c
4696d706
2b2e91f4
d2ea4326
71e170c8
fadb08b1
d83a5591
d89b120d
af893ec7
492553dc
d0a6d24c
230a29aa
2c47b569
d7bbcb58
8d4a7d3b
3e803ee6
ec63505e
e8d90af9
2e5027fd
018d8bde
fa95c2bc
7225e7fe
f17f60e6
aff9f9e7
2a1b603c
fe7b4faa
f65cd7b9
901f50a1
b680326f
cd045570
ed289e0a
2808046b
1bc06730
4351faa1
c72dc084
d56d2ce5
2abc7fa2
f3f2e047
699bbdab
648355a8
82ed5f0e
311695ee
d6493d32
4c294bfd
9e8d366c
fbf23f79
706dc875
d18acdae
a6623646
d3d63408
b0ed5bfb
2a78aac5
5c94de87
8c1ff275
6c4ea1a4
33d7589d
dc48ef9b
e23e2825
340ec508
67ca9424
86447e3e
a42b6aee
097334f7
3e218cc3
d80da5cb
001125d7
294a1b4e
5bde8881
e35aceca
55e58e7a
3e84e0e4
a880cba9
e4f6aaf2
5795c7dd
dd0625df
abd0829c
8b737213
542a8ce1
3614b3a0
37f1f9e2
d9152f8b
dcaf3b90
ad7b4b64
14ee687f
721ec5ad
98fb3414
31d6031f
77cb3b10
dd3c7f58
4ffab0db
e12381ce
e03576f1
a5d86f18
0598d87d
7888e261
8a8be738
a3278db1
a2b3b24c
f62bd267
6780020b
7929fda1
c559b350
f1d9b279
94d429b5
0fa46b0e
3877acd2
5c905501
50fa9dd0
41f3e112
1c14ec1c
dc4ff752
aa72c10e
001c9eea
2e504f39
4151375b
a452fe2c
76dd6bb6
39bb846d
07f5797c
3b71d025
ce86de99
40a25afd
8fbaeef9
2015c689
897f6ff2
5b6021bc
66b52f9c
57f62e51
740bc9a2
0261e8a1
f9c30397
b5922049
7b30465e
de4a4e7d
39034043
2eb5df0f
3dc93369
1fd42bbe
9864d325
8b427ec7
11d62483
12dee47f
180e9926
7379cfb1
a5abc06b
940f482a
fd3e1b22
0a573558
50153f34
72efb6d9
434aa1b0
a9808cd3
504843e3
88ae592b
15b3b262
e555009d
b5075192
61bb1748
c09e5160
84f825df
578f0b00
d6c96a06
57dbc9b7
e8f0de3a
bd8c4d73
2b1352d5
ba1185c3
b7f8e4d1
e7906e71
20f2c26e
b202a68a
f2d438b6
9de21990
8b390328
b79b9418
a2a3a986
d53bf7f7
d18fa577
e0d21628
0019661c
4d818a28
3dfc2964
92174bbb
b8c02e7e
07c3786b
56293bdf
eda5061c
e88dc1eb
8d549cb3
9b03f6e6
a3edfbe4
60acc46b
4528f56e
86fabca3
7365829a
bef881a5
3684dcc8
0bc3e1a0
1ea97711
9b80d523
a2330463
19096c71
80f359d6
0b3bc891
22f41032
6406dd28
35482798
72604f81
efb3f61b
45d7e2d0
db258bb5
38262f26
7af96696
a0b18210
1c06fc0d
7c7fee0a
eff4ae7d
0776fb96
4895ea9b
609a45b7
30f275b3
230f96fc
9c58d6ae
87ba81f1
f48a6a76
9f333e8b
638aa2b0
96d55753
2ef49cee
6ec22621
5cadce4d
22f1bbd5
918597e6
f3241d82
40cf54fe
92688575
fc801c66
1be366ef
428e8c72
abd91bb6
22f1147c
eb51db6b
feac7148
623fea4c
e952d5e8
d4e2c07c
fee762a3
fc34ee6c
39929437
6c0b56d4
b1ad2135
a6632096
550b6944
2b4ce2b6
5864b1b6
c7b3ab1f
57a8eea3
7aa22d59
1dd742c5
8725cc5d
e8cc4266
80bbd10a
470ab9f1
e32ad650
d46c33c9
f331d6c8
d7c6e631
49163bd3
b024625b
b565d9e8
95d44211
47cef098
0d0a3678
b7b3bc11
e7b845cc
3b401427
73cbcace
e94a6125
20e6d758
27fbca94
dbdcbd94
f6e1d6fd
0925ac7e
64c95f82
43008043
fda10cae
fc231940
3f498a36
d3ab862f
79999627
ad28b2ba
00dc7e31
7208a36b
a8b4bcd9
8b576e00
84483f1b
419b5c85
2da91403
56887b22
ade95bd8
d1e293b6
c117bb35
3f12d19f
6d198609
ba466b36
11779b52
557440b3
f9d6d192
ba03a74b
e2b8e10a
e8c2fd92
5856feb4
b52a9610
612eb34a
cde5a466
afe57eb2
85d4b0d7
ad97fce0
631cfe48
6adbfcd3
0c11d62f
8ff102ca
7ff1ee8b
c95034dc
8adad610
63f960a4
7c57ed7e
ed757848
ce6f0231
baaf195f
4d290ee2
57a2cc47
15772030
0b30e4c8
42586a11
790202a5
154a5b78
afb9b24f
f5110053
4dce84b1
83744b1b
2295b286
e0095985
cd101463
8d7029de
478062f0
93dbe659
6ee4148d
df2ca38d
1682786d
3242f8f9
bffe52c7
b9df1220
5502a3cd
da0748c5
e7a469a4
9a9bba44
7733e6f8
61290aca
61ebac55
7323d81e
5130508c
0cf5b576
f1de9b99
679a81c5
e691a44b
d63af504
b3606cde
51e23360
856656cb
ec51f87a
30a9a60f
c8314ba2
b56c78f9
6bfb80e3
5ec1c271
ae78cdaf
2a2f17a6
1e4efeb1
6a5cce88
17a90567
69b2e5ac
b7d99a0d
eda5e80e
59c69415
adab3852
b51cabf1
0660dc22
8d55892b
286d4d09
fe4bcacd
c3f45c27
2c4c9f20
6afa3cb5
fc6457fc
ba2232c3
4befad40
70dc04ed
a815fa5e
53c51b2d
a97d541d
03732f41
7e12ef32
23ec9ce0
f71fa5b4
96635200
0c25d672
4bbdd266
d6c85eaa
3aba6daa
37111f84
427cb2be
948bef25
bee064a1
30940461
324098c7
853abfad
853063f2
4b401958
0f1956a3
9377f672
ef8948e2
e3bdba85
7cbe26f5
889b0215
dbd8253e
7cef1602
32d73b74
b3ca12a5
f9c9dd46
bb3935e4
747f6a48
863c6537
bf73c7f8
33d82fd8
8f5e76ed
2cf87966
3de29d28
4c371ccd
1148e4d9
f830dfce
b7890a3a
4654d08f
6e03bad5
2a20a403
ce81e67a
142ef219
bdb48d49
5b833526
6755eb78
4f6bfac6
9358b46e
e3dc8c86
16b2b547
fee65f80
2a561df9
852dc97e
1abd6fd4
41629fd5
8a2ce7c8
5a7c5794
d08b50d9
df61b020
9a5518cc
953d7394
de1c245c
ea4ad012
5082ce82
ab2f85f9
8979c1a0
43877b52
637accad
5fe912fa
998c4a92
aed2d38f
a1dd5bd5
05f0cd2b
357693b9
0a22b50a
84b3a26d
e82af8ec
d2fd34a9
2a083ff9
60b5e786
5af9a5a2
bca0bfbb
beac99eb
e72c6110
5d13604c
7a575e77
86991a60
19c02cfd
ca57c0a9
dcb3740c
e0ec91ce
74ee5857
d08dcde9
b8211e62
453f0301
baaad820
3df296e2
7bbd80ee
2484a2e7
de4191ae
4b33646d
1fd01d87
09d3be98
91644c12
d56e34e3
d76c8a8d
3cdfe29a
12007c48
9eb6166f
6103f781
682e594a
df20ccd1
22bd4acb
cd3eef9f
6d8e85e4
ccbab03c
c5e33f87
7c9b75f2
93d1ed0d
865f90a3
d9b9bf71
d930f18a
dd6d8ffa
2bd409f4
046ac6ab
be32b8a5
83bafc9d
7b899608
3871328e
e1267ac8
47776e0e
af6b93d6
39d6191e
704e4aae
6b29aab5
6732a4d8
445be965
881cdf03
fb69e424
f9813bae
d8d42317
bfe13af6
3a4a1ba2
8f0e197d
e48ffcf9
38052517
afeb22ad
90d91396
f7763a43
692ede92
eec7b3b7
c18dc220
33677630
0364e50d
a91d6f75
122730fa
49fc4ba7
9a098819
27558bcb
8fd2c6d0
55ec4841
d0250d1d
ee7d6b78
52dcc511
d0806139
2a86bc0c
0ceb7092
d35c4d74
9718c02a
157fbb9a
756cf673
d450e18b
c15daa01
90d0341f
4e637e13
d06b11a5
4dc5f3ae
d1003e25
daf06072
66eae7b9
5ef89ad1
98472902
1cd80d02
a511077e
2a6528f7
c9c06ba3
87cbadb2
d3b973ce
9d89d8df
4dcb7495
02e88017
a26ee202
5fee47fb
c3fe3f26
f0cb50e0
a9ce4251
cef9ae33
0d1aa7ca
14a3b447
e1501c90
1b429e9a
2ff2c3fb
91561064
da69c81f
21566045
70a54665
b288d87e
f7d85f56
607c459f
65acdabc
10c99d9d
5cf25b02
c82a042b
da558551
89ba4bea
f7be56d4
0fb18f01
0e438c16
36696f6d
044e6aad
eb44755e
e37f54f6
623d373a
26b1aeb3
00b41f71
2b0d921a
d2f309a2
3426f561
7f5d0d70
62458fb8
a265b563
83c11be6
a47d8ea8
61ae7536
fd065f2c
6595583c
2b5888e3
a12b8ddc
5cf10920
af35da18
d20f1221
ebfa0b59
5271ad02
9e451124
f77ad2b9
8103afd3
6952964f
6b4f9a3e
b7d6d861
1041ef9f
d20fc26e
8ea773c2
2fb18764
1f4a8259
3b53e338
e6e214c3
178a0bba
dba78c52
9fc296c4
38b62c4a
cbd8aa6b
5e48f267
4b5f7423
352a81d5
9ebcb623
673bc9f8
7019a43a
662348c4
bb9910cc
cb526a0f
784fb7fb
8583d5c4
b670533f
63058948
027c7f47
5c7c39d6
78566117
dcaebb74
f0275e7c
98ba0c6d
a9937dbe
4323bb0d
7889c63e
97894a18
9793d22e
33b5ca47
b23aab6a
f1297b80
31e20d58
0f9904fc
f5bbafc9
260123cb
365a82e3
65860838
8250b87a
f27bc7a5
0d27fc72
6f7f5bc6
c813643c
b61b3c3a
7e1a6903
669fddb4
a3fa591c
bcc1244c
3ad5f38e
8de56859
165d6a65
84f5ebd3
c5ce7407
49fdaa90
a457ef43
176c63ca
f452165a
d0f6bfc4
6eac60d4
e9cd6692
48b879b3
392a56b0
2d7d610b
62a74ad2
4482d1c1
3564d4b1
f33c9416
9d368630
b04ed57b
f0cbf791
9512b7af
e8213422
52ddb205
27e97927
6af078e3
02cfb1ee
0926876f
0eab3641
28ee46e8
aef3b810
777a714a
a295231f
2a01267b
3991aa02
7dba8146
1bb945ee
4da4325a
52928959
7c4f5378
db264fee
dab73814
379a5411
b20ec8f7
d6d77d12
07ccbef9
343e5a30
de340388
f12ae43c
0cd755eb
a44485fd
2912706c
4e0ec4d2
f69a8705
8ed1a8de
4fde682d
d0c7fb8b
c6d7922f
57aa484f
fbf87b9e
5056dafd
d01ad004
262a8ab0
f5d2136c
419da1ad
336347b8
13b42361
1f4b2435
74a6fcbd
556c85ae
fbdea8e3
ae92474e
7e5f91a4
07fe26ba
118bc5af
8fba9c9e
3893e125
cd9d7d86
092b561f
10268048
0be62434
d28829ce
0d5dbfcc
595c6325
52727ef2
4b7d2485
dbc7f93a
cd2ce13c
ea3d9f8b
a33d5848
0f3a7a06
9bcafbcc
59fce442
17ef02f1
cc7d8136
e9c0f685
cf3fac10
a9e1cefc
f903a41f
5c32ab68
2227279f
a6e0d818
47f40b62
a244c787
8a044d2c
f61aa5f2
1a08310f
d11420cb
5fe59f44
08185b91
fcb3776b
aeeb3b66
4866d266
b96564c9
4381d6d2
36cb8956
2b05bcec
98c39fdd
ea3f701b
d631a8b5
e2959ad0
a4f277f5
c6eb25b7
3c6dc89b
3d891146
3ad0bc84
5cf5ce35
fd5da366
7d3c0cf7
d647fecc
fec69618
88205c85
c0f71eef
5cdc9627
34611d70
bb44ab9d
d1cbd65e
5cef12b9
185fa161
87b3867e
71b68bf0
6f311d59
9cd4021d
a77b6149
49231f03
6d1aba30
85cb3b62
5b7a8c73
f1740bc3
9a4f97cf
c81d243e
002659e1
73de1ec8
2154a36f
6331fa81
b8388458
20ed7fde
02ac3c13
769ff290
7037b876
8c363f61
2814cf71
78069ec6
a5c85b7a
9f4e9737
ec4142cf
721c2b3e
3d94ba53
8773f36b
6620f6b1
8fc9b828
4ef15422
0c3564fb
48aa56b4
0839cae7
96436e89
edb50ae3
bc0cfad9
320576ce
ccbaa9ac
0838ebb1
404f76fc
1cf20c5b
2881e879
5b64e31d
737fcdde
efee6929
2c5bce38
8ceb3b28
30974745
10c1070e
496f8349
845fed24
9985f9aa
7bbe1d8e
d5bdf96d
7849ce17
43b27c43
ee16eb3f
395b9b76
2e46847f
2df0ebdc
506c2fcc
4ab92237
dcbb928c
ec1473f9
7cdc4c9e
de6501c4
82eb5246
ca5a20e5
0de91b20
5bceb85f
23fd29da
b8dccc82
4931a0dc
c72542d2
fabf07aa
8c3fda85
93757a85
cd5c30b7
da7350d9
619a89bd
f32838e1
82baa561
3f068101
e7799efb
d6ad726a
a02d8b33
8f9e7753
b39493b3
b7a321b9
e00638c2
0150d740
a7bd8505
c00d72e8
ab4be41c
cc65c13b
d3f877e6
f6f90bb3
3580ecb1
25b577bb
08ec531a
783b50d2
d10a4977
668bbf07
a09b10e7
a764185f
9e25413a
800eb145
256fa098
e9cbfe72
cce18cd0
9f81e1f0
ebbd8d6d
3e7fb3b5
f72f5240
0c2f4f5e
d2c87a24
3888527e
c0158a61
114de92c
eaf6fad2
6afe00ba
340245e5
aebdb505
fd44e53b
9636825d
23413c5d
a13a97f6
42f8f4d9
e3f79a43
7e2c7f4b
9d2dadf5
526eb80e
a37fc407
2a98458a
f25d996c
4edd2856
86909c92
7d748dcf
f7374e0e
f71d979d
ba4f03db
947cf84e
6e4f9ed8
fee7e8fc
9506a498
4615a83e
348aaad4
6bb8684e
afce3464
7024b601
f338b5c4
6b1ec91e
e1fa4b42
56acf0cc
0c9abb23
ecca2052
31dd5a52
97f05c35
c8d3591d
1385b560
0132709a
51cdca55
d5c4c592
0fccc197
2b3423a6
3f1efa33
11739cee
3f4084aa
739a3926
550dd1a2
3eaef2ec
b0fc3f94
43cc0ba0
ea01eb9b
d02f3c60
75332da0
795a13db
923d54e9
5ddc9c81
b18555ed
ca13820a
c4e8fc5c
f84bf4da
7709f0d5
66ccb1fd
065b6b5d
f803f712
ce5ed29e
c467c8d9
a20072df
83f7901f
53f11ef3
1e321bb8
a2899d96
f876336a
9900e656
40f5d1fe
094928f8
f54bea31
0d144b71
f5692caa
9b98981e
8b138b5d
92da44c9
11b02412
cbd42f4f
871fb670
16629c66
cf10250b
f2e92ec1
6b8d7796
d70b60ab
e9cb4ac7
31ae7171
1d205316
80199438
ed05478a
2b8d54a0
4a463834
8e782366
b5b87ef8
19e6f491
882061f8
f991c730
867a6e2e
9bf2f83e
6503b0c8
6674556e
20e3317a
d1ee116e
10fe81b8
1ade51d1
97e797cf
35debf57
7c9bf707
317e0e93
2ce0535f
3f593551
3d0f4c89
9608924f
e60ae53e
1a21b244
424b9a42
0df64aa8
e7d1e784
dffe37bd
9824455d
08109194
e4555e8a
0cd7ef7e
cf391d98
32acfe83
59686bd6
01356fdc
9d55a698
7c3f71e1
ae204b22
1b8aba20
1046f0d6
0bfe1921
b0b705bb
b366ad35
617cade5
0c548a22
437bc040
221a7e2b
8aaa8ec4
73a4631b
238b2ed8
eddeee75
360ed28b
d4c92f24
d62e5b5a
9ff7a484
ac03fad6
e80970ae
4c5cc64d
d6f41523
d93e4d71
b9e42106
ada13ee2
5857697e
78a301c0
3104f5c3
805ddf77
c874de76
ecd4f781
9c5035e4
e9ae87b4
9311048d
01c318c6
c81f712b
48939fcb
673a5252
37fbcb40
a1ba68ba
cb4cac2c
51877764
c2af0b6d
02364724
68b856ba
e25cd678
a373787a
310f25a3
f1758ddb
abbc368c
47e78361
9da2d8b3
da49e27d
74d0b43e
cfe0952f
a46cf3c2
a66a5c53
c77d0509
f17051d7
3419dccb
aca2da77
0f49c604
a29eef1f
06eceab0
f4f0f6a0
e7b1e5b0
aab1d53c
d5b2c1ec
4695a639
7e8663b9
48c535a1
e6db7e64
11e2124e
64bc9be8
3a058b1f
c32bca69
8b6ef74c
a52c2715
5189bfbd
d20df360
88ca4f4f
684c14d1
3c3ed62e
c151d617
9d2867f8
c9311aeb
6973d6e9
0cd15cf3
6381fa7c
207431ef
5ea5cbc9
3fe8646b
cc38ad55
c7298fc1
2822d1e5
0a2b0665
18f0ba8e
95bf1b8b
cf58e346
45fdef7f
04b81188
2b6de190
5d17ce3e
3a7bc628
3866b8e5
8ec993f9
f60379ca
b11ace42
4d735c9b
1055ed3f
8f6816b5
993e326b
92517575
5783ea26
e90c3871
da605594
c7740d4f
17e934e0
1ee9c4a0
a11b226e
b874c26b
ca1e32bf
e9910d7e
06677446
13390eb6
942e3cd2
c9673b61
06440181
591f2567
b9668f7a
a0d0af78
58be7a6e
04dd49ba
09dfad04
9e2d3aac
e93f8d29
3cb73c5a
2a4371c9
3f0de2f2
77dde141
3d6556ab
be71f835
2aec4cbc
06e7b048
467bd224
4a068ee4
fb3f1099
51113c6e
c30c5fd5
5f5f6c10
717a1c15
0f0a0c06
2ffef5e4
1a0138d2
33984e6e
7dec846f
3dd450bb
100bc0f4
37b6875b
5c6f08ec
f8bfc19a
57bd7b75
c4860f22
3e21c2e3
5457b6b8
6835777a
e1e0a512
0b2a41c7
f9c886c1
f755b429
285738ae
e7d9a6d5
e628b30d
f0a082cb
50ad28d7
42c11b07
d30d5002
617ff39f
da19aec2
7905d453
3571d803
57e4a496
6022cfc8
356d6283
4b69611b
82418e30
8722d8c8
80385591
ce9c1032
87834982
2e9b649f
9d5761de
c4140a87
4222eaea
25027534
70872a92
724bbcd7
b8c343dc
e15d24e1
ef8e3dec
4e2e7564
32fdb0f3
52f49739
d7a93452
19387b10
5d62b111
683b86e6
90de4afa
8ca37fbd
c50cfe43
3e9c6c06
25d2939a
22853437
dc1489d8
268aa105
301479d4
3cc23106
571c8050
5e706b02
32cfe47e
d00148a6
45078b0f
828e8a32
3b26d736
cff899c6
7facdb3b
3ed47ec8
b7e37e65
8ff777ab
baf64f34
c7324c7c
9502f859
9cd43e57
b28fbeda
a7e60f19
aa5715db
c2982f06
8c2d782d
39a6609c
01ec74b4
f2112eac
f0b8bdc7
7b71bbb1
6059e95f
b834bcf9
4a3673c6
885b63cb
64c48dd6
b427dd61
b53c7327
b2d4a0a6
9ac57c78
2fbd111a
b8230eef
3d0e2801
295ddb15
1e4a6936
63f1f6d5
62d10a27
c7edc6d7
e07a0241
37df6c64
8a33d1a5
d80b59d1
95571610
43c3f10a
a50a52db
d96e0727
33c95bf2
04076bbd
3f5327e0
3f3d2fa5
abfc377a
79669e4c
bb925d58
e80b6bd9
b2ba1fb2
8344a34b
ae70a251
a35faef2
d252a61e
e68f2535
7b498f5d
f323d0e8
62beed0e
da0206f2
7fd17809
693d40a9
3395bd72
e29f7cb7
aa8770b1
6e2e0762
f990af30
08f7236f
cda14613
2eee0d75
0a41e14e
ee831517
cdfcd7a9
70d0e911
e2c584b9
8e68f8d4
0c119f3a
f7851343
5a08717c
904f45ba
d33e27b3
fcd60e28
d21a5957
fa5adc4f
da210487
e77a7191
a096c2b8
ec2f2d6b
3c399d18
16241b72
30400ec8
e8b2754a
ba04dddc
874218b2
d93b5ab5
facb38e0
62ec861d
6dd23a8f
1ca70d2e
504bb0cc
96475bc9
29875548
9923eb82
553fef86
b0d20eed
e2f1ea1b
ee2d17b8
487ae7c6
2e102bc7
1a455ab3
b2cd5518
1953d555
140fde79
45c5948f
219e33f4
592dfcbb
8b36d23f
0c1a7d9d
55ba8773
7bca9dd6
b9b36df8
59f67822
100b3bd4
fb8199e5
b056b270
b95a4201
2fe6ea14
cc79cfec
39795abe
fe5fd31b
c0efc48a
47d84d1f
d08f9aa3
29644ed2
063549aa
cf711c58
56bae7a3
b664b478
6d1fa48b
5ab86189
3c12bd5c
982949a4
010887ec
58b96e4b
f613ceee
c4f60f91
7a12c346
17a96199
fb7c1974
c86b81bf
cd437b78
e3569103
c0551036
ca124ec4
716cbbeb
15df7380
52ddd156
8db5157e
e04db854
b0f82e0b
d51bd08d
5267cc70
65e77a7c
8a96a81d
8e86355f
257446d6
de6b1f34
3a7a5813
2a32f318
9339d8e9
bff4d0ab
0670b400
b4283743
09c172ec
cb75910c
f80fd1f8
f6e90e68
c9072724
b4643e97
93d9cc70
5783a83b
026e51d3
ee9f1231
10e34eb3
1b780935
1a0ffd2b
05212c53
9d27e29e
7d4f18f3
f83b6aec
c1f0e51d
22baddf8
03f7e308
3b13848d
4b33e724
80a07fdb
673f0da3
1365e2e6
ed0c6494
b7719139
28c39e3a
6159625d
e50eb3d2
93dcd549
0dc97d0b
0ee8b7a2
483418c1
cdf4ea45
bbd4ba20
cf180ca3
8bca9f16
c4fb28aa
29f0880e
9b5b3293
bbf1a290
f02d2505
2a2221ea
512081c7
c6e6cec4
3f22ea27
c3973936
519a8000
5a420ab1
db068f8f
0d4f27c4
6d9bdab5
542fb3b2
70a5f70a
f1f176c5
0177c0aa
74ae50d8
a98f9eef
0bcc6f4f
63869e3f
70c0e40e
f392c9f0
7697e09a
da7ed9cb
33849a4c
818b644a
38c5cefa
466673a2
df193ac7
bbe63959
fd1e8538
ab662385
5f8365f0
98971f58
fec3f7e4
6922d8e1
8944a45c
f1c2ebb7
89028297
1caff7f6
56d72fdb
1eb90c33
017f1d9c
4da2ba81
b99bfb3e
8627d1b0
f7e41c0b
0dd45940
bf18b692
d6bd42ad
7e9e69f5
d0e06c1c
7c8b7420
45a9d88b
eca49c31
d1839ed3
6fa766bd
a3aa5a09
9c12550f
32045c02
73bea6f5
23e63063
9aa062da
451aed1b
d7980f4f
ecf7f6e9
f7e502c4
cb22989a
3d334476
5ccbfcaf
cde939fe
ec8cc7f8
1c11fcf9
8e720576
8527c3cf
d98f3c47
c8e27758
2a1c7f1e
334d1245
4125e35d
d972c0ae
3b2ec656
5142d5fb
0288c6d1
753758d9
41140646
267626ca
9901a174
05747f79
ceb68cc8
d8dff968
39a055c1
343dadf9
3bc284b1
38adc6b3
099a4e2d
4306e1c1
decc6ada
2cbf6171
4774854c
5498d866
ccf6dd4f
115e86c6
67f52eae
f6135dbf
5a4dcff8
23e546d5
52673ee2
f93fe273
722edb34
5a9a6909
329527fd
ef62824b
21d53210
b5973fce
658d3c51
611eeaa3
420a20d3
307a3c64
d8dcb3f4
b5042f28
d0e5aa89
d58e7df3
6fbec1ab
ec5f0cf1
bea1c5c0
7036375a
4df2d7df
d19308fd
5b1d8d7a
7fbee23b
198664bf
cd5f1acc
39316311
1e5f0047
60fc6250
5c550da4
9d71705d
87550ed6
338e1c91
068cd166
a18bd6ea
a57b4d56
7bc86a93
43e6589d
84a154e9
91e1e0c9
7550f515
2841da9d
fd6f5dd3
010afe8c
fd2e5323
c0609221
012cd098
30a552bf
e83acab2
bba1a1cb
cb9eb940
1386f619
c25745b0
f51f1e41
e5e99d76
6e433513
fe522c39
ce557ee5
29b7b328
c0f5bf5f
4aee09eb
5745d6b9
160bec11
e43cbef9
3e839de5
b1e8222a
18191092
63262e33
a43ea9d6
dccdc685
03276898
ab1a5ed3
b9e36d9f
8985368d
58b2fc9b
6ff75bde
7cfa8e52
f76d821a
a762e327
f4434868
b32c4b00
0258a0f0
eb15b407
38bf950e
8ac024d7
4c23cea3
2d018d40
eb005a7c
20461eab
5d052bc5
cdcf3d33
8bceb189
6586c4c4
331a25fc
270efc1f
530675b5
736dfb60
bb934ff6
9732d6de
e4dfec79
66d1f872
2eee81e4
8f638ef7
633750df
25f83fa1
8fa3bb04
657fa9e8
2d157056
75c923c2
639ad8cb
636f3397
d700bce6
80465a73
8763846d
1e41c03b
70d24953
340c95b8
dd7be31d
fcc521b9
d111a4b1
a534d2cc
8ec03a3d
63478f4a
a8093513
6ae2142d
99f43aaa
c4446e00
bb7ed5a3
22fbf4cd
4480ba0e
464eb9f1
436f73f3
fe791bf8
c8f9fa87
443dbbfb
c8e49b4a
5ba85046
9af9a813
f76fd9b8
bd81c64c
0070f14f
3fbb3139
43a3bdfd
7c5d8728
840d8ead
376f0987
665ec43c
2bfce716
e7e54304
3b8c908c
5921a9f6
4a66ba68
60999878
bd9bf9eb
5d735014
5653ee2c
0d3a4ecb
3263b36b
6acf8e18
d44c8ca2
97aafcca
8587b68f
bb0b72c4
d5a21a2f
8b754866
a66d9367
c277d35b
73284b59
a758c5a4
e0cc721d
cdb1bf2d
79230d73
6f53b075
14932638
68354966
a70f1790
6ab21e57
18972eca
7153a82b
da821ea5
3e532314
1c991b7d
3e5ca28c
cc4623ec
4052877b
8181de69
f1c6f783
b022d705
8474998b
219a649f
f080852a
629d6e2d
543b51cb
251025a9
dabd5171
0c3d03d4
278055ab
8e8d87db
7c208f5a
e5c86c6e
9db3d6e8
269aba24
fd2d895b
5f92178f
9ddac88f
3b68dc4f
3985b449
a977eecf
27ed20c2
6910e15b
84db0df9
9c6bacfe
b64e3641
39420432
6268d2f2
60138733
74bc3a8e
66d743f5
36443bb5
b37bea64
553862be
b1d27928
55707436
b0f5b6b5
d92c2930
c18ff513
550e5aa8
a95da3b6
7bc334fd
4900297e
640ecff7
e71f4da7
736181d2
ed2420f6
06dc3143
6bc107c8
80818fe6
9d976d0f
55e3c7a6
d7ea70d0
d1bb07d7
122ed702
a0379891
0a373d56
5268bc51
dde0fb6e
21f45f78
a7762c2f
2ebb1fdb
78b6acb0
c3d3f01f
f55e348b
e9a710e3
2339f3ce
16257332
5519073b
f329d8a6
d9724210
04f96d54
a8e28925
658fa732
f83d8242
f90948cb
1d0965ca
9823c303
84110448
cb44a100
ee697507
769b5172
39ec8add
1e040b43
6e0a7221
ad33893e
4e85e75a
c77e3d10
9708b4f1
3920f11c
b99400d2
a0aaec26
c8a947f0
63661323
e91f3eab
5535b7dd
847776ac
4ed11214
32fd9a16
3f2b1a13
34c0a50f
04c7e77c
db6cc3b9
7c96dff9
96ad427c
6e221d23
25601b0a
27ed4999
75b6cafa
89dc040a
0e789467
125cc0a4
0fc00b23
3a678835
ef45e4f5
3199536a
fe08b0a3
5e01a534
dab14a61
37926407
5d803e8c
ab154d39
a5f235f9
6db26ad9
3a025275
50e7da0c
3bf056e9
561236fa
30303fb1
997c6b8c
68c68d31
c637c0d0
a9be8720
c4c501da
6070a8e4
a2551d44
e3fa77f6
6bf78e80
448fc8e6
2cd16c23
275122d9
dc021495
303946cf
8bf7b62e
12b05174
7266d6f2
69dc8ec1
4f42ce2c
931617e7
de9fe2a0
7a859489
bdd4f859
dfe5839b
deec8aed
00d6664b
15e446cf
5f6c4f3f
c8215672
da5937d1
836292d7
c08d3965
d813f49f
e29ab9dd
88d9d29a
dcfab588
0bd91811
70e6acce
ef300394
04e0fc21
1d593478
df4dd295
87204340
4e3958d0
07c2d83a
23e2933f
30f22bcd
c6a60619
321d8f9e
fa94cd7c
efaf711e
154e8642
6be9c95f
92aa2f5b
ceea3360
92dd7a88
a5688972
cb5fe576
273f1e19
e64c0ce2
c020e0fa
0e3dfb68
d789493f
5df07964
b64210f4
53284e80
144613cf
e04b054a
5b2c13dc
aa552e4a
e848fb73
e6ca950c
f1d25d0c
d72e61e6
1a184077
6ff5d757
f65246fb
ea8e7d86
1daa64fb
cb4a9fe6
aa73967e
5245f1a0
756935f2
396b5bf1
1a9d935c
fb10102e
b5841b54
59b12589
f14daa59
02a8feca
e18f21da
7f85e969
4f4dc8f9
d1024109
51bb8d98
d6768e31
ddebbcbf
2d65b397
9b77c5f1
21e38cb1
151bcffe
43fd6c71
06051e9e
66795065
6f068d64
bff99209
624ae3a7
ab30f44f
e17a7eef
4366990e
40b262ce
ba9d26d5
a6a99f39
04ad7c79
df379aa8
a4b3fb5a
661e3908
504c74cd
f9b7c1c1
e83254d0
6c28d6ea
cf849e07
c5910f28
baba63a4
0b95a873
432fef3a
8156de8c
d65106a1
fe7fafc0
f5ee7809
8baecc5a
b5b95138
fbd019cf
4bc8b562
c86cbc48
f8b026ae
24cbcc5a
80e25b99
8734bfa2
1faf05f0
5ac39f0b
19165023
8e254444
d5d98f8c
443e0de3
52c5706c
a8c4536c
7b12d426
aeb760ea
f547bbe7
74c5f8bc
8bc3bd85
d56b2678
fe58893b
c723f268
48ccc73a
b542f4bb
52046682
dce28355
f37dbcfe
65d7f8d1
76cec258
031c5dc5
84555765
9c22e44d
bd7117a7
04010621
555975c6
87b1cc27
c73b9f41
79c3a1a9
8153bd51
1fb7dbe7
10ce33ea
9f059174
ba07027b
adb2aa76
15fc5004
416f3894
5c63c98b
638ed672
3175a96a
6db20b7d
bdeb831b
70df624e
e4316fdb
a4e0f080
7c037198
2791ce56
7e2cd690
9c1f0f37
5bf8ad29
d0df3475
95c52e57
0f0b4a31
e8953aa8
b74c17b5
05cfcb09
6a246215
868bcd88
e67989d0
99102128
ad300893
f58f4192
cf635031
c099bf77
f58f465c
3bd5104b
337f46df
768d27ec
69033112
5f4242d6
e30ab189
0a89e987
09d4d46f
4b5138f7
6309e322
c207c59a
faec09e8
c2d90044
fd52e020
379c8ed9
be34ce83
d2396c97
644e1757
39987dfb
d42888f9
dc207221
a3d039e7
dd46490f
076fa55e
95f9af9b
c787f3c8
04ca92cf
001c8ce0
ce3c6f9a
54ca909f
23b02610
9b0b57d8
d3a60950
3b88a4ab
abc77189
19dcbfa3
a7c6e7bd
03a73ae7
3cf13c9b
f6f23740
8936fc9e
48d03439
c2748130
59d6cba3
debd2b4a
16a9d14f
660f18b0
bf8d0bc0
8bcaa877
5b2d222f
2f25a32b
4685f306
51702d98
d1c1d9ca
8038c0e3
31979061
ad1c82a2
2a6603c4
3274c46a
d5f3b419
c6d48f93
000209a9
89432e1f
5e19a1dd
f2a5c5d0
0e72d7da
63dab8e4
8537663d
e73acb42
4273c730
387c6b01
b2ddfd51
0f28b3ca
afc7dfba
c898f808
c126b3d3
72d362ab
e119abc3
56838e55
2f9b64cd
c2540e41
56ceae37
5b89d6d0
e1204d2f
86fc1425
2895fc6e
c4a4d569
9aa6cc73
dc4777ed
6a859512
a6c513a8
7c0d360f
e421a4be
e39d1a3f
1b080059
cdbc10bb
0b15bc63
114fa4e2
d83ad9a3
0590768e
452dab5b
50b676ef
f323a75c
32af90ae
c0294290
a0518836
18a87b07
6697faf8
208d8276
6794df7c
b410b708
bb5760a9
2ad463c6
afbcc869
d5ba45ae
2252670d
e84184e2
2f30eb02
4250dd1e
e0ea6344
11c157aa
688d3ac6
95abc42b
3fdd438d
b1ce779b
7575dbac
d1030357
82e37c84
6a508265
35cfac5d
9b165d7c
a6f7fbc5
81864418
8408f26a
e1db9d75
667a57fe
404ad75e
fa5e7ee5
bbf9e244
aebcdfb6
be16a89d
218e1062
5836ddd6
9b737fcc
9f76c288
969b4eec
75d66939
9a31e74b
277e9eaa
71615145
1e05fc7c
3dfd96f7
7eae5cec
088cb22d
6c50d43c
f2718d8e
c9a14ae2
25374542
903b8418
8b9a592f
0b77c3bd
6e59e1a8
2d554526
aa9d7f2d
2fa84bd8
bce6ae7b
79502bdf
49dd1f06
daad7bf0
8971a7da
2ea2dd77
87264184
902a255e
ec2bfc71
caad1bc0
a2e61232
33a40d1c
6e5265d0
4b4e640d
4e3aadb1
c480c5f6
87572a5e
ca4a0505
db16c88e
28554b4c
519c3fb0
90b12be0
6683a900
700ad5cd
36225b9a
4e82b3ce
10fc78f3
e031efaa
22f2d4d7
5f26ee63
cacadbb3
9a05dd38
8fbe9324
20729146
06c01142
2a6cc5b3
4f4177aa
4a041e3f
24ccf04c
427b284c
e3e37cbc
aa62c843
f12dd7d0
87d056a5
5ca5088d
5f35b230
3960a5ae
788b4642
aa8b1b76
dc157815
bbaf9721
d8d55217
d7196043
cba9bf15
21c7f74b
786ceb0b
6ddefd33
d31ef573
18db6a3d
22a63dea
02f40577
a341cfaf
8f8e9ce3
b403b5d1
18bb476e
c5dd230e
8cbcf2e0
ac7faa58
3cb69a35
15d6b591
34577326
b3e72fbf
1e0b2e3a
f1137900
11c6ace2
349a6347
27823347
8faaa68b
48683708
d7d499d5
f4951706
496c98f9
677d9048
ad3f2c92
a5a0bdc2
a30133bc
97ac8fa6
cb78f8e3
b56bbd38
fb2a8a5b
63eb8c0c
624facf2
1b5877dc
6b8edf3e
5624ceb7
55f677e4
64176215
5054c303
f3767849
95cfeee5
07d8a9c7
60ca94da
82d769a1
c7dd7e94
8e7b507c
c2b590ac
e71e2ed5
d9cfee53
c78ee605
152189d7
765a11a6
5ebcf355
4bba9e0a
a3887ab1
fcd12d7e
6b775d3d
cb4b2f75
c82bee7b
9d359fec
adb056f6
2bf3cd27
5dbf0be9
9905bfbf
ec29e9b2
32896779
6ed4734c
a43f3c6a
6c127c5e
496c6edd
a62db3d3
dbb41ab1
34732815
80da82ae
209e853e
560ebfd4
db61c01d
a36bd041
506ad790
79ef56ad
8aeed403
0647f2e7
0226dee2
dc6a10e2
3b29619f
cefe2f31
4ba3dd17
210e42da
79fe0017
f849e0bf
7790bc7a
c6aa086e
d379680b
d2894581
43a02f6a
5ab76c81
3115b2fe
22896b8d
d3240365
5cab06d5
ef462537
bdea743c
673380fe
dfd9b3a7
feccbe35
3759a7ed
bf38077a
fab6e0da
b957ee73
c35e7659
02718e13
9db6e018
3fc85870
a6fdf014
0dbdba8d
eddde747
309241cb
ddb36f6c
0ec9da30
5cdfa198
b4bc5965
476cac48
399d121e
af0444ad
6dec964b
b6d33ce0
7572d17e
a2b15d9e
dcc437a0
0d0c3c7b
5060a103
83fe2e8a
e0dab426
c27d8085
12c2b272
ded5b0da
3da136d0
d1da2617
06ee2caf
67435b1a
0a9c68ee
d15fb82c
d38cc959
d37c3967
90a2a993
6d604125
64a67db0
72e3864b
6a5bbeb9
c50ef87f
4b3fa03a
68786eb4
dce3346d
038c150a
31904966
7a5fd6b7
7f539bb8
bd63f09a
98f04e89
6ffd1d0c
529cc196
6ef20e6d
a0f36a6e
1f8a13d9
edb52ff1
169ecea0
78330df8
6819877d
aabd6dbe
b6386c52
2fa76169
1a27ed6b
6e57133a
51fc5672
446063a8
386bca8e
a090a7bc
4ce4ce93
0d19f148
44c89378
a99714eb
e526ee1f
298f49e7
eaa4958d
87b71b52
e1514d33
6c0a58e7
8a016e22
c427a7c5
eb9db29f
8f15262c
fa162fa9
56d121ab
fe8e085c
fe5e1ba2
5f4180b6
68ba2dc8
6a04189e
800317b6
8602ef2a
3183c2df
f2030520
bb0f662e
b82ca25e
2b1ce9df
f90bf999
003b1df8
5827d95e
06e14b31
d474ce24
0835b7da
d862a9ba
922e34b3
6b566231
65a97114
d1b5ab4e
32a44fbf
384f389b
4079e34e
11d1c3c1
86cd0417
9f09f7ad
02b16ae9
0f0c639a
5c619022
df6f588d
9a43bfbd
1aaefd14
144c3cac
d61dd712
1f2d109b
bde4be1c
88658727
30b24a0e
ac3c24bd
3135cb50
9b6ac5fc
406b73ad
03d2b8d4
a4ecf7a8
87d2b8f6
b4466022
fa71975b
26dce4c6
c2059f4f
258ba304
324ab178
0f576983
f662d145
7c3b79d3
122ed993
de097dd0
882b9fbe
42527542
80b35056
60c84b02
3b502153
d27b1bd8
13e6cf6f
dfd5c97c
19e4f340
d6910658
37a4e64e
abc83b88
d2d406ad
5989ef7a
a220baf9
f1d80e80
b9a0d6d3
97b54377
ebe1b98a
2ffe8e10
0a3c9f8f
32edb1f6
afd2e5d6
6cf5ef39
9a48df72
fe7d630b
6fd4e559
ea6b4e21
60716aab
b1289071
e57322f1
8e0d2c0e
500d81cb
099b7096
e752d3df
9a2f48ee
58e3f64b
bcb47481
0d2ef3a4
30d9bfc8
0aa55bca
23810c28
90e442a9
780af249
57425ddd
a890e51f
45fc40de
f0bca2d2
4c4e1160
b91515be
d939a86f
0a56ee70
5326d9cb
1013a285
4111386f
89f7bb35
594a45c7
5704591c
e7fc5290
456d675d
ca789777
7bf23193
ee700eaf
6a313996
3c1ff1b9
b8389b12
d28dcd4a
3ad8e4b9
dc2133e3
2d7922e8
8558da4b
78b9092f
40684449
644363da
f69910ab
379037f4
9af9325b
526f588e
4233fb28
3b3b117d
2bad7e22
3f707160
49e9deac
967c5ae7
10eb35c2
9fbffa05
a52ce0bc
da3c7ca8
00d3f497
36db2a50
a2feda34
ba4e956a
87563a0b
6e72c476
6065810b
ea11dce4
8c27dde6
f577d336
4e39767c
f308a5fe
30f8d695
fc2fcb8f
bf353404
867e56f1
6ef5252d
19725133
3d05fd71
21acd9cc
7acf59cf
44efaf7a
8bfdec1c
3f0c6708
35923184
90578180
fe316cf7
9820b12c
cb7d340e
27209ee1
c3fcc053
be8f7eb9
5ea70f25
09d8e1d7
8bd9f3eb
74f772b1
a70f6b77
1b6c131d
782c1ba1
69e295d3
a85d4629
544916e2
5813979a
bea1a54f
17707c69
e6ec25e3
8e1d815d
fc531d22
8331c493
e30e6d4f
a9de8e2e
634d12fb
61665edd
54eb63fc
9e35acf9
1537c5c5
b73204e6
acd89997
65268181
effb7c4c
1cb9be43
531133fa
8126613f
2f65c46c
78e021bb
000a6b8a
7ebffa96
fef57912
7bfcbb94
4821b8f2
f6e3fb34
237fced6
45f67dc3
97bad764
8f150e0c
1b7353e0
898ec1d9
1ee73674
5c769e0d
f34512a8
ec5f58b7
cac55da7
7c7f01c1
5f02f66a
ca291ff7
78e16a0d
d1605b8a
9656bfc0
771206eb
e84975b5
02c46135
a67d4856
09f30759
8cd59cd6
61cb6179
c36c45e1
6fd62133
39b14997
456d528a
be4e2946
b633b1bf
3f0b6052
f4d5004e
d9d1cd15
ed42512f
a15ed981
d4e9f151
ce582d89
1a1adea7
f5e88222
978f32bb
f67ec2e1
a3126722
f8bf7980
04bc8c06
a2834627
adf532f1
c51dccde
af3c48d0
d300d977
d213453a
3dfcd448
947f2c15
9698766a
dfbf5c5e
f0830928
27522ca3
a4fe305b
3b413a38
3249aafd
46477655
e7f5d614
aa609f8d
78fe4ce0
00b7c157
2cb4824e
00ab1937
8087985d
0fb82708
90de55cc
1d44f277
dafdbae2
58d93a05
e7d4a268
f231bc72
68b31578
82c248d0
9686d672
08d74145
f55f97aa
f7fcbc5d
82a66736
6e8a71d3
c547326f
3eb03aed
f160d852
6092cbbb
e983a298
258dfcfc
241a9b74
d391e485
ecf90df5
8e3bb150
1c6a7851
cc6f0db2
ea8cc179
209f94f0
4d6a8b84
566df1a1
9482d22e
a6804f38
78ebcd9c
48200335
7b606862
0639ede8
7c37f2f5
d9005a37
f4e57c13
1a6da63a
e9b84dd0
dcd8532c
ad8a229a
8ac58156
085c97fc
b870f258
1d2e964a
92cee6d1
906b6caf
e7a634a8
6433143d
d56e8c61
a7938ddc
c5690f83
4d92ac3b
d2f5f117
5e247f2a
326b7306
c7add18d
b7636be4
392c0cd9
840ee538
5b4d063a
ebe8a045
f81ee2d8
dd448a0e
af68fb14
cb302060
a18a2e50
c75c165e
ac73fbdd
e5740e98
c4b30c8a
525f6b26
4b5dc952
bb6c4e8f
82d6eedf
5ce75a4f
ef564533
9db39828
b4762aef
99996d56
5ad9d88a
7de3ecde
83c1c7dd
6e32b50d
5412bc96
d24135ec
19a751a3
4ef48c5f
2dfa9903
54286b6e
08d7e864
cd6ccdcc
2ff70afa
12cf7b3b
5eaa203b
5b756f90
7d7a54f9
fa47321a
ed803a55
622e2926
eacd1dfd
c934b5b9
fca064d2
bd023505
162f5693
54b6eed7
86f1e489
2ceec4f8
6ec0d5e9
6feb3daa
bfc6fca9
fce0dca7
7d0aa074
dc188c03
e04472fc
6006d308
0b0ea4b2
6df78d78
bae48778
8b161a5d
5570078e
aff08338
ce414bc4
5118336c
74950dfb
2ad8a6f7
88bcdcc9
005d8b19
e3104c6e
807aa65f
f382b91d
5e748f82
8a047b07
d07978de
c09b643f
e8d4defa
cf639164
3514db4e
04e4fba4
0adc84b3
c8ac3158
1116e061
387e1bed
ec258ac7
c4d00bfc
682fec1d
99756a0c
c1bcaced
0f72a665
35a8a66c
cd7045ec
93ce480d
ba07dab7
3ea4f39c
f842f802
63914d37
a309b372
162e311a
49c34e6c
6b0b343b
3523efa5
a585b233
1ae1de75
b4ef3c17
4a6380e1
68155e32
0d2474b2
9e06513a
ec67a03d
1b757df4
00c09e65
780f2510
ad894c53
89002276
8d6246f7
fdc30e72
4062e495
b8426159
f8f8c2bc
153561a8
0fdb5cf3
9267bc0d
5cbf5c54
f5fb29f2
d8151b95
73c105bd
e3a4ab83
f91df4b8
12ba599e
549917c7
020379f2
97c4ce7b
dcc9c358
946654c3
73d097d7
17f1aba2
fe4b4e9e
39675465
4c31d1eb
aafe1b2b
899b7f7d
02f6d1b4
658042e1
70eff446
058d4f63
a905c754
b5161e7d
77e7c275
9e9a333f
26b3e1a4
10a423f6
acf454a1
c816ba2a
66ba8af3
9379c111
2b88d6ab
f0f60072
78087a8a
cf88a45c
60d72c24
8cd2f0cf
102cb5e8
428c3ff7
5755fc3f
64a14c59
23f83aad
0f63b39c
25d6a69b
52db6540
cabc0ef9
1b89a27c
3352ad11
7a2a92a4
5ac01676
4363fec3
095a428f
2f32aad8
18840db9
57987f0a
4c08488e
179bc0a0
b3f0a7d7
305982c9
1ea6fcda
e8c92d76
7606942a
1e098539
954f0e92
2fc1552b
effb352c
f181f1df
52a6b133
a85a1f56
1d8a56e8
84774b82
2f7e5ee5
0b183bf4
39b755d8
9d28c8b7
63abc8b9
39117f84
0656a525
ce6c2a1d
382a875d
5b7123da
7bf4f094
9d513ea1
77b7ac17
43e073da
ecc60de0
2b330295
9ac58129
bf04a4cc
39123070
51718598
7e80677b
5adee08d
7709df5e
eff2dab4
9bcb981f
77151641
69451edd
23b0b1cb
7928fbf4
51e7730a
6e7dd7f5
e6c56944
03814770
6400db4e
ae144b45
b6a5badd
611542df
28afd93d
f35055e2
5f50b80e
6c9ff30d
894bbbd9
a3d0054a
9be15654
e12a1783
ae8cf869
2c9b50f8
5a038469
0a479f1f
146d5ad6
27a133e0
dbbe5cab
3a371969
4b8c63d6
1fe49baa
d0eaa25f
0968b03c
4bcc9d87
d64fa9a9
05fbd2e5
a6aee3f2
21eb9c61
5fdd2340
f44d5998
b872b17d
4b39c984
654435a9
10ada83b
74b63ca0
db0783d3
4d6c7561
55bac5a4
4d3515d2
252a1900
61f79edc
c736ead9
ae59fa97
b755c299
4e1db1a3
837ee9b6
83222637
0861ad06
29f2b79f
e3b93512
c9836de0
ac27775a
25639e14
6df5fa37
d5d31b68
562744fd
555d6fef
b41aebba
65230e52
8886ec47
7760e6a1
2c707108
43c13392
f2f14cd4
c960b4f3
607b1ce7
36f9a922
710754c9
3f78a723
391a215c
98a49404
6e185751
4e237125
40f5405e
df9b8862
91a80606
d6f4e82e
79529b3d
94f9a2bf
f78616e3
804af9b6
afbf2af2
932418b6
c5503d10
9528062e
d07c467e
a8017e44
8791f0e6
61d23e61
040f6ade
47c61650
9e26b247
5067503c
309371d5
67a27209
995f8988
79164944
fd6b3bfb
2b5ba818
3f432925
8cd2cb8c
463f8cbc
fd2f9f74
5c23e200
8936af62
18dfb2fe
3757c024
c4b3a111
37750026
65399381
8c6a21f5
d4ee4d32
357fd38d
f197ef7f
1567de0b
3411f205
b5f99834
8671248c
e895769b
ae43d8ef
0c295c8c
900cd0b7
e342a49a
aad4ca37
bad4405d
95d1519b
281ca866
6649ea38
8fdbf2f3
204f3d85
4d76dcb3
4e99fc0a
90ec65cd
243670c0
b6461335
183125e6
538e59d0
f10c978a
12aad745
6cef3e6e
cd2663d2
a3a1a92e
c74fa948
b8415530
8322bd67
6f9174a2
d62fda59
e4c5ded2
4598c145
5da771c6
927acf71
64b49264
9d3716f5
0e2e729a
4b2f0ad0
f34e3ef8
334c8bd3
b3d586ed
a25cab1e
a9faf8db
908e32ee
70d361e4
ec3eb413
decfc1f4
aa875561
6791038e
3c5f5b0e
3b5245b7
a38af9f2
4e001dce
e27eaeb5
18c18126
44935745
2ce2b35b
b05a8202
9c937d02
b1957b6d
62ad6e84
51c14aa7
cc395d71
873453cf
2c72b547
21399749
ab9921e8
1d84f2bc
a64b2fdf
baca6d81
4dea2dd9
ef3c0868
8d53bdb8
929d9656
57d7315b
aa004c66
7e79572a
bfe5da84
7dd5f3bc
1c67f411
48fb5d34
e434a8c8
376fc6ee
b983f99f
56ad816b
5dd485e5
64467614
d21d2c17
2b375471
73850a92
e72872b2
f0b06f86
6fb5ece6
5c84d755
882c36cd
e8107d04
77c1cf82
31fa7ff9
754dc0f9
06c2dbd1
06fd5456
abdd049e
e6d63a65
5b47922f
4a055898
b6e465d4
1cd229c9
81cb925c
616ff75e
2defddda
8bf0f7d2
7d3bf831
943bee97
083877a1
a97d7282
6b872a58
4f5811f5
ee321988
f982c806
26042834
0909e04f
61072f3b
c39d692b
31172f59
2669de1c
a6c6300d
480204df
a6131910
262eacea
23e9d640
958d58f7
f9b0a5d5
867c4f45
a87ce4f1
59ebdf74
a3258fe6
230f7b55
c502d413
af089281
b977a90b
69b93cd9
28e83ae3
c6314e6b
85c332cb
5cb48b00
0f1c6df0
caf85266
fc70d833
0817f3cd
9eb9ed4b
501f44fd
2b4aa0b1
a2807eda
a281aa66
0ac04b2a
c19da135
e119637e
fa6efb27
0c1d231c
bd3de9b5
84daf856
ccbd7607
e5fe0692
b861fed1
4aecc685
692c603a
ce32863c
dbda89e5
7ba5ea55
fc9c3a33
da7cefb4
b6f3a38c
1eef4728
cd03c258
6c384600
39320171
a26b0193
9f84500b
984ec784
c0dbab6d
84c6c890
a63adde5
72f75d73
c1c7cedc
4b7ea0e0
6b4b050c
dfa31a72
359a3b96
a10f37ca
d2cef06d
f3a01fee
352da00a
5e9ae908
7ead4317
94381dd2
e26f2d9f
71b9aa2f
39ef620b
c0b13832
b7e9ee0c
664e1e88
ca61e7a6
5cd10a1f
6aee9d14
022e0634
2a116ec4
a4ab24b7
d8b9c627
767719c7
72733c95
8faf410c
0bdf0dab
18bb36e9
6ebafda4
fcc6e740
5645b1c1
01fbc0e4
060d2ddc
44dc8890
e6a7d4b7
137c1663
b95aa9e7
cf8d2caa
a8d186f7
2475c53f
56911515
7d7d1a72
4fb1c99e
0e846258
75a08ece
334c9f0e
845fcfeb
66aad9a9
52fb27dd
4fac5f74
d58bfbc2
cfa77558
a7ccbb8d
55ceae5f
4df1a3d3
91ce9cc6
de3e8b2a
5713c7a9
9aa9ac7c
ce4d909f
2e05340a
89177c10
22965d55
f4895598
7378b149
995901e4
bfe4ef31
61a67e07
c2b9b174
6c2b7599
6338dc27
5d600917
29a580af
384c9975
8d7eabe2
d58470f7
8648dad9
e6b4f399
2615fa8e
05d1a345
5e89e918
5b9f9d0c
52daedbf
556254d3
c63520fa
a14d9650
7629501c
7bb9c8a5
9e56da61
04dc1548
c03c69e2
4f900148
8e532ffd
0dc9e82e
e3e70321
3a0b6d4a
ec3a0fda
797214ce
38cfea4a
11c87175
bada57a9
07bfd9f1
4364ab4c
9e7d4aeb
f77e042a
638f4927
0721d4bb
3f310a62
e721171e
b476f7f3
be5ffb73
7025bce2
212d2478
da5105f9
00f99250
603ced9d
b6a21b7a
a44e58f4
045c0e87
4b9f04e2
f7ab120c
5c49314e
b23d9786
a54689a9
ba8329da
0505c495
d290039b
552d8ead
3c2c82ab
8dd9849a
3948c6fa
134f49c3
34427331
72889266
80a2da5c
e77474f1
7daff576
38147c61
fd806c38
1ef85491
69653f41
6332427f
87448eb1
b1ebf8d3
1f1ffdc4
d2ddd8a2
344d54e3
7f2e4159
acf646b3
cc9660a8
2703e3df
cdf9f342
4a9c4555
81736fac
703ba6e3
a22aa6e4
f3816f5c
1425d92e
b522cbef
fc715df2
d737a004
b1bb392b
d3aac36f
267ce815
98374d31
584cc99f
d06f96d0
162bb92e
06dcfb26
f481d239
af6dc878
e0f64fb7
8ceb9d5c
c6f3f9d1
e9595ce0
16be9f4c
791baa2e
2aeff6b3
13661ac1
a45ecc54
d7f33831
94949376
d3b414b7
78c22578
a326a435
ec77fd1f
e2b1fb6b
744b9c33
a9cdf023
32700fb9
6b0a9cca
f57cc288
ecbe6f62
aadab26f
ebd19202
9eeb1ef3
96f03ba9
05605682
ee3d0452
826fcba2
5659af08
9c0f9345
6f34be1a
e3abddec
97c5c383
d6329371
e4a2af60
b12af407
99cbbbdd
4664a1e6
80156761
6860e612
aec1e792
5501da37
2e80da2f
91143a8e
dd03a0c9
afda742c
9550d83c
b90c3777
45bc51e0
d4fcef73
8335e8f3
188f2223
36f7d23f
d6e0914f
5c4650ef
5f675507
a76cc682
965cda7e
fb4958cd
44d7fbb0
af25b9b8
fee0e219
6acaa78d
52d49e7b
4a7b0579
2ade976a
e565ee43
ec95cf25
765bd078
1d72c6dc
d2ab9f83
f78c03ef
1528caa7
9f87247e
1fa3736a
3da42a39
f233118a
50614fc6
76e15fb6
22a5d2f1
d5ef5f51
0cb63832
ae791b13
1177aef7
8a48142b
083afdcb
60af4cd6
6a9393f5
237c3a1b
ebba90db
f77876a7
5f8d3966
7955943c
9d427a49
7c0de74e
3db3e081
3ef37e88
db5763fe
c1708877
6ceb7f8c
b5c40f10
6976f14b
8d455490
26209997
6ced847a
981b71c7
74410d4c
597d91d2
5a86b3e0
c3f68e01
691d63b9
6a520c3d
a56cd59e
d33d88f1
9ba78acf
8fb47805
a3c994e7
40ebdb7f
39b5b21c
8697692a
2904d097
fd9ff004
b5e89edf
02e7fe4e
e2cd8d78
b04c819e
92e56328
384560cb
4e4a507b
f00dc833
309b3e9d
71e8f1bd
8ffbd673
da9d7b23
fc591e85
5db50a51
cfa40b4a
07f813c9
226739c5
50ce1fe6
0499bfbb
285d3917
8740fd1e
e4ad0a89
be03bf31
e559c9ee
124a7823
ce37a765
76ae95d7
5de41362
748a5643
9a2dd1d9
d2aae2b6
50b16142
a411050c
141e11c1
32a88427
2eac0e79
1ad72257
587bc2f7
b0047ca7
3ce5c468
97f983c0
0563b205
9052c6c2
c4b8d4f0
26aa779b
f45a398f
2a6f927e
46976cf9
6d81a454
408a7767
67482c07
54948225
14d3a62d
2bab59c9
ca1fa44c
283bd2a0
d238b743
c2a2459d
15b84708
f4ebf3ed
1659ea64
9dd14b88
530b9534
50143f4b
a15d731f
ab544055
f5246256
2f1fcebb
fb5bbd68
bf5e2cf9
709065b2
62d2a1fd
8b6a77cc
d234f6ac
6673d8fe
b78bfb84
29cd32b1
717976ae
77d22ad8
b43710d0
3d5c8736
dd8a605f
ed2e054c
06c905d2
71b32907
ceccb4bd
459c51bf
a54218a4
656aa0d6
e7a1954b
74f4a15e
4ea97634
2453451b
e0aa32a6
9b185c40
2569d5dd
68aec553
31de8f04
11f657e3
d72946af
038b0afc
59c483a4
4a212d1a
8524e580
74082ac1
ef167829
eb661e45
db356874
b55cc9d0
73d4ef2c
77a0d2cc
6aa41d7b
06c5bf43
594dc935
1e69d80d
e0a61bb1
e92d6cf2
778a5265
89e750ec
90b08d3f
9a2dd715
0c64c16e
14203315
3382c743
8c4c6518
78bc4e55
a215ae8f
d8f9cf75
0ecf377e
9fab2782
a9082929
4d7f73d5
923f9fce
e0b01c53
a741652e
06b85714
e2811f39
457a8047
912460de
2ecada07
226262a7
f42c3c55
9f741114
db003fba
cfe3d78e
6b475142
0e10101b
56c045f1
3f8d0dd1
936ea095
fdac960f
9af44bf4
71bd5756
e9734027
d6a4e5ba
9121efc0
209051f9
466a35e7
2702537c
74d76ee6
8ab2cced
739539b6
65ed1435
708f965c
fdd7e97e
99be798b
afb41de0
dfe5306a
26500096
47e81a95
92f9c974
f287f69b
f8db8370
ef34c03f
4d209698
cf93dbb7
dbe2a08a
35b9c2c4
a13014bf
d0749a15
58879119
48ed9a22
8434ad8b
60a935d1
e53d75fd
2de5d909
294105e5
b0baca73
613429ec
dee79061
28722fd9
5e8bbaea
62961bfa
c9a8f767
0911ec55
bac12bc1
cb1b73b1
a47e156c
63a0d2a4
05cbf8c6
2c6b420c
33b814a3
b83ebcef
6d77fd49
0ece99b9
1c5087b3
64037f42
7643c2de
b69bcc68
93410d27
e4c7a8a4
a0fc516e
fc896b54
f5445ca8
04ec858e
f0aaacc3
e5eb3b64
91d64d8a
94be09a1
74f4bafc
4e6de5c3
0bc3ca25
ac5d2d04
45f59e9b
f26f9e66
96cf2c91
6bfde068
4e920814
729d1e2c
f4a62382
8382c81a
ce0d3d44
49692a64
7d5855c0
c5138d3b
d5621408
b525441e
6c548279
9f6ceb74
3eb276f7
8b73cb36
d7fe116e
a9f057b2
33bf9cdf
8e5bc002
75b79553
e9f329c8
743dcedd
301f37f0
1075bebf
2675f372
49626fa0
adae0b32
f15a04bf
601375b8
9b5f2b91
0aec4aaa
daf9929a
d27a9c2f
286fbb7d
08ac6517
9197794b
bb7da48d
29367fd5
0a422b7c
1bcaf947
9eb7310f
62050701
81ee4310
7779a568
cba05142
5801ae1d
3461d866
8a915dbc
077064c6
0baa1500
888a31db
ed6ef74c
fec6b0d8
b4db3e1f
727b4fdd
c70a7c7b
15154238
cb7b96e0
d1fcd178
879cdf1d
315bc264
92cd4c1d
95eaebed
48f24c80
be811a00
fa9c2db6
fa99f3bb
30faf40f
65d1597b
3f4caa50
7facc56e
92206fab
7f66afee
7fad8dba
30b1eba0
938c2d10
9458554a
6bd4e85a
fec8157d
bc9e3bdf
8464948d
039aa0e8
067a0819
88f5f650
93ea6d1c
ed462524
5c0d1ca7
881afd6e
cb33fa32
3edb0747
056e709f
96f7553d
4abbb545
06b4f000
c8473c91
60e62e0e
96a05458
06ec66a7
f05cb284
bf7345b9
dcf6af03
17d7be10
88aae1ef
7c62a643
c49acf88
9d825016
fc45fc87
f03468c1
39e274fc
aafb0f01
a061cd78
793c299d
cc2b3691
9d0678c6
955fbc02
dc66dacf
4bd33a45
0b3eb125
6cee3fb4
5154b390
e70db530
3104c6e6
0330448e
2a0f39e3
ac0473ad
ab72888c
503c965f
2655cc21
7bac2b41
c9091796
3a3575c0
d3b996b1
c0c68e67
0baca17c
36da00d8
51648b6c
3ae548c2
ef735266
ec04e7de
53bfcb45
171ee641
e2fad9c9
5042d6d1
4baec6b0
51c46d18
040f5a00
72195ce0
b5d1a547
3d71284f
f0869a24
b5e883da
217cb3ce
9285e83a
c165c56b
9d68cc2c
a416a950
26b50380
d5d3a4f9
8375da3c
21b96674
f7546a6e
f1f59d7b
87056edb
ae13945a
7eb13036
473604cd
2d251def
e5e4109b
4739c7eb
461202a0
b22c8c3c
cd7571a8
07b82036
a518604d
3792acf0
0f51b867
29c278c1
0cababf6
cd58bcd2
1b9508f3
e0231ce8
c618d249
05d9cff1
6f2c2fa0
7e523724
64a17ab3
18efa6c2
0d7a2a87
059eb0f7
a3f83c7a
f8e98c1d
5cd8c983
fc5c0855
d6b2bb3c
9d91bbd9
c959eaee
37a475a9
5426e6c4
7d8bad26
2c023bf0
558dfa7d
36317f89
a8ad3bc1
82ad3e5a
38f22ca0
04fe1ba6
f6058b7b
f751b9da
c32e9c99
436668b1
9896e93a
e1549885
1ec0f94f
bfd6c154
e1bc6a27
f187cc96
d15a4332
cf344bbe
87156cd3
9defe272
6b4e5510
c24f37ab
dbc22be5
3047bfb0
797ceefe
fd7c634c
c1bcb2fe
9b14dba3
b38a883a
c4ba217b
5a08ca81
c9560f58
551f47d5
89fa8bec
dac92956
244ec0b3
d311abf2
b724200a
4ef63110
65e54184
dc6a54d3
6d9953e3
03fa203e
8066f603
037b4f48
d21ed811
fe744e93
02595101
4a1e0323
2b22bf75
579e30c7
18005632
5b1249ac
66b5004b
253a3cce
712f4b9e
5360cd4c
e5b00a81
b53b841e
c4bb3afe
459ba0cd
c17957df
aa6a9738
719a24cb
07f87445
68c29880
acf4384a
0aca832c
9e9e2fb1
203acbc0
79fccf80
379edf89
765b78ea
b84d0ba0
0108a999
db8460b8
f8352991
707e141d
25430976
75236172
4fe1ceed
6ae0a51d
3bc13785
94bf3555
0c5407aa
1fc10420
dd9c7e7c
037e1ed9
5f0c4c28
dcc3a957
74015eb7
6337d5bd
3a64d4d3
c2c854ed
f78331a4
f9778b85
b29f5986
991638f9
3583fe24
a4306ae0
43196734
c1dc6a62
d0e3b6dc
ddc7be56
67f5eb93
c07a3d3c
449ede08
c5f0ca79
3c3c541b
7662b73d
f8f69fb9
2b700c32
d0137a99
6de2a500
f61df887
8889af19
fe5e87e4
972d2b1c
6d34eb86
bceb152f
b3dce641
e9af5e4d
cd40a996
a198214a
ae75b766
171811a0
56e09211
42521870
7b5f7ca3
86850383
2514f2df
b39f0f17
fe74e3dc
e5b6c67d
f032fa1f
4c975d97
3e2d8a61
1ac5ca02
91a0d26f
952a1a9f
8476998d
809eb7a5
2d556d1c
babd6aab
4d20550d
db82c1c3
6bc40e8b
91165314
af29a139
6c827415
01079c0d
aea3314f
cbf3bdb2
4a9120cf
923ccc57
57d2ba3e
d06bf77e
af6d4883
bad5c111
c4b08a27
b746d8f7
1dda2e41
b4e7df57
97c792ee
de73ba29
be3a4747
a00b3372
9450c244
cc18ec7e
14a57dc0
8772c615
ade135f6
5f0f855f
5b67b0d7
1f29a3b4
5f5712fa
a6e59fee
22c2f2eb
a3c65981
ab862137
510471c9
bbadef73
ebc8c4e3
9ba2b933
fec19ec5
fa93b885
c81db954
d1feee88
c1529318
1dca767a
3e6cc869
afb14c62
d11a1511
d2f481e3
2b3cbf92
ac93b613
383032b8
8743da12
162c3996
c84d2cce
734dbe20
671c3c97
64f328fa
b9e229e2
45157da6
c1cdf9cf
9ce74e5d
d13acdb4
ba5fd0f5
1e12a537
c37522bc
eb12cb70
c624b562
39b20420
7bad1350
42f789dc
ad4b1e6d
0dc22b05
1ef35d36
a0174b09
0e2535c3
e97023f2
6646c7d3
bbf2de7d
598e152e
cb483cdb
09f200e3
7a6a9339
d5f2a669
8ec4ab40
5fee31e6
bc053da2
35a58250
2653f19c
bff0af68
dd1b544d
5679a2d1
74545632
b155bf73
72570aef
bd1ec92b
414c7fc3
d25176c7
b1fbba29
a6acf9de
7a700d2e
5ca087e5
67c92b4a
5c88ea21
06586f86
991b289d
8e97224c
a9ec41e0
7070a7f5
f129d1b0
31eee2b5
f8a9c52f
4cc14dfa
2001f31c
ad855d8b
58680219
ae625f0a
5f76d124
d7292f1e
f3a2811a
b5277481
e407b9cc
e9f77e33
55f2b626
a2286ac6
9481fb3c
92388600
11cf9511
b0ad6131
68d7d305
2f413b33
c8cc27dc
c3c69b30
d49fafbb
86baf38f
015e8524
fb2d284a
af16393b
c6a38a86
50eb2369
8ba91834
82c95e4d
96b5f32a
e18ab605
e6137da5
f48707c3
08df1e75
7271e252
4aa9b577
923df38e
47f3f898
af31a147
f2403b98
7358310b
21a90aa6
739d8802
b56a197e
303fb772
506d7b98
f05ed1d1
62a57167
d8b8a44e
ce03d983
68fcfb1f
bba072f9
bb7921d5
47625da2
e5d0a0e0
b1877bc7
d1d10357
1b41ef9e
ef1b284d
086b77a3
ba4a7d13
8f60466c
6816288f
c6b8ad2d
e67a9ac0
b4446f09
5dab825b
cb460186
c69796a0
cf31b847
d5978ac2
a901f8c7
03e514df
50234344
210d5b0e
a922022b
3ff57811
0a6e32d9
0890ef0e
d8fba6ae
641fa82d
7755c080
7c76a642
cd854334
03f821ad
ad9bd77c
68c39a0c
8c88c605
1ce0cc20
ab57cef4
d6e9a7d4
a7acd10c
670003fd
bad7c96b
1cc7b6ec
0e98d933
9d0d4a4f
6f145d39
7f33f68c
9c44a21c
44fdb4ab
524e3ac6
bb80357e
95d8d2d8
e423132c
11081a7a
a093a045
ba9c726c
f948dbac
000278c2
a14336ba
e0e39947
fd418398
b342dff6
f9348f8b
fce143b6
f6a53b75
0fc437bf
8a5af9cb
28922583
378c292e
b694969b
7e6f36f8
a137af00
126e8555
41769fc8
904e9c47
30018108
acb9fe19
192074c2
74cc9ccb
05679593
4112eddb
3aeb3eb9
22385f94
bc381c86
b5b39186
2733f5d4
3dfa8f1f
5b69c3c9
c19705e8
eac25420
66b45674
b0311cd7
cb7edfe8
98003b8c
d5b92c92
d3716cb5
3f514f29
a6aca871
d7407eb9
2963963a
127e1d1c
11eeef89
80a979af
6ad7aaea
aa14796b
b834148a
596d659d
0423d75e
b3957529
117bdffe
3d0f4b32
96d93c30
709e04bc
1e694e4d
718f637a
cead78e7
21267db5
1b4c8998
c515cc98
6f9d6760
26ea4f4e
c6e9b61f
01025846
99d8b219
5c8f7f0b
59ba7c32
074d5a5c
8b95127c
dd60dd61
8700d429
c648a31f
6634e980
a4c50555
88ac0855
83d39395
f2b1b2a4
3953d00d
08eef15f
2cace43e
497b4849
75f3715d
f10165ce
dff75a34
be4eb186
97d02f3d
77db6f71
02bbb870
81296304
f32ca9fd
a8698f97
a41d2899
2a8103ed
6aa1cfb8
a0e780d0
fb12872a
f3947b6e
679bb3cb
92378a7b
2d684ad6
855af677
02133d69
bfc4f0d1
f9d2f2af
5806451c
2961e595
477652a8
5de5e428
39e62dc0
dc9270f2
8dcb0381
76daee23
db7ae9f1
2b1d782a
c2b3d1c7
a10a1f38
b79b388f
7064a442
1b114dbd
0ec09b2e
4b7fdf77
0f8c9015
8e44a8e4
9d9cd062
ed45b390
3cb76a33
f1a85ee2
488e52f1
59022d35
d4c8c022
4209bb20
91f93349
1af7a764
b5db376a
0a3c6181
c642cca3
158c770a
79a73ff9
70f7ae45
65b549ee
f2def80b
21f8826d
fa77bc36
2af12fcd
ee350bc5
d7a40b0f
8cc8dee9
1b37f818
832e95ce
4917ae62
d5841ed1
ab19a732
ddb4f648
5f2289cf
26839f9f
a64d1bd2
46ddd8a1
674dd67e
d8844231
8cd93787
68d9241a
71caea62
0b5e8c08
dc82f580
83fd988c
98a15bbf
cf916d8b
583415bc
d3984def
3e8770f2
644d60c0
5bc35707
7c9dc091
3318aab4
2cdb60b0
4ed01f75
bff4969c
fc244345
25603954
3adf801b
5c38be95
ef2f322d
9fabec5a
e531e242
91b6127f
86f53004
da6a185b
e7d0fd1f
abc55793
228a2881
e48b5943
aebcf471
c708b455
0a3553c3
e9d18f59
5f83c527
ef4339e8
493f0c22
7a63de2b
6425767c
952df161
523f3927
1956e167
e1d8450a
30e370ea
8cd811b4
2e48b313
7a2e1398
1e25610e
5e59d6ef
451e4ce0
9ba9868a
eaadfb05
892b9207
cef6aa95
893575df
2c2a7b2d
e9b8c09e
96537f5b
a54ccf63
2b48dbc6
d7008b88
6d623b18
e18ff0cf
fced78fc
823c4a63
4dc2e9a9
862d9a55
f4ae82d4
c6f727fa
461c3384
087a2aa8
1c415ae0
fd837d16
57839e1d
ca58b47b
33fee350
1dbef861
f46af6cd
a0212661
50f0031b
f1035591
70e20d3f
ac67667a
307ac507
82ec241e
93f14cc9
051511e3
ea7d24c4
1dc79e8d
acccabee
6b4f3971
d4d9110b
18f54fcb
47b5f5b5
d313665b
f3a3a7ac
18c3c409
d8496a55
34db560a
da2d4a19
09a61d7c
4e076eb3
fad4b0c2
f51107dd
fdd46bbf
01d6bb8b
1e2c000e
f9bc471a
c77420c0
2ccbe6ca
c19a2b1a
b216841e
1c8d2b99
347162f8
006d1f86
7f5014e7
b255d8ce
dd0e5bfe
894556be
aecc2cc8
b0f07ef7
a8c5a180
53e7c313
ad86ad07
260966d0
18def92e
a1e680ae
9231327f
25f68311
9669d49d
82b35491
a31c8de3
9b6f0eb1
97da3b10
244f84be
81971c6a
1bd56191
0d838f76
e9fa6ff0
6a856955
e4cd0115
a4d7a28d
7179081d
91037369
bcfe67f8
425977c3
dd41b94b
5866e07b
1d8e357e
4de339bb
02fbfd83
d56c07a3
e5cda199
9764415b
70f9078f
f807aeee
6e187aaa
04b6b14a
b6ab3cd3
12df7dda
3f3c569f
18515f2d
48d50651
81aef1e4
a98eb440
9a66b7cf
bda9cf61
d864260f
17ca29a7
15f3d3b1
25c0b9be
d16f911f
6b6a46a3
10421a14
9089f318
cba1d7b2
10c8147e
8afbd252
89e4d17c
953e358c
bbf5c8fb
bdf11ab4
d2f5ab0c
404ca3e8
1e9b836f
9a7058fb
06e8166b
1494a711
5128fa76
9ed0cb8e
1dce9535
2ea04583
086f4046
d026a53c
9a79d76e
8bc66ac0
b5469d28
ef63d35a
050328b2
585922c1
6643bdfc
ef3f599b
fa15617a
dec0b922
fbae3731
a2dc0124
ab676106
86266b3a
e840f473
ad6799a5
b2bee5c3
deb02d88
cc9396e5
539b2b00
1e189232
87bb18a1
7e8896d8
01d513c3
ece1540d
78f531c7
0c5e49b6
2a05ac87
0614640e
daac8c08
d9c0e26d
a3b7beec
3f5dd3dc
848678bf
33b520e7
1bf90a10
e659a518
507e88d0
6a195746
72da67b6
43307bc4
d4a8039c
4c8f369b
3d25a958
3d8cf673
eead0fc0
c195ab67
c8dd3570
d085d143
44c8ee74
e19721b9
02748f71
bd97af8b
7d42747f
3bd43b3b
685f67cc
5d31e7f8
57f7495e
5bf65422
ac830eb7
3e9ac6af
32779ec8
110f272b
225e7c39
fb3bba5c
f69b1c48
d7f8a296
f436f9af
34c90399
e695614b
dba44186
1c919088
9de18ebf
66549609
7666d1b9
71200c4c
7148a867
de6d7b20
87be5ec1
922c9d01
00d8e7d0
c7b7faa6
7289036b
e882a317
17d3843a
99ef0147
2065b0ec
5dd9c7c1
8b726fc1
24cb2fac
2d58d6c3
111c7291
792f74b3
32af20e5
728b8839
da9cdc35
6687a715
fbeee17d
db19390a
0d9ff8ea
33c3c4c0
05b879ed
80ae0b9c
8cd4b53e
990ef872
26bb0e7e
3e55bbc6
9f828c85
37509703
fb774e34
8c7119e1
f40b671d
a0b3f86c
02fb8126
363e7b15
9c6a58c5
1695b454
19dbeca6
9f263fd6
2c07794c
ba6dbc75
a0a6e6fe
d6c743a0
6b401747
1c09a1b1
c04a9aee
975a721b
af0fa071
0e1d4644
f8249400
e6993a96
a13b371e
36bdd2f7
1f9cd8f1
1e5f16bd
b144ab58
af64dac9
d98abc68
fd437a47
5d685386
98567749
f8738b5b
bfaba0fc
35f988e2
c08febab
ce0181ea
454152e1
1077c562
9f6e3db4
1f582ebd
b87f0ea0
4694cc9f
50d5fc1b
d20358e8
bae9b1b9
c88d0bf6
008fe5b3
d558ceb5
13e66805
2ea2fd77
40aa482d
bf37203e
bd02eff9
1994a868
3b19b2a4
d014bbb5
2db06f61
c74814f1
20383ecb
e6c70fc5
216c4746
f667fb1c
76fec198
33751030
3aa2a917
83e7dc9c
f84e6f80
4b74809a
356bb593
05ba723a
77895e1f
fae52a71
474b1308
6dd0d5f1
a8b5a662
7015a2ed
74bcb89e
129bed21
578996d3
1d3d7ee2
986eb24f
8f5de6ed
18e85115
41bcc5cc
3cee673f
7022ab02
c9a5f560
ab72e21d
43144e45
30f5330b
9cb32ba6
7431f330
adae7db1
052e814c
4c96572e
5ed61de4
35fc228c
a5728521
b91b444c
e602c133
79fdf901
954176ea
dfedb402
a89764f6
74060eb6
04439755
23ab1ffe
9ae39870
3147b9e8
8305a126
95d998ea
8546dff6
4aae7737
3dc81148
995e50ab
fb3d9fe1
d90930cd
df1852a3
14b426ec
a5301bef
1efc8baf
2dc3f80c
57e3010e
b1f194d2
8d0315e9
217c9a03
d9069ecf
d1d33d48
d1cdfb17
495560e4
696e10ca
0b2b751b
bc8e353d
e9d8c73f
d3680660
6f6c14f2
4034408c
c2bf1f27
d08c7ce4
c123a64e
705294cd
e0b08850
589d18c8
3cd3337e
b463d042
6e9baac3
844e4f2a
0c779da6
589a25e8
766693bb
85f7a9f5
f6c959d1
35a9813b
9c48bc7e
1a6d1118
7754bd30
6e9a8c64
4750fa1a
e60e0eb5
f77b106f
bf06bb94
d5d23bca
f2e1ebd7
b6d345c1
68ccb108
f2140d58
911c2a7e
e76f66e9
95dfba5c
0e7a2ce1
d2770548
4ac9405e
23cc4bc7
e9a35d9a
61e92073
a6a25953
ae6888a4
c0a6a146
00bdad36
ad60053d
069b424b
294df608
d58238c7
907c5fc7
a8544501
353d7679
ba6295ea
f7fef53a
4c2bcbd5
6a050155
abb07edb
87650d6f
144e7ace
a7afeecb
cdb8b6d3
d96de8cd
1dce48c2
47173286
d67609ce
325dd2a9
4355e441
8bdf1c76
4bbdf00c
dd84f223
3526e68c
d9be8d89
716923a7
cc2705cb
9391a552
8c9da990
4ec97be9
914d1064
f09f2ef6
f083201d
731510ce
e6e93185
7ea3e1d1
c5a25427
9548d32e
3b572828
f55e3f84
56cae22e
597d40c1
3d6308c9
b53cf7c6
ae49ee3a
5a227fa8
7312155e
bec5f246
5238f296
23f82c03
1467d9cb
8e6d35a7
6db7fa20
641b6b74
287366bb
00dafc50
6bb07f18
ebf277d7
53609266
0eb73c5c
f5c81611
afdb1f70
1d6020f9
ddc9d3b0
63550404
69922f1c
cde864f2
400d4e4d
de76ab70
208ab87d
1dc2efed
67ec2a31
eb1784e0
60877347
ea5c20d1
58503518
f66072df
dbc92c9b
8df9507c
54f2b0bd
c6ad18fd
9c6f115f
fda299ca
9ae57d47
cdf02e3c
941756d2
3a224fe6
118a5c7d
72e20f08
527a8366
305b8afe
4fc52d9a
076b9b1e
91b7f300
82393248
c8fcedc7
adc81342
c39a6f81
1b028669
9ceaddf0
eb131f41
e333b1fc
c946a3d6
d3557183
a71e6caf
404c0ce2
1c5b1779
868720db
df2f67ea
31ed417e
d8823450
9b5d998a
a0355d9f
91e3b604
585943d9
cc72520c
ef92490f
773edd92
176c4953
f9c85e73
8da0305a
bf4d4ce5
3b7ddb1a
27f43a64
52f4f440
70c6d365
9ea748a8
3b8cb72e
e5639c1a
514fba74
76e7a33f
42ab5c02
5ab63fa9
df64fcad
de38ae0a
7a3e8036
76301de9
3a2194db
21aef07f
a40ac1d8
1ccf010e
892cdf18
7c6418b6
5bbea2de
a5796ced
b31bc0ed
a14ee74d
0394a1b5
361ecc14
16484512
63794229
b4074c26
c0da4b9f
a9de447e
da7de314
eb08933a
fd68d390
a0367e8c
02018d06
b93cce8f
fba983c7
fdf886ec
623f3a80
e0ac2c33
48c3c645
465876e0
a6593ff1
2744cf92
571236b5
33b5c12f
a5822636
e0a89d51
756e2f0c
d8b9935d
0ab428c8
0f8f02b6
c4369d2f
57588a93
29e48291
50977f3b
bc939ee3
673c9688
b6364937
02a79760
20fa9592
b6cb62f1
53319771
9919be33
f3190d66
9722953c
93489292
ecd27543
4e0ae67c
e335e6e4
b7085f6b
fb366a6a
9d0d957e
1e591205
d5b37a33
4f96543b
43eca677
c95febe5
deb10529
c6837521
35b9083e
19a487b9
dd74937e
e5feb80e
0a72bc8c
ba4e9289
8d4f6a33
9a003ebb
59ce015e
34dc6e3e
9e0def78
cfdd1b77
f06241cf
ed4422c9
a4450de3
623298b7
c99211bf
668e8421
2bd1bd4f
246faa4c
cc21feb5
6d7cef9b
612b7f30
dc19d151
988ed495
29be6169
00a74d4a
72fc8609
1f4baae5
d9ee6d0d
0b28b829
e4ccfd21
462ce52b
8cc65b1f
60388fbd
42ed9540
56df8109
5868a8f3
42611e7b
27a7ae8d
eb137aae
3c460670
099fef9a
89ca36be
a308eab0
5ac06450
efce9775
d15580d5
daf9e54e
5b782c8a
ca1e9a5e
b4b129d1
1d5ef371
e93491a4
4f844206
fa13712c
9df8f982
44e51311
d732f87f
7c670ae3
772da825
d5fa0424
0bebed75
3dc1c955
e26e0834
bac0ca0e
ee7c2df0
3cc66e85
de078bc6
288bceef
cb8eb969
197a2046
11344133
3a4479c3
e21cd114
e37dc7ad
164ded21
ef4c4ba4
5427e6d6
b17e185f
0cb3ad5c
3bf3a627
11c4c132
d23d7961
4b6a557d
b22b6ab8
591f51b4
75bb3879
37ac5556
661d646a
7234f69e
2da8f757
f1a78130
9d465c33
6c4cf47d
d4e9b0de
b5fb1a31
b5d663c0
9e422ef5
69a37acb
c099bf65
1abbb74b
bdd22ebe
373e3dda
85b8399c
f96c21b6
09ded451
498b87c4
49e019b2
20e194c6
753647c0
f7338697
12d0c02e
1ea8a539
3ebf0117
a172e625
7bef0187
dd6487d7
dcb15e18
57049b4d
e2b739d5
9ba5cf4c
f115e7cc
5b6ea3b2
0dec6cf4
e3144e93
677944a6
0ae78168
4bf46320
b0706450
f82ec1d0
f148109a
439fbb5b
896eaeb5
4ba96172
9c7cd028
23b90fca
51acd8a4
f8e6c036
17e3878d
dc83f577
dca4e43e
3787ba6a
cb8b6d6c
be41f9d6
f28cfa70
0671136c
013d1077
920e1cf7
bb6fb4f0
d4b1f8be
4155ed7d
6a2ca58e
50fe8601
030183a3
3ce80872
97c3d9c8
ca6f723d
52848c14
ec4bfe24
db4876df
1f84a742
696be768
5f2cfb21
0b528f0f
65f7b692
ec3105a2
d414f72b
5be7c5f7
82a328d3
38d9fcda
982f3525
b803ceec
61679c25
16a47f0c
64cc9aca
5bf3ab8f
09ad0523
773fe295
7316a35a
974f6a98
6d5013c3
0df5941d
92b61395
22c010ae
62fb0f44
70273e21
f2673c51
a57d93e0
784f95ef
d5467697
bdf2e168
f4ef080f
59a7c545
284164b9
a569f695
d267255c
dbbf8301
6fc0fdf2
e626a858
67e30aaa
8c6ddf1c
73e9b348
8148b6c7
e4855b41
d8911524
7220472e
1b8b348d
e5909b9f
1dc56f3f
f6290850
558560f3
874b1cc8
1229403f
608854bd
04db25c9
28cc2fed
9258063d
013864e9
ae07f103
8aae3f44
7fc87d12
d75b5993
855be916
f7516751
8ce7b06c
387c8c2e
cbc95dc8
3148824a
d5cd59b0
b8034072
ef34edd3
0028491f
78cd4888
c4694cfa
5cf235b9
9aa17fd1
aa8d618d
d3414d7d
381b4462
8ccd7385
8712bbfe
312b8b26
855bae11
03aa3e5b
ca731d73
03e3e36b
080d910e
ac16fdf0
edd4cee1
6c6d1c77
ba7200ea
5160ef91
feeea96d
c340243d
13df04b2
26026d80
250b7745
e155d0a9
99e1fcdf
dd5b5abb
e14ba16d
f8d9e67e
8a447640
2f598bc7
6542aedc
0994f553
f905d736
780f95e5
71a43295
34ede9ec
d823efac
5855ee7d
ddc1ca30
c5e23c99
ca052a34
29cc9e31
d8b38870
fd3f4d88
c5b192c2
c046c539
d20edb42
46dc9a9e
aaaa390e
d39584f9
c8e628a8
bf214102
e534b5ed
bfc0a6b5
a5b7ec52
6920c34e
407b0393
d19229f7
e4b9040e
e0a0505a
58741267
d5ec0368
30cef507
f4d9f11a
1308aa39
ee9bfaad
7a0437eb
22b3b4f3
647dcd1e
8e61e9e9
5538cd67
66c0f3b4
5badc74d
f43cdda2
79e7c2d9
6f2a4d81
e4bf521a
1c17c4c4
8690409a
1cf569a3
9553a224
7c613050
39e6dc18
b8016bca
06f3bfc2
865a5299
da7a0656
ec9afae0
2b2fd3ea
6ae55122
c2c06a2b
6964e938
45b929a2
ea6d5a5d
5bd57f21
f4f96ca7
1f4f6fe6
585da20d
de66d109
5c4d9450
40258ddf
5c1d4eab
babc7731
84fc2035
91715032
958cc93b
cc84f42e
0809e37e
b70dee4a
a7526165
6cfc0ecb
e750272c
e088c0a3
ec5e47f9
4e801f82
61c6d459
800bde27
e269ecc4
73bde5b8
296b34c6
9062ab3f
32d3ab81
53f80be6
dc7f989e
353fdba2
8c3926a4
7cbf7edb
ed25b92b
caa3831c
8e150352
40d0471b
056c9ee5
90611e19
599c5000
a982770a
7bb6b165
60025953
7b5df391
3b530c21
565c92b4
7ffafb8f
711a2702
55c6a337
7f3f5e6b
63397561
43710df0
227fed23
a2fb4d0f
72374ea6
24f49095
123384e0
8b82e969
66bb5f49
6e184d3d
db3fad2e
a9cc69cb
a79a1355
bb38f196
d0108118
8ff393cc
90ded1e8
78c9c955
9e6969a0
e94ad572
69663c34
b5cd407e
14971c2c
b45cb5c0
38b3ef53
8b411732
c8788e70
5bd062b3
4e541513
b39681c9
424371f6
8ef91625
ebd5c06f
57f1fa24
d8211e53
533fe044
2e853734
907bf9a6
058059c0
f01aac26
56db19fe
0b5e6776
88a043e6
2d05bf83
d2c76121
0938d71a
db0c9450
7c4ed18f
a413857a
5726f973
a41a0b03
1f7b01d3
403eab59
d6b6bd4c
5b8f8eef
f3c43694
cc70b95a
8d966d39
d26a7b82
084c12ec
725b3d22
26f1f695
201da89e
8456cf09
2e07f637
d3550b7d
5bb1e52a
5ff3335a
7e7270cd
174238d6
c8245872
e5702681
b0a5217c
6adc7903
6a3a2fed
8429aec1
cb57e170
b568ef69
1c22d622
0bb0dcd9
e5de8fa9
323cf264
24a56bb2
c44fa44d
660e590c
1319f211
4a482743
730fc4af
01e7a87b
075ea394
b8881d7d
dff906e2
72ebfd83
274e856f
61f11463
c77bb46d
db358aad
4dc0c0a2
c050595e
c6a3133c
a572e502
78909af8
a3dcd9eb
c28caa68
594ec8c5
4b1f5fd9
dca2f0f7
b77afcfc
4873026a
3a20b959
62671a33
7bb085f7
b12e60ab
2dc14308
a1fba908
95d6e440
f022de6f
c5806ce3
9919e9fb
3bd81cd8
6b3465ad
032c4e56
e366b55e
54d2629e
b4d5e4a3
8bbf989a
10692d8f
269bf1d0
c1bd3b1e
b3aa2757
25ccf7fa
2f9429e1
cb2d8b21
1f33bc56
1cf85bce
6bc1f8bc
2942589e
1eb96802
85725f40
f0319190
05e417db
ce700fbb
70363be5
09862331
0a58c6e4
e45df225
7be5eff4
414d67e4
5c9292fd
699639e8
24f88a55
c94886e6
df945ffe
8ca14b0c
b344ac79
180025c4
ccf9c893
a32da242
50db2a50
c0df91d9
a0fd3bea
2cc0aa15
36fcc9a3
fe28fbd6
8da2a2a4
5cbb6bbc
8ee48d5d
73476a8d
683ec7c0
8056d7ac
455ab2e0
937c04b9
be3344f1
c0f628e6
7b3736fb
e6d3937d
fe5704a5
62dbd2f8
8ee4d8d0
f78db188
753ad232
cfa2e2eb
abf4145b
86208cd8
75543b7d
179d2ce5
637e7f09
6ed8d85b
2cc88623
1150a532
bd7774be
8a862508
509bc49b
a11a2af4
57a3e6ea
add63d04
bc826b43
fbf2668a
8bdbd0c2
3b0094bc
c3bf1fb3
9387cbc9
6b70760a
12412273
d6ec8774
a0d62088
5ebbb463
c6ceeca7
9b4e1737
59062ab3
a86704b0
86b1b0da
e969c322
49d0cdba
0c9a4a0b
a5bb647a
5b8abc00
6706b303
e4f74b6a
8266f44d
1a1bd45c
6aad0e9e
6549cae8
bae3426a
fb2b76ec
017f26c1
af0c826f
be00d693
92cbf523
a3107241
a055ca71
eca66d25
3736a219
14593019
acd5ed2d
15f8fb1c
cc564473
5c4fee49
52c57cf9
e34ae052
f559114b
d5bec811
a9fb5d89
df62838c
93653687
b6ccb180
2f7467db
1fda3cee
da1c5ea4
e0b5a802
34276a27
e60f4288
645b69de
67aeefb3
2c0f7988
b568172c
0c2a3391
dac8c2fb
17db43f3
5c97b592
045b6350
be12eb9e
b282c554
6b2206f1
80f66103
d602ca2b
10b4213f
e5c9024c
87310a04
35695abf
aa313a65
e0097648
a4a33090
bdeafe8c
25855d0d
cc85f51c
9ef5f565
c98faa39
92c98652
788b057c
97bcbb27
09dc9dbf
8959de1d
32d3faaf
0c2f7411
9c9f7bb0
cbc850ce
b91b0e75
3e7801da
12b67bde
1393ec12
4f40d299
37049a37
1f9abda1
25feb035
bde0a5ad
e45c6af0
bece0b98
c62e2682
d11b8812
49084804
0d91a649
d56f25be
8f8df0f9
4c6add34
dd5f104b
59fcb09e
f24fb026
bb443bd3
a44b01fe
7f899ba9
365d6ad7
b64794d5
18169da0
5a82e7b0
1f3fa7ca
159d264f
7289ce20
6b13c89b
12167e8d
1c222186
1fc1c070
4d27e283
2d670a25
d8597100
f29044f2
2ff54f87
c1e3464c
01cf8385
a90ae2ee
5b11002c
35f87b19
a2ac9d62
e611088b
1101d464
0f80b623
763420d5
f7078451
02747a91
9880ce34
53123466
34ee1b0e
c680e2da
5320c208
65e52637
ec3bab07
bd712fb2
959c2ac1
50458933
04c173f2
ad40283b
002e8c1e
52d683ad
8ef547f2
b0697bee
6f07e04c
23bea0c4
61bc4728
ba050cc7
d8aa8ee0
42e97278
6534465b
82df3297
65ae496e
9393debb
a50c95dd
c9c732b8
ac39276e
c7776d48
77cea11b
0eec5461
c236fc50
9e7c5270
3f949388
967d634a
d58f7722
dc0c0dee
2846756f
57e19c78
24adb6d8
58a98db7
81a458dc
b42a9d2b
f680f3dc
8ee600ed
1fab1738
9f5b24cf
8fdfaf5e
55f94b7e
7ee09055
cb539704
6258d391
52433823
6a6d3c6f
f366ca66
b27dc8c5
ed3b267f
1da2af53
29fbcaa0
a35dc99b
499227c1
70690aaa
35ccfc27
fe7f3125
7201e0e9
f13cc725
18a5b455
c24094c4
bb58c9e3
eaddb8f7
b652269d
76833d1f
1e46b9df
fa760508
082f48ef
34a77bc6
6d79cfb3
d5b73cbb
d9ea20dc
c92d0495
3eef4dfa
4deff4fb
fdbb934b
1e232564
af155329
79b87f98
c262946c
b3c8994e
4985bde1
45f3deb3
fc33ad12
ece24be4
5daf9973
1a50a91d
9aee992f
101beb57
e105658f
ee6ae553
d9d486cb
3811cc2c
6ae2bfc5
de8acf66
1a1e1d33
73f84e83
a7efd695
92fd20ef
b38825b6
9145aba1
1a31ec4d
df733bd5
f0b6cf3a
306b52e2
c12c417f
cde17281
f06dca55
bce82605
9cbf66cd
7bd18c91
ad6dc94e
b3954e93
e8ef25d8
7836f9aa
3fa78eea
33acb41d
e6df1cb7
817efb34
c94383fa
c0630266
6cd485bb
1940fbc6
d4661967
df3274fe
00e29c18
f3b21e6d
333ae467
249ddccb
4f007f66
2a7bc9e4
78ea0fba
6891bc8f
14d6bcc9
8e771442
feca8647
ba6f1439
594ffa8c
2dd79229
651a2a8f
30a9adc9
3f265c12
0637847a
ae6a265b
d35731f9
7b367e20
7399e8dd
8c0503ce
41db0120
61f2bd57
e2259646
ed1c52a9
055d030e
2d727d1c
33390fab
91c9f80c
e2fd6f70
adf81df6
eeda4ff4
2cc8e668
4286a0ee
b2586952
559a6c13
69d5e139
299722f6
057bb63d
2cb05ffe
043600f1
8bf1c64a
17d6e881
272d8ffc
a7c41ebd
61e39939
86243e54
3092570f
eccb093b
df4e78b5
be8922b0
ee0f204e
44bfd0c0
ce4249f7
ac9ee034
db5e7b87
7fb9df3c
528bcea4
7e5446cf
526fbe29
f3ab9cb7
c10b86f3
41ecacc9
bca2cdeb
21a94a9f
2d06d7fe
93bb3262
b9271adf
78c74e14
6715e2cd
522037e1
81b85fbf
f6bb3812
882b2bc4
0716b737
7e9d96a3
70fd69ad
26073e40
ce0dc1a8
4456e241
ab5c02eb
de789dc1
b1e54fe4
7eba3d9d
9179ee01
3e634da4
37056628
85594b34
561c1d12
23439fd9
53635a04
75edc729
cd804b99
90aa1dc7
5643b8a5
948af2d5
bd9fcbc5
528dd23c
ae851bcb
fe7c4e0d
8b6231d0
e5587526
d13b85bb
093845e2
67a7e6d4
98a5894b
3cd47bf3
c71d6387
61e72a12
b22eab4b
eaa352e3
45cb4efd
f144c6eb
65d74ee0
aa6bab05
4911a05a
4cdffe21
09b0892a
7ee0bb08
4ce81639
21f8fcb4
0a716b8a
b8d999a4
ed5818bb
fc530918
252c345e
5bb63069
ecb0e1ec
e9d2144e
554df43c
ae57ec7b
276c09de
385468e9
40c07854
4bdfc11f
5d638175
25994ef5
2633c8b9
537191b2
e7becace
79fdb024
732f0f85
1868a00f
f056f0db
9ea6c91d
b9b4bdae
70efb9d6
ad869e4b
c3d65e21
e1fae87f
9beb8ee6
f40748fa
a473d6b6
2d1bd622
41e21c31
bc4d6017
a916e1b7
4ec82b49
3a54f297
f32ebcfc
e248ebc7
9f0c514b
939f2b4a
f0047ab4
63deb91a
955e51c0
83324ad0
ab6acad7
52640fa6
fb7a11da
eba8030a
d82605ab
d888f918
420d8126
c9c5902a
57cbc70b
385ed54e
afa8423e
dd81352b
578f3e02
1c916951
30265dd8
ce47d6ed
f24148f6
918d3f39
ca5b663a
faf96900
578033ed
0d226f2f
054cb6a1
83b7889a
dfa51c67
d2c4ea59
8ad2dfb6
573d8a5c
9dbb19c5
b682e29b
5ce7d57b
24bc24d1
993ef7bb
26052b39
8300ef82
f556cafd
2a3dd9a4
82857203
cc6f2757
50d15652
5cc67ea2
e468ae05
8644baf0
a33d2e28
177cf301
032bc6c1
95dd9aac
f7545973
1ab52715
ad958ccb
e1378865
a97bbda7
02406e01
8de826d0
cdbcb98d
6471c541
9f4c960d
5ad73664
c0c76e76
12091546
839aa84e
ee5c3032
06b4df3b
85014fc3
5e5225fc
b14fd132
fd9d77ad
6f37ec77
0c066481
0326c08d
d38cf664
6ce90970
5d457cd5
32fe9da2
cdc00552
9381e344
e604eff4
b2cf4aa0
dd0a9831
a71575a5
cc2533e2
a52fd625
459acff3
6e514db8
f3521824
2335c5f4
bc20f21b
8fe2a58c
79ba2a73
c59c7685
4c1d31ae
7e5c5cdc
17858db2
545de1bc
a3bf9252
736a4f43
37f7b7f8
92757414
b63e666b
cdbd1b2a
7b3b22cf
4ebdf5d2
4c6442e3
24ad2331
0f53c9d4
8dc156ef
7c467c10
9aedd504
15a29b3c
b99fbc36
3ebf494f
a68f6aa8
19a51475
44895a73
2333ea06
3b4f794a
0a978d66
dcd1e2f2
2321e1dc
bf5fc03a
f20f46e8
e9f6b34d
1dd5071c
3afca8e7
9198bf39
fbfd00f4
6db763a6
2a5e673e
361df9f9
ba88693b
926558f1
50ba577d
91a15f5b
4936a3e6
3c0a59c4
0ebd7489
ebd4536c
d37db8f9
351ea174
1e544c7a
9edc86ae
679a0623
25c6db46
182ae705
3dc67ee1
ce272a77
50dcb0bd
4cb80df1
a0cf04ab
c6d41621
dbb0a4a5
da2d7994
4331e337
3b1617c7
6de42bbc
26b5dbed
3864c798
a17f282c
4352c5c5
ab6d481d
d94b090b
3e869663
bc252e57
5c2c1a84
bc411ba6
95e42916
8fe142c9
72d886c1
c0d38ada
23ea3bca
14bd43fa
f0b581e1
50d7ab5d
10d461b6
79d45264
c14a2463
963190bb
b257467a
feeba598
43bf6f76
1064e891
e3dc2eac
29e817a4
e0357b19
95b44bd7
2ffb0e68
7f0c2767
5c2318ca
0b2ad332
06b94e69
5260cd17
f89bae86
f7d4c0a1
ba745ed9
a37fb357
8897a231
5a1d1769
af0df74b
dd2b78e2
de58f701
374911b7
d42e502a
7766e85b
998a5b77
a26537e8
e8c9389d
47a29720
81cc077b
c60a7caf
f14dbcfb
d180fd87
47fa0b6f
18fd13d6
c19acfdd
6b3d3d54
13472ec1
c66f8280
af773f36
ca0e0a8d
f12defb0
cd91a786
d34817df
3ee1c100
6404c2d4
b563490a
c545fd91
039b2927
e754fa3f
eb672165
17bb3647
f8fda0b1
1ab52193
0d463e94
61ee531e
60d48630
0f1e7d42
003d28e9
9056960a
6423ef9d
c5996aca
13ba3458
ea1ca71a
4c676a0f
0c99e057
326e12e0
977980b8
f4e756a5
1ccb3986
080e0d3b
a6d6c534
29111544
d4e5ac69
8f2cb958
a9277070
12bc3a34
7009c179
cf1c88eb
09c76511
5d793f0e
f492ae51
7373ad7d
d26bb4ef
b95df69a
5ca1c720
da35bc05
3b1e3794
3a83bbbc
5887293d
e4f06599
ced50304
c2e976cf
a866e383
596de23a
25625ae5
8a93f8e8
29ccfc3d
fe1cfe4f
9a4aa7bd
225166c1
94b548c4
d5dd2a9a
6a0bef73
cc3cb8e7
5f7373c7
d5c01437
93280b67
74d0d238
41c6305a
7bbf65cb
e028836a
f1c6fe76
e1d50705
9760d45a
7d27cd01
704766ad
ac33db73
7b8078fe
b9524110
31927c67
1c3b4fcf
0ae66103
dc639052
a299b8b1
77ae25f7
5befbcc2
5d7f90c2
282f8755
95dc6238
dbee2700
af9c84b6
f7e8c035
5e785f7d
aa50d255
efe0b093
a8a9e367
12b90521
3d4e9496
d0491534
3a230288
6a86964d
e6d2bb05
bc505528
352a880c
ed23418e
60741694
42470333
ce8deacb
779f4bf2
b931c43b
1a677dbc
d267b160
6b889c26
44a0f45f
43807d92
3c89b2da
4d687cf9
14d6cdd4
cd70b1e4
1bbf962f
d28385bb
4dbb6d79
ecf9827f
7b5b81d2
1d1d8755
1f5d53ef
cb2ff623
5e24f6c7
bd7cc30e
6edd1460
ccb43f8f
d3a90045
2138a65c
dff3bc85
f2d5cd97
8d09e97a
432782b3
263aa38c
405a776e
dd973e10
e67cce10
9dfe251a
7e4a02d7
fe04cb80
97a4ab33
cd9688d1
5cef60e6
0fd54607
3d30d80d
10c50882
f3a18b5e
4105b51f
c979defa
534d11e9
d3ee1fbe
84949158
3abe29ce
a24efb02
80d2d1e8
59d49b9f
bd8f04de
2d65770d
64f1da4b
b9f7eae1
296f73a2
fe32c79b
d3260f21
c1f91364
c32c5951
8eb13481
edc96d4f
4b876df9
81a1f323
c71f4239
f4da0a00
446ea52f
81f99635
eea15d16
a8f2f7a9
8282d736
99f6f10b
cb383351
c13e97c5
afa8c598
3e320b46
572571d3
6df85a26
6e65a0fe
82ee0623
2e734b1a
9a187efa
4f9938d7
db632162
a9025971
f7098a25
4766ee8b
03a3f6a0
e21a6dc2
be3e11c0
d9f60a51
3beea4be
48403528
6ae7cc68
da1f7a1d
aaec807f
8f643c41
574ee92c
5ed66f87
f13284f3
8c9fe8f5
6389f194
efc10327
203a7bdd
09f86b78
15d7cf46
fd7b520a
33e1d4b5
a41d588f
b9c403ec
1f91014e
a394cc7a
9857e6ac
9b5f4a74
64727cd2
d6be4293
fdf65be5
fc5a3693
ce647408
1fe1f369
3ca2467a
c05dc739
bda1c7ec
b30a4d63
87c951cb
c1240cbc
51b14d43
a97bb226
f49d540c
7a1468fa
2fa4686e
9b0d2653
1017fb4d
541c8ef1
9e4e8f64
b7a758fa
857543e6
8c762e8b
2747c7c9
eeeb349e
ddf4026e
c95e4333
466b9154
4b63e1b4
8456b3db
dead9027
a384828f
3dabc66c
9d86afc6
9911197f
d2e0fcd6
0c32521a
0752d878
9785ebb0
3acd23fd
22e04e20
785ccb6e
952ef917
e7592d9e
d45788f9
7458d83a
6d114a66
1df315b7
ea060db8
3669530d
95c58fb0
d1b85184
e84e123f
4f55c6fe
9d3d3720
a3968c74
111e68fd
0e94833c
b85ffc24
485681a3
716b3f44
c6a74cb0
8b1af516
2d47821a
d16deaba
de641266
d6570707
3e822731
0d9eb9a8
4d80ab63
a76ef3ee
386893da
d23e4d2e
6c802856
cd7045d2
6cb92015
511be85a
39378ac7
ae534da7
aba1b2f1
861514a8
84eab2f7
9a405e08
c9b011f3
8304ae7f
fe408f89
e2529554
37ec714d
1abb7115
85ddb0a9
014aa064
0d35a163
6793a76f
060a50b4
e5a4c773
b8fdf48f
5523e0d0
f1e5d0a5
52e3566d
e4a8e9b1
21095af4
22cacc77
80181e90
fae67f40
3f8e754c
d30ccbf4
0f194fb9
7ce3c5c4
35e781ec
e23c23ae
3a975a9a
e3dead80
1c6a9701
c5b86383
a1905f03
cf93766e
182c2935
55c5e088
fa13fdde
e4356dca
f5f4dda4
13d75f77
7a006afa
0b78b930
71885eda
26b6c0cc
5cba2bdc
bccf13e0
5338b1e6
49b5c618
756fa65e
e3f50591
9f65d58c
9d39e01f
362bf969
58434c6a
ef01683a
bb245346
405edc62
0aacc4af
63fa9b3f
6556d01e
1d66f628
a00577be
5dd0aad2
cf68fcbb
5d7f117f
7140d794
4d028700
bd575d63
f13e7ab3
fa9aae16
9283ce65
00b46bcf
b396f560
89c25aa9
7b19d8a7
e4150eeb
471e2668
e26114b9
8357b82c
3814e3c7
47f217aa
fe8e20d5
9d7b52c6
20110dbb
37f29b3a
4fc48c74
791de835
771f19c0
b16b979a
2bfa82dd
78e756af
77521fdf
0ff4460a
b5cb144a
62f69145
2fbf04cd
04e80d4e
580f7b6c
19862776
b68ebee7
0e291df6
b1a555a3
3b0a2bb0
2b6c4966
bd10575a
4b0f2673
ae9e1d10
bee7a660
c5d70a4d
6942880f
3d9a76b0
7048c21b
140f7dcf
dfad087d
edd326bc
a9f47f09
f24b0a66
64de3ea9
4b2e19eb
d1123bb6
5089bbce
469f2d78
516e9d10
3ba451fb
dc9feb24
2713d4a4
ac801ae0
e88d9709
e6246c74
aecc9151
935fe7fd
50548d45
4a4d8483
81acccd0
879c61ed
22bd0703
a48e0b34
f4fb4a84
3ca2be4d
abb6b538
5dd1f23b
47845e13
7f7a9814
935e6fe2
c2198cb0
2cb3f53d
af62caab
08d04a91
6ede6bbe
7fc1eb36
3a6375cf
8e223fb7
ba92be63
fd555074
b1afbbee
e691e0ef
c5f13622
ee773330
95839802
0a59d68a
74a3d84d
4d08db41
e9b26a17
bb54a79e
976956be
a89090dc
6224e2fa
7fb10ccd
4bcc554a
359335b1
e0e595e3
662dfbf6
82e337f4
eee0964b
b335ab66
ef704abc
b00e842c
b9000637
c287c784
249da678
d0f5ed2f
7c84e70b
f6e0eb18
fdae804b
d1143683
875ad3e2
3729366f
427b9690
8e1fe382
f171a05e
e312eb20
0891284e
7db3c6b6
781b90ec
95d0d036
638095d5
9c0cb6d8
7a7d0ae6
00398a92
686bc310
ac43049d
292d2acb
17e442b5
cb0f5fec
cb69e5f5
8eb2a1f6
2772d474
0f9011a6
58b14f41
82c1c5ad
7394e690
26ebb988
f7698b6f
cdd1543e
e9f9c8d6
aaaa8c68
3fb22712
0194cf9c
f431eefc
c339c111
121dfaa9
2bb350e5
f4b0c127
fe3d388f
7fc7ec87
4bcc0064
a68ef03a
abd03048
e1113821
a67871af
23bfe5e1
c82d38ae
2249a93e
c2cea08d
5b2f680f
bb9994c9
81032cf0
cb05003a
73e88730
da907925
8bcf764c
aeb39075
96045c51
55bf7c02
cb6f0389
ad727f57
33e4d66b
3a830586
580c04a7
bca1e865
fe9d57a1
2fe80ffb
066be942
99033197
ac3b2a42
bb9f5a51
d10c05c5
b450b53f
bc4e97cc
32b04ac5
89d4b2e9
f3ccf32c
93313e34
6fb9c9af
a0265845
83b0b5eb
8e7dd2e1
e3b0c131
d2584cf6
2a658b9a
705e3a30
d6e9279b
a06923e7
29914986
a5c6fd79
f0be90f1
9e784f1a
db7b3cf8
c91c43f4
93bd47c5
432e564a
53648e97
f8760687
c6944415
9d46bf5b
ec407bbb
d9e50396
96eae8c8
04fa5f59
73d3857a
881f1378
23e42ef4
946be726
923e8e79
93aa5e4c
81085d1d
f385612a
a9cd5a1f
354c22cf
b1101766
f33bc28f
9a9ac702
2d68ac04
532bdc14
02d5dc7b
9accadbd
3e72cdb3
3a89cd17
1d7826c7
74348647
42d20354
135585cf
dfeb57d0
170b678a
f968483e
885c2de5
e6ef9df7
4651dfa7
b12d67b6
c70e8103
1112e69f
7da0e63b
99959a41
51d614e7
55c658b5
d8b6d340
c158aa0e
7a2042bb
a8f76ba8
67c8979e
b018f469
864cf84d
f34e185d
1d3ed18f
c7acb78c
97412312
30acc1aa
4f821cf4
cc09ad05
152c705f
44391dba
b80b236b
167b67d8
5e0267a3
527e39c9
fefd941e
eb9afc25
6258f346
cf9250d6
cfd3499e
7061bd88
7f693a52
7ac08719
c48e522d
36efb3e5
60928f41
85c16207
ea5587db
c9a82029
5b585f38
530251cf
c94ab6d1
7e33a0d3
e9e00408
8cf7a85d
12c694b9
09f03d9c
9edabe45
9c6e8223
bc8c57ba
3b5169ef
4a5a960e
042eb562
06ae68f8
34e554cb
5613623c
1a303b0d
9ffd048d
9406e81a
3837acae
b4d70df8
fa8c8b6b
d45736cb
e92fd5c1
768270d0
a104f7d0
3b00b64e
589a9b17
cedc0a72
9f8bc479
fd61fbdd
251d82be
ac92c8c9
6602bc6e
2d0c707f
c29231a2
1f428f81
8f77221b
3c7e81f7
b34dd195
3382880b
5a3fab8f
bc28f7e9
4ae63742
9500097a
e8ccfc58
a4e0be97
29b9d8c6
8324dcd1
d7b7a671
674fe9a0
e9b57bad
24e9e7ef
b4291077
b551fd62
eb40fe88
a3c4181f
761ca074
8508f55e
6c630001
28300e8e
367b9e27
d6622c03
bb6d43c5
0b09c553
da968795
960de649
633d269f
33c54464
eb94cfce
65b2f897
5712e52a
336c166f
5fb316c6
4b54a37a
85c5a9a1
1fe6eebc
214ac3d4
919e3371
1d22f48f
2fcd2e00
8a691218
aa1e9031
bc522ba3
5edc0354
78589afb
63b65477
5b65ca09
dfc2f55b
d2bbaf92
dc9bb465
cfcc6657
f7f8e928
0efba8d9
9d791e58
c9cce27e
ad182f08
6c291568
6386bcde
0d349c01
b7b56179
98ef2395
b1f495dd
d786b086
f157fe3d
bdf5b7e3
27434adf
20e7494d
aac59fb2
aa2938d8
3910b396
6e55015f
9665d2f0
8aeaebbf
23d02e4b
95b6b41b
3b2f02a9
93d84b35
1bb74968
27d31066
01bce8e1
c5b13e59
f35752b4
b427fed3
eb431b5b
a0a475e1
4fd0a89c
6dbcecd3
9a0ce40c
33d82cbf
5231cee5
019310ed
02936b40
9b2d21a4
a8e00b87
2064eafb
46de0002
d705b10b
297be4a1
dd7af5a5
08f8d9c5
63fcdf3b
be32b99a
f6930af7
c49473e9
8f0b402a
d1e82ffb
b2545ba8
00401ceb
265c0a7a
6e367b7c
5053ac97
0ff50d9d
da75cb81
0b14def4
21e5bb68
a381d1f2
8eae4520
638e6720
eb530d11
591df18e
76fbee8e
1779a30d
f09059e2
0397a033
892e1115
94f295de
9821c18f
c0131618
8d0c6536
c1e38976
495d0942
f2f7085a
3a6c78fa
d4fcd46e
d889905c
e2cc4447
923bd58c
f10210c2
87f563d8
d4929e02
eebc33f5
035d8c93
2c1ed6f2
0f511ef6
0ebbdc98
d200e8f6
c01c210a
8a8d6233
d8f4e81b
2da018fd
3c31e481
cdc1d566
b8a98427
5b0e8349
d9bf49bc
2d56b74d
a6cd9a47
8096cf37
c0195d9d
be57e5fd
a98c3d36
bab8fcac
490eed86
490967cb
fa01a633
26593e66
48579cc8
0379ebd5
43052da0
61aeb9d1
64802264
8a90564b
7eeae202
731eacf9
4a429582
cbb59931
68675325
6abe9158
d6ad5b87
429c3271
f22e6429
fa0c4a15
beeb156e
db306e8f
8365d507
6e1545e1
0a5f2930
ce85c999
bb4c305d
5dd9e1ef
c029c319
10d198ef
6a0966a9
b0a1604c
1224c382
e2ef3b88
3a3fc791
1c4259b3
8606387e
1ab87ce7
9b495f10
ddd96edf
e67640d4
d581b94f
cf19b4bf
2c223670
4d563045
c4aadaf8
b2482bcd
7f079f34
227ed56e
a16ceb1e
44a49e3a
374190df
03a5f0e3
584da75f
65176e28
1be6f5f8
a6c4730d
eba6ad6c
3da453a4
cbaf908e
4be9ab52
b29f1e24
16d07a90
63713d8c
9dcc8148
d675d127
96c4b18e
8481a602
7a6d079e
bbb2e2f6
259773c7
05afb953
19cd5b73
e853d131
8ef8fe97
f4517238
092ee140
abd9bc87
c4fa6f56
52f2ed0f
148ccdb6
ddfe7e0b
1da9fb02
cff88f9e
e5fa4ae6
ce081588
c8dd4790
a4420a9f
2b47ab7f
0c4a24c5
74c9d093
267c0418
bf074c0d
39bbe2a9
347841d3
990c0e33
3eceed2d
7889f8d4
971edad4
b24e075f
9541f48a
03e71359
b5af9e47
b6a5c7a9
b316d134
04b0e4cb
5a4e2743
39fcf60f
d339f061
47ef6c42
cbd196c1
2a7580ec
778a195d
bad9a23d
473e791e
67b04b0b
91adb134
22ce06e2
29a0d04f
5308bf5d
9a30284c
9a11b645
161a6149
438a1016
817b321e
d2caf1fe
00ed59e6
a457af5f
0d3cea8d
d0371d1c
ea9a4643
50001586
d8e80cc1
ec2b0f7a
03ec2a2c
3b5d5c56
6ee78718
66cb39d2
e8773adc
7be3dcfd
bdaffcf0
58471e17
d3b74277
9f63f2d1
f65ccbe4
e4ef34d6
7bcb9b13
20c371ec
b399258a
669125ed
2a93d67a
93a669f5
f97ff134
84f56cdd
a99dc18d
c769c365
a1ef41af
e8b787f8
f05ab143
708c88f3
e39e9460
254489f5
b6950480
3769f998
138a228e
c1f9b3e9
9620c426
022ee93f
9189de53
6996ba74
49b184b0
ba3bcaed
dafdc278
fe788d94
2b62fa68
4120b9a0
0677a6d5
d01e639a
b2222b0b
9c27619a
1c6c43b9
5e932070
336b8e22
a590c608
1731ccb1
2690e2e8
6cd04856
b1354a9d
2b4979ea
8f045f51
cd13c57c
7554da16
4528b164
3520c441
cea838e3
0b2e0bf7
26cf1214
c9bdc209
3771c4ed
dbbd3bf5
9793891a
50e5912c
411b2202
4c1228c7
8a422952
96f7d725
a5290c10
c37bb737
b7e679ac
7e3818a1
4bc99524
34fa8737
6abc0013
60cfa8ca
ac6efa11
5fcf784c
47879ca8
fd22f136
ba0aef55
9f7078ca
b08030b8
dde958b2
8d59200f
5bd42f10
86790f21
35e58b2c
8cbe51ca
3ff4276c
08a69b2b
0ec2816a
5cbf1edd
aa6aca0d
96cc619e
8abdab72
de6f1be4
d9970a19
aec09590
2c2334ea
b1ca61c1
f5b0e569
e309a892
f54c4a0f
a5a468ac
074fb029
53e220cc
25c948cc
7b50398d
32da3554
290514dc
8d2d9007
5d313db5
20b0a1a0
295d1ad2
5a2c2659
22c28439
1877971b
0a4b0979
77d4837a
599a4998
daebe909
e2205bf8
6649f9ee
6ac6fb64
7f780e0d
bdc3e10f
30cde4e0
bfd25f95
b8950f67
96cbb9af
33f2958b
59e88bf2
23251bc4
cb4e4678
53d0710c
298a922b
0f23b7c2
df9d2199
a90ac3fe
52f641d7
2f420862
53b2fb30
aed5cce1
e201fb07
3ea1fbf8
b84ecda4
ed6fac03
a28343cb
1cfb3cd5
20935e52
1dfbf2e8
c63e3806
a2956217
6165d8d4
f8113e31
4433ce6c
74519693
2b5069c1
efed0c95
7e6b1e00
da99ee83
4708de74
663dc496
c98cd80d
6722495a
ea2e252a
accdc413
356d0fc0
0d2c0ad8
1c1732d3
ba26be58
60decea1
ce5340b5
2a5a23c6
8dc05037
4823db96
bae5b7cb
9301c392
34b34666
c74bb786
586c3d28
71a344e9
761b702e
1b9a5fe0
563166ba
4af46ae8
3223bce0
2d4eaf2c
b6ac0dcf
c1fd4716
79edb909
01ae3b8d
5fd9b9fb
6f23dfdb
866cef99
e3a5d989
7bcf029c
9b255c87
1ebb6fa9
eeb48883
3980af5b
fcb5b339
e86690fb
b43ace5c
6f5d11f9
28a442bf
7c1d4258
5e52f8bc
6bf8db25
047f8cc9
c2660bea
0db38c7d
33fe6596
5a117b35
ab1a9f29
3ca40cde
b9401908
0a5a8193
f6c0084b
6edd6d57
e2d4d3bb
e1f58943
8119fae0
d9598a58
082a5fad
4c4f0930
c232d01f
5cf9888e
b1c9bb08
ef4af2f6
a77df3b7
6fcc17da
b1264ea9
f639dc3f
e6805617
9feb2224
10946a14
5113cb35
bea9a7f5
224fa1db
7173eeb4
d0ccc048
dea75106
39582b61
e91d2d28
18bff349
42164f3d
9431be61
161a5443
7efbd386
64ca9378
706663f0
9c0c287b
10b2a992
96f36134
9728e881
a80bd267
7fb78a60
20671d46
db443bf0
36b353d2
1a889a47
95deadce
a579d22d
01bdace7
83c020b2
aff25674
53773c1e
78b6c0b7
7ec7fb0a
7a4725db
9dcc23fc
0fd55941
c112339e
532af4d6
a0c167ca
940c038f
aa65bd87
c94d2ae0
1e13e538
17fa055f
2edcbb59
2a9b4798
e397a0e9
a030eef2
b7268b99
a59b25b6
9a7a3ff9
00d9663a
99665d25
aa178c8a
1a609e01
aafd1aa9
b17e1698
d0f2c1d7
89abe212
72aadeea
639f34ed
f2bb262f
83798186
a40beb4b
11cddcc3
5776cac8
442b8552
05dd1c7a
fc13550f
dac5ef3d
ba4e70d1
5fcbd0dc
2f742a60
db537ca9
5dae6d58
d9652f84
3f30c4dc
0d2c66c1
e03db35a
0fa7907a
8703c785
32841a38
c652f140
c0e7f108
de118f2f
32162b47
18bc1a56
95fc22f0
74b250bc
0c32fb25
65c5dba4
398a43a0
93091705
2844078e
547a86a2
5aa4cbc1
f65969b7
ae60ec80
b6a82dbb
3519855e
8a7f2c22
45ac7465
8c04c676
38dd7558
c0706ee4
91bcc741
18a7e5df
48a06292
c6820158
b01aa5cc
22ea2413
ad32a08d
b0226cc2
0d013190
52cbb378
9afd2d5c
22a40781
334a2881
c473a2d3
7d322f10
0f214b11
d6c69244
b34d7825
c0c7f365
7ebd2237
755b459e
12771c9b
120dc298
9889e367
e7d6dacf
8c84d84e
727f793c
b3266da3
20987003
b6c04762
5d8cddee
e5ce9019
110e2fa9
c18fb4e5
70718973
4eb61770
337b3f35
d325ba35
e2c3b6f0
edce4e13
86afc326
211734eb
29663917
999a06cd
0850a2bf
bf34d5c1
d9fe63a9
baabe178
f050c0b0
5d04127a
ef508e65
f229f668
e30ef878
5c626316
57b9e141
f5c451b1
77d43097
7120ab28
a655c8bc
8937a458
3334cf9f
6418e9dd
7d2b37ab
bfb42e39
b969d3ba
efcc5b91
ad790601
a5b815a8
7ca4ad68
19732e15
13e3774b
377d61e0
7a1026f4
4ac66240
8af1237c
32616d64
727508a8
5de2cb69
793b41b0
f4ac9f88
226ce260
792f3005
7498bd68
de7a89c3
745bb471
0b83069e
840b80fd
6f961db3
f4144f79
9d3693d6
6008af68
d8e2eb8f
50636fe4
ad88d0f3
f16cbd3c
d8f62cd6
cf702b6d
11d35b03
3be78dfa
76bfbd23
8515510d
388a4ad5
2b2b5656
e1a69d5d
344a29fa
6c214b6a
f059aadf
f6b545ce
79cc04b4
a79ad0b2
f57e80b0
0381aca4
b5caedce
7f1bc2e7
ed9708cb
11a9eaf6
168549d9
132188d0
db6c5d62
bf970e21
7f6bd20b
917c8596
0e485103
0521f08c
3774980e
50537184
e4596efd
80d63790
0c1c6a10
de7a25f8
5b477fd1
c9351a36
119e6c2a
3251ae54
b9f496f4
c0c1f963
d2942824
62bd6c17
1df804d7
5cfddad3
ecc4d391
1d443df3
b8a56611
aa4ca9a4
5f7bc25d
1b0fdf95
44372d82
d604d838
b69b49f4
59ad181f
afdcb380
8c6ada30
f86c676c
fdb50c98
730553be
b791fbfe
304c4200
31479a6a
1316d462
8524ad9a
4a832e15
586badd4
1f8d208e
b7e5f1b9
3334e322
aadfb2b2
4190f61f
93116cbb
97359ed4
e8016825
eb1cb318
0f5c2acf
3554386c
9c8bb665
cd8da6c6
e8c80b86
57404770
dca48117
91b38379
0bd6b3e1
7b23f8cd
a986fc6f
faf7b518
fcf37d53
454eea06
fad56c04
3fc7e741
007af535
a4205fcf
acfa5347
ec8d7252
b7855c4b
4c4ea224
0d00f885
3c58bfe3
80098133
81c1c6f0
338e3f4a
60f91523
2fe95b74
46ef3056
34cdcc39
5ad2c08b
03daa957
2c0c3cc2
0e40d454
a1cbc1bd
97089b70
c86d29e4
198eac50
a66af545
d317f5d9
fe4d9400
6e62931e
8ff3c9eb
807ac6f1
344c3720
55159e6c
d1cab3a1
2a7a550c
0ca7a630
a17401d7
156b59d5
8c052923
2a62c0d2
a2a53a92
4ea7a6dc
ba643c9a
a2a19b0f
a6b0ce26
178fa536
fbe69226
4ae6030a
0cd0fa96
a4ceed11
c5c0bc6c
3788aa85
63bc1182
c78d052a
03e07e49
15f84d6a
fcedc7f7
7d45aaf4
1bcd2220
eb348183
7ef12562
217b9a93
d1d05630
09c3224f
d9b3069c
b77ad3cc
137f77c6
aeaab8e4
733551de
29db7725
2dc3462a
8f6ab973
9bd7464c
35b0d0dd
091f82d3
98c03d7d
67f824ca
ac1e5227
dab0387a
c84b6cd9
f3876d7d
4bcbf782
b2e98a3f
e89d5ea2
889254ca
9c761ccf
1a207210
a4b050c5
eb825c08
ba0eafbc
a254c3fd
e45a3562
2d7fe745
21d360f5
c440184b
10b62527
b26b344a
a4ceed13
e73055e5
0c57ba54
9e6796dc
c1a7da99
5ed797db
1be646ce
4fbe626c
2757992a
6979f730
578e26a2
5a546d1a
e4712cef
d39f67e9
027681fd
b42b3e99
7b2206d7
fd3060c8
883f5af1
b7da62e8
bb09c752
fe439a1a
a15b9a98
1f49b4cd
83f9a505
75d71f19
5d5987fb
1b1e4000
a1e5a18a
78f2018e
1a76ef16
5cea48b7
c707c3da
a3215b9f
424c12db
39700372
ab048364
788b6ca1
e47ba2b0
984af34c
b4936b1f
5e9ab5bd
36e26d54
497934ea
bfe73241
c599bbad
7724e211
b14a7f4c
b7f2ee26
09b23e68
4d33f912
0b01bc53
d27fad05
e5c5b4a0
06aeef21
002d3f28
5ad4e2d1
c5b79515
4b0810cd
cc479e24
6237bf47
a825e09d
e433e09a
117e5902
96bd3b34
06c92dbc
e11b6753
fd78bb79
3b5a2f94
d87933a7
59b24edd
ae00e9f2
1e6be26f
1780c9bb
8e686c98
0af69f2b
f3965e53
20a5e81c
cd427a15
994b768b
afbcf247
6b84f6da
db443c65
db48547f
c29036e3
90e82033
16d78cd1
36ec246b
3fde5d10
f8402327
74e48b45
b320e0cc
3744d649
56b8a3b7
5b67c290
a8bd1390
daf4c5f0
543f73dc
bc175921
f145be58
799bd8dd
6ba85922
239e7229
1509d1b3
ba8b8170
5a41ddad
61773bd2
6b68411b
2432100d
2ebccd89
8753901d
4246b82e
a4ca9a76
c1ee485e
7272415d
f503544b
b1525e59
72a69c57
6f1d7c88
ead57f74
18fa5265
3a4b8b2b
21aa944f
9b013960
76f913ab
abf0a7ce
cbda6e6b
a8530432
9319754d
f0d65468
ae9de8ef
60294abe
d42ab011
3473854a
267d1164
773da118
d6284a32
5c215eb8
818c468d
25ed0fd9
60300a70
1f043576
e04e2857
bcba49ca
131bae89
60df2cae
11328f0f
72d72429
4efbabcf
7791f90b
762c9ac7
dc0684fd
7d38db92
dfd0ba37
360f8884
4e0ad8dd
4c562d7f
08c2b3c1
f617578b
4fa3fa19
54d5ea88
da0fc64a
003b2e17
a8627e52
509c37e6
63dc8b38
09423807
b587146b
dd1372cb
5006b3cc
96c26825
a3adf67e
43241062
601a1360
eec0bf92
6f65cd5e
3dcd73d2
09774f1b
ec2c8d40
aa3a482d
e6928a83
e5d960a2
88cee712
a9b9fb99
1cfee630
10e45b25
ebe91528
4689f2d2
4b868186
ea3d26d2
86cc48d7
429c6cf8
008a5233
919da212
46166a8b
7af97828
42b51901
1300e5d3
b3365c8f
d248b0ec
21ca844c
2ccdd314
cd7e157d
de57f6bc
135bb4b7
e31e92e6
2d843c39
b29d3faa
69d03bb6
ab9ee478
9ccaa5ac
6c3415fd
a3676523
6769f1d5
7a1a003c
5d03410d
e5bfd3d6
c2467847
fd9800f1
33198da5
0b0dfd8d
6c228744
8fd5b999
ab5c644d
dc64fd93
cc70373e
b713c54d
bb011b3e
501a2fa4
762bca0d
2300e1de
8ae36dd7
0f1e26f0
38ad8c10
e6ea9121
4e2b9f75
21aa4b36
141534e4
c621d891
e4c12a0d
8591028d
5421e574
80d33cfd
c7f65b4a
28d38e50
b1b62b89
dc196769
cf72e273
165d68ac
1c28b389
bd7df797
95e9064f
f51107f8
a46cf36f
3c8bb3ba
f5c10c3e
e6a5bb64
84f103b4
76a681c2
6530dabe
4c833380
1e5ddd18
9192cf85
a674d8fc
f16e6f7f
e1b6ace0
e5b1ecc2
9d61701b
dbd75df6
dcbd3e23
09f94c4f
6a0efb83
ceb9cf50
1a60ad89
f16a4715
22304a34
3342b5fe
fd6397be
c01e29c6
1e2aea1d
48d0bbb8
a28d3922
315c3e02
1f726cfc
10c4581a
fb4d83de
bc2c9714
bc599c10
8bf3884c
171ba953
08c14a4b
7e0e3ae7
6af8eb49
dbc303eb
4b854054
a1da1b91
7cc039a0
7a378846
e8d03d0d
35b9f31f
818ad194
6d72909b
9e4a538d
8e75d9f1
c303f86c
b3bcca75
9db75c02
3ee5bce0
4108d0f8
bfe73447
2830f94f
a3209638
8e644e5b
df27cce1
6d541aeb
e0997f86
c8ca4725
e3b1a79d
d69a4328
3d5a0b91
1d198108
a6bb19a5
3478a02e
d8b31b5a
2cda077f
e5e4bae1
652c863a
7b5c2c75
b17066cf
4b682292
62393f0c
cf8964a7
02c8153a
75bff9cb
1c228f82
c8bfb962
8d18b898
f3207b11
4c000e29
3f4f8a50
b2a4104d
8cc98f99
95fb9735
746e403b
5c8d2712
5f88585d
e2e8702e
4911c6e5
cfb752ca
9375d2b1
1a5ff70d
d4a0e2ad
8a9548f7
7deb4f40
65fee5ac
0804fd64
d492ca83
3496f26d
de2f5f33
fa2e3767
73d5b4c3
f7e1036d
6c52db01
d15717fc
217c0c3f
4c5ac21c
3a8e3e7c
c38dd8ca
af46ddd2
91eef0e2
65ca3fa3
a90a3691
3112001f
9a6fa6e8
5a1d4788
3051081d
0edfed11
c5eb673b
3b8fd12e
37a6b33c
10248c5f
158b1c4f
7777785d
77e95792
2fe3b6c6
4c22f4f9
ae24144a
020bc14e
0569d095
51648597
a1e5a71d
0a7cc389
7f83f573
a0365085
ea6185a7
5f62e844
79f96242
cb7c4b28
a2cdc3b3
735a6723
b204cf0e
6046f11d
1ddfa3e5
ccdae7f4
3d40f380
2c8342b5
5af8da05
a89b6635
252c2b54
bd085cc5
17217496
1caeab19
d3eb448f
39fa24ba
d5641675
59e7179e
68dcc561
2f76ea9b
78517130
b61577a6
32ab7212
d59b8524
964c540d
580b34f1
528fc2bd
37754b9d
840ccd7f
0a352060
6ebdbd07
3a72068c
32f44fde
15e8fbb1
aafaf19c
c5a080fb
2231be7a
708c7e66
c188e8bc
ef8a7242
301acd84
253e0eed
44cfc09f
bf71d115
df11c76e
d87c371e
94f706cf
75db3303
2ae08866
2dfd8fd7
b086108f
da2a919d
eb1df413
c35755fe
62775af3
191957b6
03ca0a0f
b113d543
98b6f546
c6879f84
e055d6e6
6a86cb52
48440f83
1ace8d52
b5dc259d
f855bef7
4cfa837e
1df8d7e3
e1ced47b
0b762f11
66c17693
fb3ffe0a
2932811c
07bfa008
fe587d2e
26282bfd
78c5fcc6
1541b808
1f4a1193
754df666
91ce75f9
a411248e
e407fab0
b8eaea7b
aab2b807
9d0a70fa
02062754
e253c103
15eafae7
edf253c0
b7dcd277
2a7369ef
1d4d516e
806547ef
c9776277
e056cab8
0c64c571
0075b632
71f6245e
fbd6008b
2103f3d6
5c49e28d
55eaeef3
bac21393
a7b1c8a7
b2b51061
b864720f
348d92d8
7ff3996b
70f02b9e
7e7e7b4c
f6f02a98
61406edb
147501ae
71966898
3ffa7401
e059af6c
2b1f7ebd
aef1eb36
38398420
af7fec3b
90456976
e8ddd56b
8bba56a7
f73cc03c
8637773f
30612d00
a648c927
d5ad09c9
19bf14c0
1c7f80ec
af367f3f
5a64f3c2
3c663129
1545d0d0
c53374a0
dd416871
231d7428
c84cd856
bab64818
f5ee5e02
f3814f74
069d0757
f0bcb163
b89c6cd8
a680b56b
aa693a70
757cf2f7
f50eb7f8
cb6ab884
b936641f
e153de16
2909afb9
180f2e8a
6fd0e477
d363fdf3
c80212a8
b378e540
d41863d6
a26b767e
d813f811
cefae27c
47d78ce7
3743b9ad
075f4d98
763f10f6
00475f00
9a3b1841
daf453c4
7f17a3e4
6e7cfdc0
d0e52744
6abf87f7
9bd57089
bd49c7ec
79ec9ed0
3e969f31
06695ab0
1b3c1cb2
3e553277
53814cf6
11c12778
fca17701
2237762d
0a25e823
002fb30d
c872f68c
d002092a
7e1e6fee
f03aa539
c3a63f03
c95a75d3
d1fb1413
265e6833
af7be12e
a4f73020
63de63ed
a347bfa4
d7213902
b68964c8
354e2e85
35799819
ca87eca7
2f800ddf
c294042a
4bddfc66
48ce4aad
eac7b5ac
bdb6634e
683c09a5
b6300f91
bf5442b2
e308992d
f924fe0c
6d881610
d5917e6d
eea13cb1
851b8a8e
8b3e7741
b6e4f8ec
c8316b41
296de6ec
861f4445
b1c7e35c
9d014532
4870930c
d9d1e252
1b5c1843
d578e9b4
cbc69bda
41521a2e
7b182eb7
8a10cd6f
91c47114
05cfc784
1f6f29b2
c6fd8ebe
39638c3b
ee437b53
db083eb7
c40a378c
da08cfc4
c0e495d6
ca151b56
14fe6845
2c9efc1a
96812556
4c48a98d
2c174581
042cecf8
3d59c1fd
3d2cac71
bd0874de
6a0e670a
9fda2ead
cb44d6e6
9ff6b528
e866adf8
322dba88
e095377b
1c5cf484
25ce005e
d6f0be76
2faabc2d
e231b9a2
cb7b8eb4
57003e33
b2315147
fb1556f3
04c8a6c1
87ed7eb4
ac4f86db
f09dbb02
3f059cb3
8306f280
331372db
73023a9e
fd2a311d
2bc56275
b128ec90
03753c30
3f3c009d
7ce7a71e
09c53643
2715dac1
441e8e6d
75c2a780
80999d3a
2defb892
a655763a
2015561a
06fa14cb
f585bfe8
27fd1bde
537b6b1c
f9d5bb0c
3013309a
347c935e
8a63fa08
335be9bb
368718e0
5c74de95
1144d662
a520d481
98f1878a
51e84863
528fe6d4
3934cf1e
f46ad276
897ed7c0
ad22f875
42041781
9cd59125
f98088d9
8a3ace3b
aeeb4802
7e0fce16
f26f89ef
431ada67
ee439202
e57ddb07
1d170987
cf90d713
9fcc24d2
b07f85c3
56057b56
466482e9
85d6bd6e
e5646da5
35bbf27e
2b4b5208
48104f13
64b2cbdd
0aa7d6da
57b7cc20
2fc9a61c
1f325a0a
4e73320b
3c4f8718
815e20a9
0069f7f1
b2f09584
42d6d30c
45291bb7
458da979
453b7c6f
c395ab50
e1c4b73a
9a1f2890
61991c5c
dc1e2eaf
808251eb
ea7d51bd
88e2bd6b
3fa97de9
712944f3
e1b452c0
aac80810
7743fe0f
ba739ac5
977a9175
eec90644
084ac21a
dc089239
0149a3c9
4be60562
923e4d29
3782ab80
f6133ded
d3c1511a
bb738fd0
95a4be14
c6df5a65
f78756b6
bbdba20d
a74ce4d5
f03169ab
e97be5c2
62b12e8a
bb9de9f5
81cf588d
96fb541e
734738a5
97572175
efc4baa4
43c45085
eb31b934
63c87367
63459fae
2c959c51
4ed3120b
75b2f234
b5e9fac2
3177dbfe
dbfad1fd
dffb4097
1e1867ab
9bb42834
2ac796a5
ca39fb00
683c5e1f
5f68ae5f
d899905e
bae32a98
06407ca6
cec6adaa
57865f03
29de4141
8c0624f2
894e2ae3
e9cd4af4
fc5518ba
99f6cbdd
61883a31
e34923b5
5e17437e
cd4c9a75
62dc2c7a
1a24c40e
64ee09b5
4176e741
41152ee3
77749798
4324ba08
49a0a139
a03f7580
b2192bf0
8f617bdf
7fd35712
8f3e3d4c
9d69d85a
b9949b54
9ab3e805
f27a3a62
e985bcda
88e2c40b
be88aee3
0a413b8a
f0262083
af356671
43b97336
3aa9781e
0976aa58
7b08f76d
34de574c
7e8b8902
ecfed888
8fc5c061
949f8e46
1ea786e0
f4964e61
c45922e2
f47a19fb
e709999b
6010938c
4932e5b2
e8df3885
d3bc2c05
277c339c
c3249b2e
3e61d57a
7408d04c
eb9d29c0
97bb90cb
71dea877
adacb418
833d5435
c06d3b6c
8a175768
6046c1c4
dbca116a
64d26458
9432b2f8
3f451577
815d5d0a
ad1990af
e9548965
2f2fa85e
592b174e
46b964f1
96142278
9a9f355e
1d111822
fb42113e
55186362
dff723c7
557f8dea
c9a7f488
f609f55c
b1799155
208349ec
7a12fd4b
82907d5a
039f7f17
760c7c59
fde07629
aa3b3a99
755fd92b
ae5f5663
99d481c5
3a289479
3da1304f
d5faa9f3
ec00ebfc
da44ef88
2dd72fdb
80a40d79
70c57389
d2e5e125
181aa502
cdbe6ea7
66470c57
981fccb9
e4069479
bdaca4be
5d738c94
2c6e63f5
6ff7fed9
3018a936
5605d79c
3f98dd5a
883fbfaa
6f34a2ec
33b5d629
f0185fcc
4891cd30
ca7d0624
c2e82e0e
2dcd28b1
37a9cf2a
8211c2b9
87909517
cf810564
5bb9c9da
3eeca9d7
f32974d1
c5421f0b
65fa4d6d
600e0f48
3851b8cf
633c3f3a
1b9a6a2e
b2ef9d4d
92476fdb
a9bcdc04
1d333d7f
aed988d8
102c03a5
075716b8
3e04cd2b
9e2fc7e3
7759175e
5407b448
a5cdfc9c
ca6b0355
b7a972ca
120c528f
0cea2e21
1ec99242
61fb06fd
e48fa85c
71d3eea0
7a63b539
d3e789f1
0c175e29
78da59a3
e975ce4e
6b8eb7d2
c5ee968e
ba84a479
4f4044eb
f9cd4b64
79916b6a
1cd7e82b
9f30e642
91b240b0
b9b550ca
087d8f8e
cf304130
9f4a14d0
eff30d30
16835085
59766f94
afa400a7
eb2b58fb
26b88976
a76b8317
984bf536
cfb198ca
f3c4a2a7
8349e1b0
d772f9b9
623d7301
1ec36a17
65442830
8455d455
f3da5bce
a359da30
517dbbe6
6ee347ea
7ff9f676
e1237a55
c64cd79e
88d63d43
597116f3
cf779ba4
a1765913
0c0a2d29
e3f2a89e
3818127c
85577332
82b3354a
dfe12911
83182e05
2528d805
492aeda8
52a043a0
ef78ca07
e22a7262
fe0105b2
bbfe430d
a6d8f19c
697649ca
4d1494b5
442ea988
93c0ba66
a4f12171
c6a5bfb4
de73b633
343f410d
cc823ec5
0c249280
5ea87216
7c89466b
e21c4f83
c2bd393d
93898369
3f4df9c5
a1cd519a
fe6f380f
1fef1c49
bf6c7eda
ba2a458d
17a22737
40fac70e
b5783f60
b00239b6
5e112bd2
51ef9d9a
26d30b3e
cc04a18a
fdc78a30
1ff4920e
2d4ff24d
e38d77bc
fdf59b5f
e6e11a36
1a81ce1f
878012cf
4ba8a279
87e44c8b
8302a547
697a426d
65238b17
ac17355f
388e3fb5
db0427af
c51d7675
42483f72
7678c597
bb2d840f
77d2f64a
fd84b764
919f7f93
9ff0cff3
df6d46c1
103a5a85
1e004238
69603c08
340e3aa0
7d2863d7
22176f35
8aeea1f3
cab64372
ea3a25c9
a8ee3d23
b9060763
e660aa8d
6147c283
1478e900
67136aec
2175554f
d1ab033c
d0bc8c0b
6395f081
f9b56e13
f40a74fb
9f1ea99d
824e3eb4
a5b6880c
65904ceb
44f5195a
939158b4
94236f62
ebfb4677
04bc1377
463d280d
40f7258d
e9be8934
e81aa672
f6c84ebf
889365cb
d7f48e00
e26ae12a
28b388e0
73edc3de
9f9b9e2c
2a8eec81
2cc50f59
4314bc26
093eb9ac
13dfc187
7edc6ef5
630771f2
2c9f1626
66f6896d
51137ee8
3770ed42
136ee7a9
67d26c25
1cc7a4e8
749bdd52
c376767c
dff6f1c8
36615177
ea7fc673
d33b830f
b420b127
5de89ef6
00c5960f
8831c5ed
b54a9a3f
cd77ef94
544b1bfe
448c38bd
63df8bb0
984378a3
15fc45ef
778b1bc4
57c755d6
9e298e84
234e149c
f1898413
5208b7c5
8205aa09
e992a940
1e133261
60422461
9b07694d
591dd020
637cabcd
a57af36c
f347b64a
dd69dfb1
2f023e1b
a8ec5d56
488c2d7d
4b2780c2
102dec4a
1eecde3f
b169a048
e95df77b
a581d019
646d8e16
dac3be9a
d6612251
7a8d1727
50c999dd
a7f957bb
1414f4fb
507bbdc5
1720ccb5
c0facd62
33f7a7a3
e155d275
85e8e6bf
33c2ae28
1f5bbb90
7fbd85d2
f32d7f13
df569542
9fdc944e
e7371dcc
990cc1fa
204a4fc6
6e50320b
3f7d1a95
cc0d31f6
0bad0703
26482ac9
ec49444b
954c44aa
b9de868e
99d88c26
25018248
bc2bd6d6
92e68f43
3db73526
8044e919
389cc897
5fea357c
d2bdbb03
467d9ad8
464d278b
5f6e8a80
eb790365
711750f7
afddaf50
d85a68bb
9cdf3f59
7ecd5e86
0371e736
0e3d0c2b
20114bb6
85c16840
db9141d8
cd52b432
61a8b8f3
f44e31a1
8808e96c
3d2486cf
b845f50e
acbb3f69
409b8f3d
63f73f49
0ca0752d
679d8ae4
4b1f0b32
8862d72a
e28e18e1
24b64d0f
2fe74638
b61d7f4c
a9b18713
d05be21a
38bd9984
75d09dcf
432e7bd5
ace23050
33ddb829
3b97ae19
4056ac70
55dab046
e9b8a4fd
cb808fe5
f24dec87
99ca4d9d
ec29703a
81f7afc4
dabeaa48
61a45498
bbd85b87
101af61d
16a8d49e
9e9651d6
05db5ca7
3510aa5c
fab1d12a
c77c8c8c
6646dad7
f0b95365
f2b42299
e191c041
273114e5
c35b1e27
45542bb9
d4b83cea
14008c8c
bc965fa6
78bf9be1
583ce6a0
1084478b
4e87faa1
b49dee3b
78aa432b
0f3500ac
2c4f795b
611e8437
b14b1be9
ece4eb67
887e4f27
e8c3ae3d
8fc58518
d1643b82
33e02a11
c7231ee8
398f1417
00e5e066
e184fe6d
898f3da3
70cab4da
6b81aa71
a78b59e0
15d3edaf
d0df4e7c
35804d8e
7c320ecd
94ccaac7
5a253fa8
142efd85
ce230969
44d4286c
aac17a38
53b6c5d8
d284be62
162db855
0ddd221b
8f385295
0512089f
e537bc46
686b82c3
0ba9abd6
239ee71f
573e9614
8572a7eb
347e964e
2a229050
0100c61e
72fbaf12
a24ca175
f6fcd679
1a9e7d50
27b6eb04
aa747437
0de82b67
f1cefeeb
d54ffa5e
f10eed2b
6a937adc
ce863f83
07db93e6
db173acc
49e7bd4f
4aebaead
fca9e861
1d3a6834
e9e1fc3e
841ce758
02cdc905
a48352e8
81f179d7
8fc1eaa5
f3d96bfd
77d65c27
c348f014
645817b7
bdac37b5
151f0997
69e4776d
d29ca62b
0965c6cc
22bda0e4
c1a879d5
7c34fadc
483c834b
bfad69e0
3ff125c3
1290f5cf
61a29561
de37e7a1
dc6bb05d
74960a79
b8ac038e
7510e389
c1015059
1ecea476
7eceef75
8252e7b5
ee6b7e56
090556d6
3e31dfae
0fe184c4
22035926
e4908fbc
9f05bb8e
44aa4e41
44743a44
111ef18e
6946d5f3
f3a2d3a0
0e56c361
67c4bb4e
1b0275ac
4e0c7d9e
98345bd2
869a817a
a8052b92
743a7d26
16eaac85
d960d247
5aa8fc9b
5adf19b7
701db776
c28bf854
7e255678
d42f0aaf
a467a853
33cedea4
c0078bbb
c446f030
4ccefaf6
29b374a0
59779feb
db3ce1a9
42037aef
3d388665
a0cfc821
94686506
0b32358f
f78568cd
84d462ef
7303662d
3873645f
d6594e8e
7a6a5acc
c9d96211
dcbafa9c
5d772c34
5fc4f654
6675b42e
b2f26f43
31b3bccd
c3a2642a
960499b6
44bf4f83
7965cf74
ceaea428
737655bd
0e84cfef
d14fb2a1
7e473530
21582341
ce059bd3
21402486
3b11a4c8
41e3a6d8
976ae8f7
371fcc7e
0c8cad8b
226a47f8
e6c0882e
85d15ba3
3d7083f0
f77d7db1
6417cee9
abfee4c7
fad1b041
556457d3
d62bb661
d78a6fab
da82a79c
ed510acc
c8a98560
9447ad80
5be68518
7e796254
a477f13e
956d9efe
53e96d32
6d766dbb
d772ee85
88592f3d
d56d7125
a06e2378
36b79f51
1f0a8ac8
e60fb98d
f8f6ddfa
9ad5502d
f9217e76
184cb978
861b8801
c08071d6
4c82558d
0352d10c
4a9788a5
41bfab96
096812e6
a3f22e5c
c1be62ba
138c2af6
c307da75
19e2d459
80b6be8d
8cf2c61f
56451c76
28ce7d0a
c4ceda9e
28ee495c
4d1e6f33
b4faa446
c51a5cf9
201d155b
571e50f1
b39eb476
3bf0e411
7d70e00d
110ec828
663ce69e
6b16f050
0f9e805b
89058440
2fca47b6
b3b1cb72
93cd5882
82708522
3c16dac4
7b01e895
f217dd50
660b0ecf
2107126d
b2d75cb7
527f0fbf
01b6a31a
64e4569f
f22b9ae8
11eddad6
7a0944cd
f52f4a73
975dabce
54a4107e
6c861902
5e104f3e
1094eae0
f95949ee
70cd4524
77893a13
5321ebd1
3b870975
d60c9166
441c77db
e4e6d7e4
1e6a7b13
5409fe0c
0512900a
3e367b90
9340b11f
f8d77c14
29c5d308
f1878ed6
9586ab17
6945279c
e6c8230f
f5c40928
9aaa4f06
9a5b430d
2b143de0
b5c7b5f8
25371b1e
d2043323
c20bbe7c
72c06644
8fc113d7
38074f35
1ad2d644
ab89cf17
2f70a670
6142bbcc
96171041
33a9ec96
85cc2a3a
c63be99c
b7bce639
f4c3276a
84f16ce0
809ad2d1
9de7bdfd
1743f02f
0b65653c
36e540b3
9bae4068
3e404fac
aff78d33
3940ae6f
4eb2189f
fe1028eb
fda1040c
9fb95a10
b0445d8d
61e0946d
daeaf9b8
15554d8a
5ff8750e
29a944fb
5ff4d29c
c2e25d58
a829dc72
12f0bef4
72f63170
f504749b
b69b57df
a8f256e5
21d06ebc
6a8b3ac9
36452b31
6879e799
d0f41338
2a7f6813
835b1f28
d9134d48
31a20549
55f46fe4
0d6695d5
e39e753e
6d29f7be
a2a3659a
4620932e
7f760340
5094c4e3
5297c6ca
d9b2d16a
e97831ba
376c102a
8aca6625
a4053911
a08664e1
5846b7c4
dddef4e6
5691fb49
4f7b247d
c333c598
23453eb3
4d37e4b9
7a5147b9
e8abab82
92bc3c4c
9b66e4bd
35833f40
713dbf7c
366ebfe7
af11a5c5
df94f8aa
312b2b5e
e5ed9613
1c78f672
4c147f13
afae57e1
005a3ef9
027b9c38
b41a6ef0
bdf2d2a3
ea8c5de0
035aee87
9dd11bab
175824b2
4717a3b3
a489a1c8
7bab553b
e3662614
0beabe61
df108af6
f7defef0
c2b19eb0
7a402888
f8f43986
90123e07
ed8e7a75
87197caf
df9ddf87
f129dcca
d5f3c3ec
0d5369d0
f549cc0a
d5b12daa
ac99e9f8
e7a80478
10155a1c
8fa85eb5
9e35e25b
b8eb6eae
60e39085
45051bc0
95ea327d
977bfaa8
c1b95e47
2ae8382f
eeb261fe
ade9b9fc
3bd401b3
d3ec3648
f42c937b
c1dca155
37a627cb
aad3b571
a3488c52
8808c6b8
f1d61219
172a0d6a
3defb563
f5160f9a
fca1b003
8300db30
d7b5ce50
a0b4bb6a
c744a746
77a78816
9b6f51b3
73dd5546
0473d81c
54e30b96
f8406d11
5a4dc3cf
f38ec6ed
46bca9e2
c3c7a176
e47c3841
0a447670
83eb0a3f
c7161837
9d74e592
13937b07
c534b09f
18cad264
2baa9370
d3fe6c47
0877519f
86431d51
8e39c50e
40457413
bfd9ed1e
0727d34b
2031e1b3
bca9ec0f
7068c4f1
884cd303
f4520d59
b774697a
