c65bc1a8
42a587e3
e4c51134
fce149b3
8d3e32ce
3ed68402
9e53fab4
5db1b567
ee9ab2fb
107dd9cd
ad4d34e1
f3cbc3fb
5a0ef74a
75236591
78564e84
a3510092
f2519bf2
a6948064
00b2e61c
6a9392a3
404ed4a5
b127a51f
00ed4dbc
1f9c1503
a9ebbaa5
9ea25bd9
1df9ad4d
ad6f5537
8460ba1b
1ed31d51
450e456b
821ec18e
33a26147
42c4325a
f4849274
b98c33ce
12e54943
3715ed36
cd51012b
e45bb12e
82d36bf2
bd0092dc
587959e1
952822a8
6868c0e4
874fef0b
608ce742
c3fa0496
167ce8a0
c2bbabce
865cac74
f34edb3c
5a31b98e
90968731
b54bde2e
73d146c5
9eeca360
43bd786d
0af68300
052ae574
08e0d76e
a9c5a7dd
dc31bf91
8f7a469c
1353bf3d
1609ce83
4816c087
02fbdb34
d4e2467b
40c9eca0
5f957b98
77d2e23c
a11f96e6
8173ec45
add2c375
0b0c0752
4c758f56
3c1c704c
be1e99c7
832bfcc5
2b5431f5
7936ac21
5a35caec
02453c6d
078129f0
6b75329c
3598ef37
de4d868a
9648a094
2b8a5558
b54c0355
ca4fe610
2a0f5bf4
5f1eacae
806d353c
4a20c4ef
84bf4076
069c02ae
6f17fa4c
d9002d47
9325dd03
e0ca325b
e8f7b149
727d0c40
806c68b4
e11e9525
f65f7eb4
c145e89b
65f774a9
5831ac5b
80c0ced5
694331df
cdb4c168
17b45f31
20bdb200
7a431fb3
3029d21a
7f56b710
2f35fb89
75f9b3db
b37353a1
7a40d644
3e30a7b2
cc77d70b
dfce2eb1
b903ac88
894868bf
20d4d541
361c77aa
50c471f9
7d0f2ce3
895c5f44
d6c9b4d3
6eb2d27d
6e64fa87
a6c2e906
e02929fa
fc533e47
2162febe
d44f146d
2f6f2a7f
92a1840a
c68f735c
83bbd161
5228d59b
8ad5d1af
c855631c
9794c753
3aa91d8a
7d771fdd
2ce67263
77da2a71
135692fa
003a77f6
ce4edc25
26f6f316
c1eb8d75
ebf7fb06
89a39524
1bdc7e3c
e1478a9c
16b0b88a
925a1f17
3b5c0f3a
423a88ef
60f7fb5b
19eeaebb
39073997
737ece8d
4dc2912c
2b880964
4b76b76b
f52356dc
8be3069f
d5aa149e
61630c31
bb7ad297
1dba10f8
d99aeefe
1463c160
e19792af
ed17432f
8ba268bc
555b5d33
53c36e81
74b8874f
d4c82eba
0fd59a67
3dd2beb9
ab16d9da
496bc00f
394a8e31
a3284b0d
1cd71a20
23bd4aa5
a5a5200c
d52e3482
e65c497d
65a84027
5c7340e6
798955d9
e1770444
1ca6112a
f38df178
e5eb1ccb
80bed9f4
272be9dd
fa38a74c
2b712174
07aa14cd
54c45964
0d176517
0b2f624f
87536f5a
be8e9b75
de63db50
f631a135
ad42d289
985d72e8
e7832154
a4e6b15f
567065ae
443649c8
650fe295
d231fb39
01fe98d5
d7313e07
e245233d
d1ec8498
0366233f
601fe317
ad704982
eaef6722
4781078e
b48209cd
63eea715
a4fb0ecd
078c94bd
15bdc080
dda06f9d
f9a4a572
2f2cf9dd
335c1bd9
459a8e9e
10baa806
35da2ddb
b78cc507
c5021b8c
a9bebe99
30c45f9c
14566e21
a7c4c829
7154d816
53c80aa2
b7294b21
3cfab6c2
b860a357
f9a8f3b0
31a639e8
d56cd523
6e830b96
39795dd9
94e44010
3c3040d3
6fea3497
3ca0bc27
ca6ba0b9
b43ae214
b4f86daa
be9224ec
5433c7f4
5fd3f2d8
f6f5946f
02c6bc0c
9f6fa016
afb8782a
b7f379fc
3c7f0f96
a55f787a
f4f407a7
6a91d060
727836b4
8052961c
fc49d315
bd3046dd
797d0ca2
169e3e2d
66418691
5b99334b
acf3f3af
98124968
c17b657c
fbe5707f
fce75957
c8188316
7a0f075c
48fc658f
76c93801
0ffea99b
37c8c662
2622a64d
6021e1a5
250f536f
e8007a8b
7b0f223e
5bc3c0b8
01b2e58b
0c0a410e
1c82b35b
0b549795
78f71fe9
43c8b7bc
1a2f9ba2
72167c51
96f58e67
152767df
f462a95d
393ff6ca
ed63c102
484dc4e6
5e243a27
2b3050ed
87144752
2431f117
7a93fbe0
9c114ccd
555fb98a
714f57c3
1302fc5d
5fdf2f6a
1c7f6d0e
c488905e
213b45b6
8e485bda
179dc4f4
12271264
1a21b02a
faf84f85
5aa8f16a
ca6efc15
b464dbab
e437d0d2
9b8d0d34
56b77126
baa30b64
205dd58f
10c1900d
d139c1ea
1e4a26a0
abdefae7
e628688f
32172342
d1645a8f
e57e87f7
b40f6b86
9968a133
ef439419
8b33985b
afd3fb4e
3d44e47f
d40428d3
bd40312f
5616dd1c
a431d0f3
bd4a236e
867cfb09
3fea214b
6dc157ec
97107a5b
283aa548
f4af5f2f
b627b6f6
959c78d7
9a36fe54
cad26245
0ff4930e
2ea4c2f1
c0079438
4e4893fc
c40bfb3e
94c722fa
8ac7447c
dc8f351a
10897f18
8fbc54f7
d303feb7
591ce31c
79f7f964
b1b6caa8
1aae396e
cab4b529
d497b224
9013d01c
7e8dbb6d
90349a8b
2ce2a0c3
10a36c49
e7e7bd17
42c5c6b5
de379775
a362c7a1
ed13d1bd
40f2f9e2
8f51f6b0
251162d3
d93600c0
031eb4a4
4ffb9f82
700e87e2
679f6905
b5377c25
9f95d9a8
9c153d15
db0a4079
fb801ae2
e294788c
0ebdb72a
f9ee2268
3e9f3c5c
dfacb9cd
2edcc5a7
37e471f3
67749a27
b0369d4f
9c8917ac
e180055c
2070f2e0
990ae5b4
db377a81
bd93c88f
2758c220
61b615bd
a0385f7a
a634327a
c60ab35c
1287a635
8b70c7f4
c651e0f8
44e1322b
4855ddea
21eb990d
f7a79287
016e4287
485002c8
e21b5ccd
1ea336cd
55483e64
7e487f0f
0371d84b
bba262e2
82b516a7
5035a156
f1a26365
cff916dc
fe903618
55d32ba9
1176b1d8
4d7d06f7
92f08b82
864c5784
b6e274fc
64a46913
58403398
9f512d1e
d7b37f57
68f7e6de
67575f8f
f5b48afb
2927cc72
336c1f8a
c2e982ce
f29c514d
9f5b28de
466ee2bb
bfbf0214
f9ef762a
3a1e4891
9d944688
2f4e2a56
2a149a92
1d6eb844
02bf850b
4268db50
3eeba2b0
a108c428
600e3a21
5a2d6b13
7edb441d
38f1be68
5f1cab79
991cedf7
5d619fec
d58b8ce1
8d4a1c7c
5cea3a09
05ebe850
7921f772
50011482
fc8a6db8
046b2e56
2546f479
4f4418a5
0b464691
94179a21
d296d632
8bcf2ae7
b55186f7
dec63092
9aac70a3
4771c997
78e9da70
c2548e3b
5cbbe8b4
016b5f82
b39be114
fc308955
877e1d31
16f6b37a
9efc7d58
c5a0d4e2
3db71928
ba8e76b9
e5d8f68f
2e3918b4
642da550
081decf6
ef67b47f
23c7aae1
43cab7d4
58934c7d
1fe6b586
460dfa56
8fbfb09b
98d829ca
75b0f9ac
f1f4af94
d293b69a
7865566c
2582c291
b2475025
1c50ce61
2875e2e9
0c24dfe2
8e3d4c0d
709caee0
dbb9d324
1caeca12
235eb6c0
849e1420
a57b158e
b46a0be1
92fb184a
fb603888
34927892
bdd0b986
5d01de80
a81e1ae9
d606769a
03857abe
d55f1e33
0f077b5f
2ec0333f
c9616579
2f5c55a2
2b848dd5
40448c63
0415bbb2
448af107
9f200a58
1d5ad464
d610116a
4f7b847a
0a4cee11
786792b1
1329e9e1
3b93bbe1
881e91ce
7da819b5
0f7b4736
c8e617b6
7d1c104f
9f7c82ee
00b4a47e
5e21a77f
652a2435
2fb08b2e
f2ad9f5b
1b7e7249
dc3bc25d
59f98555
27076904
329ef946
b38580d0
53a825c2
8b66422d
7384c18d
8e1b0e0b
f54b8143
88b86d2c
01e065fa
327e1b44
f075d7c3
06444db6
cefb9f21
431b7741
5503dda0
dc6cecbb
01402104
24014bd2
a4030f92
4211f2ce
148759aa
c48c4c70
41cf0d24
1f29178d
4a13a87c
6e3895f3
bad55e81
eb2c8faf
f7b53510
8efd186a
19927afa
8c54ba18
3e17f244
369619e2
04bec46c
88a1540a
fa6cc936
9da82e38
46f5f18e
188ffbea
3750666f
4229ab1d
8a129271
5cb76ddb
93db2f25
3d1a9bef
7ce3bdc0
bc9dd087
107f6e2f
e24928a5
e186c989
56053379
7e342a91
56b60a14
2b5eb0e2
a6a97083
b7625d87
e2edc30f
ef277661
669fa639
8ac0feaa
a4aa16e3
62ab1ac7
6fbd970c
01c0a1f1
b0cf806e
c7883b61
60fe03ae
207a4962
0f89b22e
29af8d34
1f51240a
0578f7b6
f0508c61
0e014382
cfbadaf7
ba9f0c93
653e1449
b61964c2
73daab33
9f9933a4
5f8ef836
eceead38
edbc51ba
2ccbc2e3
881435f1
2735e705
856bd229
570cdd9a
11b1fe8a
8e0484ed
d4d68e5f
b4ccdde4
6ffa5f2a
cad9da6f
5803f88f
3661152d
ea7a5e4c
2096eb84
80b4dc0d
9bd3408d
e06f16fa
36f89a9d
fddd8202
f8283bfa
0b2fe568
4d9f7ffe
eb4cdcd8
ee589849
3082140c
c77330e2
374212a8
c46d21f4
c801a946
587f9882
3f345b65
988618cc
b13f9913
4da57a40
6ae46fd1
2f2376f9
a55a9590
561a95c3
839c6838
83177e1b
00d382b7
b0985f64
e38e0a82
dd4b001e
43172fd3
c150b0a9
28cd41ed
3dc38698
eda9db5e
3b375d2d
14e4d216
5998a9c4
c78e3854
eee8fd44
a37ce8b4
58e95ac8
9b8c0da6
8c914249
cb23e44c
56e89d03
dbba348e
4061ec01
01872479
fc03d103
6c9130fd
7ae66721
22cdf47d
d02e1230
1360f2d9
3a33fc44
2767b4fe
58428b95
9ace8790
1a6b7132
f8895386
0e2b46b4
3b238f97
d57eb068
5c2defa3
f4e34d80
e9018ae4
7b332aee
dfead712
dfe4ecc4
e8caf8fb
bf489ea5
018daf49
2a005793
2d131161
30e4fed6
5ae0f818
34a7e82c
e4c10120
65302981
1d18c1e9
f6634ad3
0ab030ef
b2c527bf
4966b2ab
4f90be94
56eadc09
779d576a
82b4422f
3aa4a66a
bc08d377
14525fc0
e14be6e2
e0d62d64
f9b7b26f
1f5ef6e8
f2013ea8
45ad0695
89aaecf0
c088a1b9
ce638d85
251de2f9
cfb1a548
802c3b18
3e3d92e4
a9dc026f
ce426111
27476dc8
fa8399df
66481c99
ec64bd9a
d65dcd79
a8e2134f
3433e19c
bf009ca5
9963a786
8958d0d9
7fbffc05
8de4dbef
d02c03e5
d3a54142
1bc457c1
4f725baa
72ddbdc7
13a87730
808ee30a
5e2ba08e
2ec8f757
42ef6f40
5c15f2fa
1b0f06dd
851576c8
fd14366e
d5531846
074e5aee
8e2e54ad
77c1788a
f3fa9405
d9638605
eea8c972
181b58f1
30b653ee
467f17a0
83ebcb3b
57ae0d31
e31eea1f
8950473c
c8065a97
9e18138e
73574555
adc684db
b402ab7f
51e4c680
e2e53e8f
2e72e8f8
226acdc4
e1eca1aa
7347780b
75e085af
7acb3701
1aa18151
2ed97cee
5e394d81
7945276d
97fb5562
6b61bbe9
525beb3b
d01fd25f
43645120
0d2c5f38
70b2081f
483f11d7
390491a2
66f1e6b3
706f0431
6c718698
55a40b47
ecbc171d
f3f1e709
66390c2a
b4364300
a1d5f7b1
b7206dae
6a726240
1087a36d
61ed4a83
95eb9136
1fc3aa04
11b839c9
598d1af2
de2277ac
edc28221
63dea22a
7bf24524
48e5f69b
d53fe4d3
59f2415e
9f2a4d90
a3dd1c66
e398ca60
ef0f6236
80b0db81
c2639e01
954df6d3
776aad7b
cc5e733f
11c20dbf
ce574618
cb0762d6
21cfcd60
4dc81812
03361767
d457fcdd
318bc042
298e0727
9c1e96f9
697be33a
de791505
dfcea503
4129fe9f
9aa64255
98ec488d
ed842077
025d08a1
7684f7e7
1b515c44
f976a387
4a423de6
7a8aa8c2
aa9dc406
176a8eb4
e7f81384
c2db012f
5d7fd1a8
a382af79
7b83498b
9a1cb768
609f4668
d5cc9ea7
93f60516
72a99a71
01f62346
3d592677
c7f1d80d
744279e2
628fed54
f7d02fdc
7772b632
b0a69164
d8a1d7cc
d9a991f5
7725c423
b6b49d1f
6a8b528b
1922ba45
58a4a89a
cf5871ef
c45e33a8
c77303f6
1dc21d2f
85f19982
83b7f947
20332ce8
96d76886
4aca62b2
76e1a063
a370284a
e4f58b17
be907c11
aa7f19ba
d6ee1302
ec3481d4
fa515d76
1ef2deca
1f99f68c
f1e40a56
405b7978
e7042d39
74a7cbec
b326c480
2404c61d
e865fe11
f8057993
4dd8f979
92842ba0
cfbcb85b
c5e9e327
7c0626d7
4668d444
1b7e75c6
8466b422
a5183af1
d36a46d6
f8596592
c2f42bc9
2a78e4ab
0f3fc28c
b814bd9f
178e6b42
f02ee87d
4f076e09
24d9b9b7
eec5f6a9
8968b77c
e11106e6
2d0258a3
edb49fc6
480066a2
fe890201
63ae2522
b419c4ad
3754ae71
34b88486
04dc747a
3d6982f4
6ffcbf7f
4409f9b1
ab97df7d
03feb24c
da148cc3
45d0cec6
bbb64226
dd972fb3
fdfb803b
9d2680b9
4bed1a4b
a5ba8a91
373b7468
96af7598
2deab452
cd614513
1ebf1c93
99b22388
971410aa
3e0b73f8
b3976438
55e97fda
bb12e5b6
ac5c8de6
d25d966f
28320df2
78fa920f
3c8b0c15
3d3d7c2d
ac45d655
a524e6b1
5cb6b5c8
4e9f5aa7
18997ce3
41a1b09c
928ffe0a
e52c2b72
e13d3188
a46922b5
8f2a5c72
aae0199b
ab0a453b
27e9abd1
f5dc3d8b
9ad9f71f
c921a7e3
149615fd
c122db0e
8f513a89
4ad580a7
50df2c82
73151a29
932662c0
3008e05e
a69b0d68
1898951a
56c10b1a
6d871eaa
44fe92b6
6f5e9680
ef0c0c12
03b1a87a
0732d55c
f950c8f0
b338e61d
724b2957
a4a046b3
cb8c3078
0027438c
646a1c22
5724a0cd
4f512c97
0938dc1f
e2b6a61b
57c72ebb
ba95ac70
ab489257
da7ed4d3
4bcf4ba9
c32a57a3
1b12f091
e51ea6a8
a6d9a3ea
0c0f501a
141ee64c
93587d94
4454ea3c
b030d820
b964b6b3
555412a3
ca7a80bc
5d08bc78
2dd61f73
50b1bc0e
71150f3b
e2e72f19
9748cf5e
54aff711
f731a2fc
2908c34c
262b977b
9889924e
d9d2586e
e02da593
4e2a0cca
bd2c9a29
bca396a8
64f80ed9
113b6920
cafd21e0
6ff9b4a9
0ef01189
57ad5613
cd28a9c1
2716064e
98fb3aa1
c076f877
c13870bf
a075a8ee
5e2c2df7
a8bcfca3
9155df2b
802e14eb
d07fbad4
ac3afb56
6e231207
be4dc70d
6b9317bc
df527919
05cd04dc
e3baf0ee
e8147a1a
c14f90a9
7fed9959
9e459ab8
3945b5f9
208c23ec
e101ee15
cd52ca7d
aded3370
a7a69e58
8f6f45b4
91180d84
494bcdcc
cfe7dd58
ae6e843e
f0d54ce5
6a045a5f
617d8296
18bd6384
a1817ced
1850e94b
90cc4822
81886f4e
58072053
6dc67f91
4fca2d4e
7934c2f9
652ae701
52fc9e7a
93f20232
f462e83e
6845c3a4
1cdb3174
3484f044
93707e4f
40d1a977
627cdd5f
66f54a20
180344df
8c78f46e
8b9baf8f
ebecb99a
3b8459b0
6f7b2a04
851fe6ef
6e53ea74
bdc048dd
d9660715
e72e45e6
d37f37b3
f19c53b2
68052ec1
21bc34ec
ccb82833
b2fc61b6
83f50de1
601181e5
eb15d753
a8a6bfda
4b78cc3e
bb79a5ae
5a90c95a
add0c832
073d02b4
49102153
1e221034
88a5cbd3
2a0e81b2
6b0b5ce5
dc1c821d
3a88a711
93ec7ac4
fc7f9bb2
f4716140
39cd8d84
e237db14
4a00023c
30595bb3
5635c6b6
79e369fe
ac90f9b6
d7671c80
14c1f316
7fbc9ac7
5656a488
5691060d
b2a823b5
89bba935
809f3c5b
50f2e139
05ab822e
5b3468ae
5d80e813
56f6b824
088b4d80
436de44f
9a57b46f
e53885a7
2a07366b
c5d2360f
d3b45595
407ccea2
a4752ed6
5ad1d0e6
e259cb57
a479b356
72a6e886
f52b1257
d79c7e92
7b547145
04ec4378
3dd568ed
9b89591f
c20ed1e8
a863b6c5
ce8595b6
587c0c3f
10fa1467
b5b8a816
68eb3ab8
6bdee772
4f6f5b76
dfc3ccfc
87b5445a
dcb8f27b
774d496f
c08b1919
224e790c
4962dd3e
da92b1b9
97c845ad
9f2e2ae2
6cb9deba
16cb6945
825716d9
d009bda5
d29f44fe
efb4d73b
6271af82
d005abf0
29c243f7
4cdec788
29e98db7
80e92150
70e51dab
7fedc77c
d40ea08a
bf27cf8d
529aa5ef
fb063b90
8749c69b
65c4d0a8
85a0c492
a80c6fa7
069f4d32
1c1182e3
d568249e
739fcf29
5ffdd52c
48b59855
2b5ca1a6
4ab28205
ec374f2f
670e3450
9c9eae52
a366990e
5282263f
da31fa3e
fa95e141
7ab0ba06
38d55ce3
726dcd78
e2a71e04
f9fa70ec
95a6f954
a6062ffe
c822706f
7421aa93
76b4940f
2594d4f1
820b0dfe
cef515bb
247b5b7b
6d42b1f0
223b343d
71e895e5
83b3ac62
38b1730d
91dd4e15
a3269b38
f44af91e
236c3ae7
114a4d5b
dd062e0f
7f5f58a4
3a616e0e
9c67be7c
5f3a5c64
fe27104e
2890d531
b6fb704e
d94157c1
2ef6925b
0805294c
7747a71c
4b1d9008
4bed01cb
a91c44ca
8d1b02e4
cb4ecf65
06cda5d1
b9664848
f0cef361
aa530664
b737419f
3cbad5ea
c2125864
7fb42dca
84785fa6
4f4a3166
86761d54
e881ade9
50b9f596
babfeccc
bcf6a600
9c88a962
1ad25bc6
b58ee225
a1f1d5c9
78874ed3
8f4fb8cd
9c1d0bdb
c33278b2
dde77306
ca8dfe8e
7f76fd42
51f349f9
70d88d42
a08ff6eb
bcf9b275
65a42961
f8419e65
65c1619a
be46aeec
4ca9dc6a
108e2c5f
8c351230
a557a8c8
f9f45af2
7752cb2a
6369a528
b8617c42
8108a6a1
6972d3fa
affebdd8
c808cebe
7d4729f7
82b883d4
d0701e9e
dd9dbd75
a9cc9181
5022d8f1
423d90ca
f401a058
a481d8ce
183c5ed9
03645b0d
5c03740c
fd4218e5
00f2eba2
59cce05f
7ef7bb15
9b32c42d
94c02f1f
5bc7be59
036ab6e8
566a9ba7
dc999ed1
eb2b14a7
d6acee98
382c8c95
3bbd9dc3
9b4dd598
482c7eec
75548f6a
e869d553
26d6d81e
337ed8fb
a0302eaf
f49b33be
fb3d0d4c
c7ae7eb8
c2bed01d
73d0a481
e1163ecb
d73e4cc2
bd1bb6aa
71433def
9280b7e8
0498d535
afa70620
b68c0afe
6168445b
4f940ed3
6e6325ed
dde47fc3
6546d135
58697e26
f17cc92f
3416c4bb
2f85c94e
f086e5ea
986f4663
ef344c54
281b3b86
924f9c41
eec5216a
de1b82f2
41d60d55
d1f2a138
f38e2e9e
dae74a0f
eb7687cc
1a8bced1
ce6af672
0bd79381
a621553a
3031e383
48929ef5
0e1c956e
793ab8fb
eec4b332
ab4836ad
66f17d2f
916c97c8
02507a3e
b0122b21
486a9002
4475edef
55d18a1c
760fa730
d833fbba
6dfeeb7b
02fa244e
34f0f6a0
fb555929
69dd7118
1ec420cd
b14139fc
7628a4ac
aeee456e
5d37164b
61ee61c8
4fc04fe9
e1ca28eb
742a145b
c48479bc
db9fd762
42adb169
073c9602
eb24153b
0fc483dc
f2b0dc50
3baee3f8
68aa399b
3407647a
014d7f69
3b180598
d0222810
40a8cde7
52c1a1cc
9fcdecad
965487a7
c1522865
f4cbf036
19c09e72
9d5015f2
ec2af714
b356cc60
ca31270f
ded77b1c
92be15a3
682573b3
12236178
56ecda99
2389b034
192bdb80
8ac62f97
db21fc9a
2130d8d0
638d99a9
a5a0a699
e06a9884
93735400
76614592
7592c1b8
be2309c1
c699a465
1ee66a75
8a448e91
fd995a37
1e048113
ba21567d
58d50c24
661e3d0e
8a807515
1f897442
01539cb1
f19094ac
f5510c38
e0a48171
015975d7
fda1eb3a
6c9cf4ca
1d962033
2027d6c2
9d549216
faa61039
33392115
8fa94cba
e48a204b
4025a985
0eba270d
15a7ce1b
06f74552
27de4748
9569e87c
1032ce48
5abc6c5a
f0fe9ef7
4e29d871
28318fa5
df31bdc7
ae2b626f
b421c063
cd1aeb38
4510e53c
97af928c
4eebbbd3
1fdd0119
b9dce711
cd7f1756
a43783ef
fa59c553
0cf1b675
b255782c
aa423cf0
831cb1fe
72e1220d
07507b7b
e293cda6
11b8d297
37461992
b9218eac
42f61fcc
68479896
e83fbabf
65f77e0d
a8fbe1ce
0a8de06c
709a8beb
fdf3ef3b
dd555a0a
89c88284
073873dc
c1227063
6b6ba3ae
3ec8a191
90ac9a65
171d55c7
05666920
ae1bdf03
dc0f308d
86de59ec
3130cd8f
e29e2028
6064238d
c87bd56b
3c4d4f4c
1eacd89f
eb0f92d6
2e6603c1
3e28b60b
508a3eee
7a75ee1a
f4ca370b
0f4998b1
93a60d3f
1776aee6
c3607ad1
b299ab76
e75be342
732d149c
f10903c5
e5cfb182
594fdae9
825d774b
633e3c2a
02ec51f8
a1435bb3
de588a40
6454a7b7
c781d18a
105fa7ef
73559992
503d95d8
19db5616
22d3be95
faa2ad81
810a45f1
ec353cab
6f807ccd
f66998d5
52c96d39
cbdd7417
ea8bfb79
4fd909f2
8b81b977
27c1e12c
c840676c
2930485a
3eb35412
f6840b1e
9887d8d1
5cb88348
05020732
2c89af0e
c3d787c3
c7edd8db
2d0dba60
54b8385f
6a2a3e25
e1bf2726
3b42346f
2d3e34f4
8aaa1042
b33c98d6
1ac037da
88fdaa86
5fc37a9a
9a595412
4b95ac0e
cfcf9bcd
815e0962
15d69663
25de2580
572df8a1
259daf6f
b8476618
99090c03
19ef7865
d6eb26f9
413c3b89
02bbb557
9ee50986
32c7a628
9a0a1380
e5fc5a58
c2bd7277
ba5ba77f
fedf4622
50f3e40a
a28580da
6a68ebb6
1a7ad01b
db7d2f8c
696b021a
8a4a1529
9fe98ad8
87c1b2eb
a60cc709
72c02c53
bb17500f
eefd8a88
c979145c
b4502683
93d01be7
886e387a
28c10cfa
cfc0bd81
42f01d1f
d8025983
44183ee6
f290e64a
2ce15816
ddfde533
19f44222
cb207502
78364dfc
98a6fdd0
25ea7580
f8da1074
ef8c2852
56506a0c
cd31e2fd
c2af9de4
32319e2d
981b8ad5
217fd574
0634d7c8
4f83d688
40e75fa3
9439fed6
37acd5c9
3060304a
d6db3d07
66c7d32a
8ee4beb9
8f4bc2fe
7e8d64b8
fd9c3c16
b34ee178
0024a3df
ede09b37
2df55325
de997585
d4b6462b
d89d7e6b
d1dc83e8
a1754a8e
381c5991
b3adccdc
736cea5b
90afa27c
f2048b0f
238e1583
cda0d92b
91a7a04a
bc65a156
d3f26261
48dd2272
44a86e77
b5e9f4c4
b42ae73c
f58dc77c
8a4abafb
839410a2
d8fb183b
1dcc4444
6d6e790c
76792e72
905b9404
dc5028fa
9391fa5e
94afd50b
0633bee9
5a6c3af0
d9883419
9cd824f5
1f98ae6d
465b3888
71211b15
4649d121
135817b2
d42b9c4f
450f32a6
0cd20266
a89ac252
76afef3d
549793f3
c4f456bf
f93544b9
3d302f7c
a75d94bc
9b1e784f
516e5694
0483aa80
b784a3e6
a603f9b3
9397c4a6
23329e34
c9f90e49
79501276
0f5cced7
94972c74
878fd9ec
47654fb0
4e07775c
4ee942df
23c5cecb
e46b0d20
dc35deeb
fe3332ca
8819f637
2720fae4
4f1eceee
8c3a844d
450ccf61
526994ec
c10af5c8
39431838
db1bcbbc
cca36e8f
0493830e
0e223590
831569e0
ab622e95
8be4d9ca
43d61c58
3e359b4a
d19747b3
bb65860d
15347d42
7b85e2e3
8ad4d293
8b0d419b
2efaa4d6
7039b317
92e10fe4
6c9baa50
1462d76f
e0446c9c
bace0616
f5e4a55e
fae57056
c94706a7
eec9392c
78c1afe4
c682bf44
ddc4d215
bdef5d46
153bd0f8
903c70bb
95d7b650
4615132e
5a8f62cd
2e012dd1
c0af2c7a
495546f8
b140ca52
d01b8e48
9a758a2a
53b57095
a0150e43
17ce30a8
8e99d8e0
7486e5ae
d9893a47
9302e85c
b82ba1df
ab3c33dc
5bdac358
c0686d98
7de802c4
670f59be
ec5985d6
810d2243
0babf026
55a432dd
a26caf71
f7b160f1
87d666fe
031232f8
a2a3171c
6ed33a0c
2fb48a5a
982f076b
d855137f
a3a473f7
c95330f3
5a5da7fb
6afbe2cf
cbd60382
9526c0cb
2af414fe
af4b9693
ed3f55c2
73442cae
500843c0
cdaa15fe
d9624875
8cec4d44
2445a4f6
d8634bab
d592a3cc
f7045acf
6dfe2899
a23dfbc2
a2e7554e
86d0d5df
4832696a
2bb794c3
77df4861
76bb5bb9
d9c89485
2f209638
1962e13e
d73b6d72
fa9bc787
4ab058a6
3532a374
5ffdbbe6
8adc3d38
e4afbe91
4f994283
4f9026bf
0113f8c2
b9b70d8e
a298bac4
720103ef
a2a601dc
aa0c1a88
dd7af16b
f576ee40
bdc0db59
9df12d31
8725be15
31c64c64
c197d8cc
29969de8
341a8dbf
860f1e36
d7b54c1c
e7b22ede
dd5e7bcf
06d25e34
207d1731
7d84125e
7e4cadec
bbd4b095
e37f8e55
418cfe62
9c718ae6
f8004ccc
b4ea63f5
21816833
07ec4f46
7f7b315d
7a9d03e2
c07a022d
1072e5d4
7ffcc538
e673d054
b40e7599
0fd5febe
b141df87
b39ced69
d1428ac7
683b4755
1c5dbc49
d567c1fb
7212b1f9
696b121f
f8faec22
0da0d8f8
2c8f267a
89672be9
6c579456
d03ee345
35a73e1b
3eb27dde
8ba7a0af
8193967e
a407ad94
9bd38e5b
fad3be40
bb94f2e5
a17c3cc9
bb58f64c
4cb11389
67ab7c36
aafa7a76
686d4796
419ef831
b7cbc07a
f2c41cf7
645df377
bb8f8130
3101efe4
25178480
9895ae30
dd46c110
21f6b6e6
67e7fedf
e962bea6
b6a0fab9
6d76d795
b05c150b
71170492
73cc941f
32bde767
b6009017
f8e9e116
437d42a0
6f5900fe
81ab058a
9b0bc7b8
4d8dcd7d
143503da
165ae214
13d12a41
8063c9fc
8c66cbbf
686c16db
838f615b
df1ca51c
108f77ad
76b46faa
385c2397
f00f5644
00d45175
1ae132f6
76deb3db
8def6cfd
e9fad8c7
9c027611
9959d80e
b9038adf
9d827a67
926556ef
e84f9113
7fdb7f66
5d783049
a000b659
d000f631
9f6c0bc0
0f3327bb
cb3030ca
439f3110
d659d5ad
f5e1b49f
67434718
dc1e9f84
e6391659
4c53c79f
ebc6de31
350789ac
564c97e5
613290df
6d795429
934aa841
9f1ce570
ea4c57f8
722bf8a6
648135b1
f04c12d5
61b38889
3899eeb3
3a8b3cf4
01834742
a2a9eef9
2ad5515f
31c02820
b21c9cbf
949b4364
7acca12b
db2f4f64
e2728bf9
b0498248
3adb1fe3
6e18da22
c4ce3ad1
d168069d
70d16712
e2a3597a
519d7ffe
8ae553c2
35b16bb2
ac7a6171
425fa4d6
4ddc8c29
7a2f4a96
63423b94
4b6eef03
95d1fc91
12aed16b
2f76662c
3c59fbd9
a60d5f2b
6af60544
eab124e0
c645b4fd
325cc425
33abcbfa
459c05db
30039b08
281243c0
ae893ade
10763241
aed40736
1193448a
849d355b
33cc9432
63447ece
b3513e7f
eed77a4d
b8a3841a
306cdff0
17667ba8
2f4d2db9
292aa569
690b4082
f8a8f486
e311c6e3
9a9d0284
446d227f
0e99c65b
10fefd62
02d47f39
10d776e0
3a75bc61
80d68570
32bdb100
5e92d573
5f859987
f5faecae
61c69d7f
edd06923
45d4e1cf
cd4fae65
73a286c0
19906d8e
1dcd093a
8132eb52
68343e92
397134f3
1bf2f741
f7cd93e5
e406c9ef
711252b1
61a7a2c0
fbf34639
b052d238
462fbc86
24be9865
b4a48a93
a0096f69
2547bc19
6d54900c
d96aa35b
199a2b52
3576f783
0e157a27
d8b818bf
6ec42fdd
689a23f7
9d33ca7a
b6a429ef
539fc4bc
4d3fddb1
625557f0
18f0c93d
2b9fc7a5
e41c1698
7e5a2746
70a21283
f083d9cf
e280f5b5
b48cdd0f
04c527d0
d0c8c33a
5729012f
c23533d2
b2829d3c
e4e30448
9e3082bc
51ccf976
1d917d0e
2404d792
37fa9cea
e902c5b3
4093f685
82167858
49932605
fb3f442a
f0c69f2a
6e7dc815
eb70dec0
825a7277
7082ea5e
ba73ccb2
3152ec13
d77f25a1
a0350114
50249502
0930d5a1
81e61ec8
d68c6534
482f1153
bcde927a
584b15fd
3be5a3a3
81f3f7d0
bc3d1f7e
6cfee3bc
62fa71b3
e1a67ba3
8b2a4ce7
807994ba
9fc433ce
a5cecf20
73ae982c
a6eb1379
847bc9a1
7faaa364
6bb6fc62
25581fd7
49b438ae
d6e0bf45
95d28f72
019fcf16
b2912f51
acd761d1
1f0f9332
f0e1f0d8
72286dc2
c9454e70
ba1238e9
fde0a806
76225ad7
dcb37adc
16dd2f6c
40425d5b
5b0c0051
95079c42
36f0ba60
1f2fa43e
b839eefb
dc32d71c
4cda3668
477535da
c37cbdd5
59c06f83
d218faba
4cdf46e8
e9bd8966
f9084cca
1611f736
ac71ccd9
132dec11
8b8805da
31670a83
426b3c42
44763871
f0df6acc
65f81638
048dd6b5
2411abf4
6876004c
620e5bd1
9e720592
5d524226
913d02ad
115ba53a
006fbff2
44d56fc4
c51eb14a
aa0ea0a0
d7cf87fa
96c6f3de
60e466b8
4a47c797
cc5bef86
89a42b52
13ac95d7
3c8371b1
8b4a0af9
c4b64184
63a8e1af
3d628bc6
cf2c8924
07cfb0e5
25b076f2
38428dac
1bec27f6
e27b7804
bcc1687a
42cd9f63
3082c79b
19ea165c
1c83a2f9
b5ef6e50
76467b5a
18c554e9
b26aa437
ed5da7ed
b5bdd571
fada54a9
55e7a887
87f2e4ed
dd45c70c
e64a9c8d
666983aa
c208bcb1
71e9b5de
3ae33ba1
e51a6c3c
a5fcc61e
3c543770
ab8359e7
6807e104
ec411a19
8534bf01
9da246b7
1ca0eebf
02d8daaa
5e316c6c
9f9b7f4a
f4265223
e4cfa26c
eaa9cd5d
8e768154
2e06e4f9
f5c46bce
c869ab13
6138ac73
775be10e
b2d31d46
963095b7
663c81c0
a84cb313
baacfa0e
db2cb7d0
798ce11e
ba8b4380
22e2552a
021aef97
934aaeb7
7e2ab58b
62163c0d
c23060e6
3fb5d5c3
e6f837cc
f7e6ef03
aa59f3a2
5a181c53
65ba9aaa
90e3e151
f794b8a4
1068a20d
4b3c4e61
bff41b31
875b0570
b7b953a9
594870a4
5550e57c
b3d33460
ed82235f
137c592d
e13f7f69
f58aead6
37ae3cde
f40b4dd8
da7f2306
f6e3f0a8
1aeb9c58
6a685af2
1ce33834
1d88f118
3917b25c
6dcca849
554ae0c6
e439d163
6f71e8bb
97ceb03c
4a9e4479
d6e378e9
b7dbb532
85be671e
57b4c163
5fa8c5a4
22b2925e
de771de7
c41f4afd
49eef128
d557cd9d
3c65329b
f27486b1
c91548b1
9a6deef4
38a9d30c
5e7784a8
05d2c207
5d8c6076
94a59ebb
af9b3f2a
8373ae96
b09dfedc
0be93f72
34940acd
ccb8fe6f
42c9b3b7
009517a2
4b173903
b66c99b8
73165db6
897651d1
826d7828
d2daf7a5
e004617a
aa603c91
8b936519
f05cdc01
f13ddcba
52b9112a
5774b543
41317b9c
f45dc780
ede8589e
4533f0b8
4df4509a
5c1675e9
d943726e
6c8d77ac
7d683d69
1a6a5dec
e17d4270
1c982c2d
378b93f6
1170da98
86f0c898
d8a0d8b8
851f66a8
f0ce2b59
9f257999
acd67bfb
9284b207
46fc802f
ec6a8c7a
462e39d6
c7b29831
10d196e8
ac1ad2f4
fc44504f
7c820823
e33b4097
f8fc43a8
38c999bd
94776d9c
43efa1ef
9620cdb7
c407d7d6
101495a2
b9fe0d1c
cc0e8127
feef5bfa
4c619a0e
68b1a455
0c5a8611
c2b7c8e2
bda24247
f2b99b0b
8b3623dd
d3c34c07
ec8b8671
9a18bdcf
fad6ddc2
94e4c104
ae53d926
8e581a8a
9e8a42cc
48753a19
e1f4878d
6ac94bae
b96ac49d
231c67dd
f07ad965
151248ed
558bb102
e580a2e6
72f56a1e
f84e0d80
89705fb3
d5684b75
36c556fb
a3fa6bcc
f75221a3
357eeca6
108e14fe
c2c0a292
c21eb224
e63d5ddb
b791ab5f
73a9c038
58e48e4b
b9b09d3b
54a71d5c
20ba45c3
99715887
3e7b699f
b2d1b75d
1d1b4812
0a5af366
4ff25cb2
a719836e
f098d45b
79333bcb
91cae8aa
64dad360
825a9a41
7828f169
d461a102
26dd8372
f965c323
306db68b
c9757668
fa073182
7241fbd2
2cfa7759
5b6b9381
5931f5b2
906290b0
e53352f0
e8ce72e2
5dc1069f
0f4c0504
e9dd1d61
6d7ff7dc
a791d8ea
a55b5b57
de65dd2f
23a885e2
1bb840a5
86a99157
462bb71d
78cc0740
363de7d6
a58bca8e
9bb81498
23703c8e
5b8de8b4
a2cef5b0
cac52693
c3573c0b
fc98b26a
48724b8d
322e3f4a
aa224646
336046fa
84853d7d
e84aeb7e
503faf70
cca161a0
5dd56d46
a1658fc4
7b000887
f639dcbe
1d9981d8
1a46187a
b5f8241b
ede9df18
487c6316
827afab7
6d45d0b3
f7a75441
ecdf0011
67e62abb
90963dfb
970aead2
4b8ee42d
06f9f253
901708e4
158ae537
96735b8d
fb07d292
f13f027d
59c28b7a
7dd4419c
a34684c7
2203a47e
11314e68
12736d05
4038fbe9
3951fabb
e62a2ba3
5dd46fad
57bf3d1f
3e127957
d3ad8cc4
20c4c29b
5a21471a
04f1443f
03c529fa
e45f3c31
4054cfa2
2bc03abd
160fd744
63966121
7cefab77
efd56ffd
747946e1
616c6a60
a0b7234b
52ec5d52
b9e60d74
0fd3cdae
d3472d05
9cd885c8
845393bc
3e0f64d6
a306688a
9654f4bb
870af705
7d6d3b7f
218e496f
5662616e
525d7f38
328f217a
882f0eaa
e2ecc70c
f55a3c0a
32d3c4da
b3d93cfd
129feaef
c70c9a48
a0e94b1f
97bcb519
648a6764
6d27266f
057e1011
a182ef5d
c7561d47
8bf894db
edac0ec7
333f18b8
9204a998
d5ece80c
67fc4ce9
45e89dcf
3df22bc6
0d443fd7
5f647c4a
76ebd12e
5918d3c5
d4bd512f
df3287ee
1359bd23
b07b7f60
b472e3f2
409ceedd
038e0228
b57cdca6
a6debd2c
42cfeb0c
1671ee20
9e167806
0f145c88
5e6dec15
ea1f93cb
17f5461f
8e12fb7b
e0f5077e
1bf79234
232184ca
50c0412c
455e5811
6ecc67ee
caf39dc5
9a1abe2b
4558a4b6
4a23e7a6
a7d3b6cd
9e8d7258
b8b859ad
1c72c0f7
8809547c
811aad83
1f730bcf
9547959e
3bd35ef3
d8e1c656
8b485271
6366c597
08a5eb1b
9dcf7759
154cead4
c32e9774
708ee20d
753c6524
243e54cd
6bbca872
a9f34431
04fdf9bf
b1364cf5
dca2ea29
7e191cb4
3feefe32
53d7225e
204b15d4
7fccf9f9
c91ead90
26dcc39c
1cd889d3
cf86ec83
ad8a14ec
4223bd81
05f763c2
2ccb1ef6
530b0c6e
eae053e6
52eeee8a
791554f2
41460506
be8fe38b
07415b25
1a00b589
1730e55e
c476b060
6ef74a84
0a145ea3
7c1af1df
28b53bb7
57a81f3b
68b5e478
06f8b3d6
80fb7a08
ab52c9a2
5158d1d7
ad80076a
f0e09e0e
506435f4
7419423a
e8525ce4
9e4c92f1
36ef2783
3ec4a1a5
d3cd104f
0a1fb66b
0451a77c
d3293c4d
5d82f410
c11a0f1f
bf98b030
390a943b
0b376afa
c6e71b4b
c6bf6c66
b6ad20cb
0d3e07a0
0056aedd
9e86e9a3
e6ddee77
20680356
576ac004
53324eb5
b40e95f4
b36266c4
99897ce5
ab0398c9
e9c070f2
0b91b2f2
6f3f62ec
5ba1cd1d
59abdec9
b0f9eeca
6bdfc367
1df2aea8
a1b723cf
01e63e49
40e472fb
ec11cf68
1bb2a47c
d29ed7eb
f0535ab0
5f08bdce
485a43d4
debadbb6
383a00c8
6f248df7
49c87b69
9b842c89
471f0b42
ee90070d
6bfc51d7
58bdec66
8622c4fe
1b295134
38696c70
a6f7e8d8
42ba5741
1af8ea39
0d55320c
9b79d669
d3770583
db2e7a6f
20963469
d2a4f764
03d44864
66bea25f
54fa668e
9a36c5bd
a7d0a3b2
8ad1edbc
df3cadb2
24d92536
a244672e
5ab8df0f
574b4c92
377432c9
7185f590
ad71755e
9c638e2d
6fd879ab
25a1c8f8
3b6e1835
9bf72e50
f1eb6daa
7c595740
3901f42e
945dd6cb
a3f45721
f1209df5
c0ceb4b3
97d564ad
6e201674
2b7b5dca
f0f429d0
acd29d0f
e82d272f
a6a481e2
64005e3d
b2aca82a
ab38ef81
60a09d41
c5613a6d
c068d4c2
54fd6568
c5b30d9d
dafb2b9c
1e8ec54c
fcd00db6
8ea28e35
e2048ad3
0da9c945
df5bf631
4847fef6
be501722
2cade61f
462e452e
a0d394d1
80cb319b
b80cc4fb
86ed5b65
4fb8b985
3a870055
7f36ec5b
4466b87b
4ce1ba46
c912754f
a4dcdfa5
2441405d
15e02356
e1ed457e
12f9763f
6c9a3525
fe0d7c5e
64f48264
5e4abf29
213fc6c6
1a9e2107
ac140006
d278a4c1
48fdf550
441f34b5
6833116c
7ec531b7
8768da10
119736a1
b568b63b
3da7cf10
93b30523
b0d8511f
af147a15
55f90635
43650685
3af68f96
eb1edda6
db027e70
68306be3
7ad8427b
30db1e50
f5b0865b
13c2f36a
73a4d105
57fa2456
4f3415b8
521a14c5
851ccf11
dcfb9bbf
0543a133
5067c1e9
37d03be7
b3e80ff0
a66b6448
0e2a9916
86205479
7a2a8028
a57875f6
87b2cb07
4d96ed77
755d27b9
1e4cdd5b
4a0e2937
a6cb33f9
fcebdbd2
bbab06f8
ce3b6820
62e3a76a
8744ca66
943dfaaa
a39ce320
a5935d4a
a9bc520c
33dd690f
5df1c47e
bd345df3
456aa19b
5296ceac
1b62b612
b0f99a02
a847f169
99124727
e84f8494
cb6e4b8e
de12eacd
74a90e40
79151805
d0615051
1b716724
208548d2
2031978d
e6de389a
2ced9c5a
e2fe8216
823a0b61
e345b2ed
92b07945
ca230232
88f75101
87b17f40
e959059a
209bf998
92449973
5aec2c6e
d51cc83c
446a14e2
6b25f38a
1a47b551
58daa943
36b7006d
c4ae9b1e
a7905c02
029780b3
ddfa3d9f
689e8707
091debeb
7a18cc78
efa436c9
3c2db160
af6eeab8
a940ba19
d76697b7
9977e4e3
a9d7f757
ad1faa9d
da3f5093
a5f23e0c
734b7c12
f628f7f0
81746d6c
e58b8d77
faf6236c
640b9371
68a674fa
d0119cc1
89908cd6
7727b8e1
a58f0c37
2358ae11
c1166083
78a21f90
3a35a554
9a6ef76f
9ee1dc19
9b9d1f35
4a594e2b
bb61af24
5d20adf0
bb6021bc
cea41e9b
d66684ec
3e54e6d9
93510471
b98496b3
94952a16
b31d0445
d062e14b
fa359e8a
28e172a7
2385a4f9
93d25fd1
e40a4b88
e7e66a47
40a37e24
ed5a2c64
546ac315
4984ba08
f1d60365
088e2dfa
23598926
e64ba7dd
17397b11
cc1e65a9
98dabd16
2036f24f
a237c8ba
1b7a6e39
75e919a0
d045f8d0
60637db7
6ae31543
7b3a0ad0
21203fbb
2fef1d00
f0b494f6
869df444
e01f380f
50fa4880
d607047f
2429d7f6
e5c8b522
3f327104
3914411b
d57ec526
cc6a544f
f50be425
99263af7
b70be000
178b3aea
9d45863e
af867707
7db4e0ca
d2a13f0f
78d2b8fb
c3635f44
a7f886be
c535ba2b
a38a2213
3b55bbb5
2a97a43a
e687b99b
370574f3
952deb37
c28cd6db
5707c7de
564097e5
97c1c678
00e60153
a366d82f
3f3a6b26
384559cd
6c97cdc5
ba09d44b
c5beb9eb
ee767c03
ec6c0269
fa973250
42e8eacc
1f6ee360
47d147e3
66e94b40
544e98b6
0b35b826
ea5766f1
7026a88c
5159ee75
3ddfbc34
9898167a
e1668491
7bcea49b
fd3c2f5d
9ee64422
e794a84b
3b578902
795fb055
be7abcd3
eee10172
77097e49
10ca5c2b
855ac30e
dfdb3fe2
848158fd
45999f72
3033cfa7
8f0d8766
30efcf81
7b790e38
25a7b7d6
013b191d
74c00439
dc8bd7fb
636b0278
2bf460bb
63746f55
d8256661
923611e6
ba3ff472
5200b338
81899d73
7e44d49c
6a177ef4
9e4801af
a2cc0ee3
70d32a6c
04bbe84f
aceb8cae
4149feac
0681a9f9
f5586b31
5abc24a4
258e8ceb
ccb80574
8ac464f9
4f19cc3b
66dd5bb6
2867cef5
8a07ba37
8dc15a93
bdb24a04
a5f046d0
37075664
4a916231
e3d8223a
dfb990e6
b23a38cc
85694e77
53dac01a
c01e2f32
64ac3a13
a6ed2d6e
a2c33758
42549d32
0b46aa14
3d98a4a6
fc00468e
c3ae7537
ab95aaef
401aa564
a3ed7397
ef47c20d
2e564765
ea359f10
266d03ad
5fcc5b33
3e681db4
91a4d90f
c993710c
28044010
5a0f8882
a0086fe7
a61b564c
8d6438a2
29793208
41e87aaa
72ed4c4e
ccf5965c
37e80539
50532f5a
97b86b07
a42812d0
49ef97bd
3af4b449
e0681af0
d8472ece
e7d0f9c5
86a92021
33ec18cd
24fac8d9
0935dd0f
5e99c7b9
9e41ceb9
e6cb6bab
a27a5d88
8bab1b04
a6864b18
504fa15f
d2f7fa17
cb642e36
77524bb5
ef306d0e
00c6f5a5
29a6f7c9
dcc1c4b8
fe86992d
cc0ce007
d091d8ea
bc56a33a
044325cb
952e6b43
d5f98236
16e7f3d1
47e762f3
46bc703e
1c1a0b03
6f4e9638
eba694d9
dad42848
fd276901
85f5885a
a94fd002
3f24cc04
cba1dbe4
055e9f6a
f16050dc
7a0a2dba
91ef9d5e
a5c651b3
7b083560
af8aa246
990212f8
a16dde9b
cd24a7bb
1abe0dc8
32bae906
b8b526d9
8f08a9f4
9f1b7757
ad304500
00ba62d4
ae068e06
3c617723
faf12215
c65d5801
1123c98a
d999db56
653deb8f
b6d48be2
fec49061
9b017c2b
47996473
e01f7cc6
fbf247b2
27495c7b
daa95bc5
6d37b866
ee09482a
aa2e4a48
8bbe366f
c998384f
139d708c
69f89e61
b0e5f816
6704f5ef
804c314d
2c19f743
aae116e1
9c104bc0
8efafd48
5da56e47
102f6734
840b7cc0
e48ce67e
527aa85e
bfb71aa0
f9de2ade
de31f7f9
a0e947c2
923438f5
465463ad
351001b8
6992830e
c23dd7f6
9d231fe1
4180011b
8398f2a3
5012327c
ec06829e
896b8f93
37fa7a78
b2748e52
8408eefc
5361aea0
0a1f9b1b
acc1764d
eafb8c40
b20e212a
35664e0b
58fdc10a
937e3b0d
c0c6a9f9
8c27e600
e2ca541e
709c6f8a
609894fb
91dc034a
56c4f09c
cd321638
848fd6ed
1ec2af78
9d0008bb
263b1bb0
d140a6d5
47b9023f
c2a65bcf
e2d23c29
ee19a249
5bfe8f4e
213978b3
b9397d42
1e662045
c396081e
614b8f57
efed1496
5c00674e
3e7577b6
1fae2322
807da1b3
9004a154
8a9d0593
2c6b654a
f7c700ed
c5074e09
7097ca6a
eb1a6aa4
afc4b3de
ef66e625
4e1535f7
bacf368c
b3ad14eb
6134e026
6c65b54b
36aaaa16
90f57bfc
b524f432
e70f74c6
09525a2d
86a2af11
5cbda5de
01f59248
192b60a3
9949dee7
30cc37aa
fae2f307
d4f4b290
eb818e6c
510f99b5
1a89f170
8ff90ee2
8ede5524
97f4d8b9
b3bd0536
c3269e75
db201b82
db8f1595
c3096e23
60c26f1a
30cfc709
c6009889
e6fba662
baa2e802
b0236d5e
0b2fe2ab
970ea1f2
7a50713c
939d237e
d09a48f7
5345ca32
89bd37d7
2a21ec98
27e92ebe
940c68bf
81253c19
83104835
a2b528ab
ac2a5000
cdfbb8c8
38d2ea2d
2832be5f
f7a1b149
46f157b8
9f7aef92
c6adf7f5
c4dee49e
fae9f3f9
d2681911
d960211d
145f4103
68602389
e671644d
2059c458
51cdf8df
3da1a1ce
7ffd3fb6
7b0829f3
65deaf46
58d361be
70b482f7
220ddbdc
45deef63
f22cab2b
839478b6
1b845385
73cb2d5b
710cb3ef
916df742
579588a0
ced43d27
de2af185
51bc26a9
9d285fa4
ea68964a
157aa087
5b653e9d
af532884
0c13104e
2ad8c56c
2fb12160
32d55f44
db645dea
10f45fa6
b5acd107
db16c459
eb8de358
fa59f099
29468a80
75ea679f
0353e865
297c8050
3786c134
df79f38f
1619d79f
e86278d6
c8391445
baa5c749
473ab5f4
4c42680c
6a551f95
1c951a36
d4acefdd
81605df4
9cb3f623
741f0006
f3a44e13
c525fa97
a93c86e1
397fbf01
bec7b4fa
77138aae
5f23532d
3568e178
8f95c918
05e2ec20
15851580
c8dedf20
15ba8b5d
ddcc4781
e19e3b03
fa57c238
fe936038
787865a4
789a21f2
97d92357
276a6556
f585c385
bf9f57f0
b65cda00
6f73fc18
20939d04
93338999
3d91d559
b35fe80c
c02d4506
eb0a9e92
670c9127
5a0c02e8
5c469831
fda38b67
73ccc673
513f793d
3e6d14a1
f35edcc2
1be59072
8cd41a7f
54d62615
43327f3a
381797fb
4f2a974c
5f6226e5
b95a039f
08205bce
7fdd29fe
21ba2456
15ead472
c6fa959e
b10ea545
d4d83e34
a5a5197d
c7a17ccb
10b22fd8
47616236
5fd62d77
fb41b1d8
5a33f955
511c76a8
662537de
794a7ec0
18ac2a7f
e71b3220
91add735
26caf8cc
e9cf21f8
35025715
3ecde98c
3f5f54a0
b8c5c3a3
1cf13fbf
487faf32
57e1b899
e0600f35
aedcd603
b2e4feaa
bd6f26f7
a42ae34b
4447e1aa
3f441b62
da91ae94
6921693b
4fea8bcc
27cee4be
0e57ebdf
83b18ade
300df78c
9bcbe245
a944b247
f474017b
e1f07fe4
7458e9f2
0385b3a4
a960589d
a2b503e3
382a5d94
114f01e7
976797d7
d2c97788
41f00f21
0dbc66ef
12907f42
cf1aa5da
de9492af
ab2cf212
01b99937
22bf2bda
5e32d2b6
17d5783b
222d772b
7d1dbf68
5d025453
52486a02
ad752ce5
02cb59e8
8b399188
7fc90dca
597b0c0f
74c30f7b
a0fe1a73
cdb17a6a
08d8dccb
47f4d42c
9cb9df27
8d4497e9
842898e7
d55aa33b
d51d642f
05ef48b1
435c52a9
e6c19ec0
897ee3a6
540624f2
091e39e3
fbb730b8
e510e443
9d60f76e
afecafc9
84b37c05
96198b6c
ca73c5b6
4b42e33f
a8efc376
5f35af70
dac9151b
f0a8020f
d1af2968
3627ec2d
9e74bcd7
5e4cafd2
9f12b480
bdc2925a
aa1d3f33
8d0483fd
cc7664cd
7dacab05
bc9af646
32e4902c
693275d6
590cdbca
bf5fbdf4
e7199734
645ea38f
a6f263da
7943d3f6
81921efa
690b0f5b
d611778a
f7493c08
e41d09e6
ed1abf07
03638e02
737f78ef
e6dc405c
b5ed2a93
75fbad1d
7d02c982
ed86d645
056fc793
e97c1aca
a23c9aaa
3be881e3
2d790a4e
e6be24a7
325a5dd1
29938927
5493b4d4
5b972daa
fe511d66
7e104703
6507a638
3498bd74
6f7e392b
35c98688
4b64d7c4
1f7071b4
a65ce7b2
deaac753
b608fae8
bc0d6604
91f80150
769d7de2
b122bda6
ef71661e
70cf7097
8f2bd719
e6ea489b
8b47eb34
9e6be874
4af19e69
7f8b3952
f26da75c
f41c8985
0c006570
9696e981
ab571430
e23ff902
f1d2dc6c
cbd42dcb
909c0f84
53daca8f
6b042376
592cf408
42b63851
fd3a57b2
e9d89587
9a4113e6
cb794ee8
b36184ba
3e910464
dc89e793
4d2f53ba
2c441a17
e3773433
94e7b480
8b9cde08
93c1df1d
15666410
7703cc72
0e993187
e98864e4
c962f732
3293294f
12cb247a
885e8f5c
0514a6d8
eea2c31d
0ed7fd5c
c8c18c4d
b0739c1f
51a44d62
553c2c07
1de5c61f
3acfb2f4
a02f2ff2
8fbdf884
5feb3811
1b7364c0
75863719
187bc489
2bdba9ec
9d6c07c7
0361702b
d6668129
7f2aa987
f54cc83c
a06308e1
bcc6018f
35397d19
d73bd2a5
63f8c570
b534d390
e9136270
fd92d89e
34ce5ded
16bbb2ee
93adac5f
acbe1db5
33ad76a0
68d04457
bd154155
1a1db9e4
2fde44f6
12d3dc0f
b38f86a9
77f4bd82
97b6aceb
ba4e62d2
083fac45
4922bba0
372c7389
54dac25b
a781e6d9
803e1e82
2b90db52
6c17dff8
8f858ee9
3b2f9f2b
4d6a5fd2
38395562
babcdbed
a103a5f0
687fc289
c65a41c7
fb030717
838992e6
7d552a2f
68e40e74
e377fe89
7f7732ef
92d2fe34
1cb72abb
0d5956b9
4f27259c
91bf8a2f
269b72bf
50c22d6b
7da9091b
23792379
c828fdc7
3ead401a
be0610f6
a3d76e2b
52b6c065
67bfd415
c4c6a6d2
68e32706
558045f2
4649aacf
106224da
225508d4
bef5082b
0c9bc6fe
74a6014f
797744e9
e2609eb6
dcd51189
cfc4e9b3
dc9f16b2
646aea7b
3dd7c9d8
291bfb01
d4848582
7e957d9b
2f7caf1c
a4115b74
385ff530
83381311
2da56478
4b206c56
8b541e20
245f8a84
c795d42f
e1f1a20f
98b83076
fd9c39d7
02378239
dff6aff7
6259a2f9
3ac2fbc8
60e01a38
5a2a021c
0fcd27f6
63233510
61518bf1
9fe8ad3e
d33d3594
778db9b8
02c75bf4
7647c364
ed20cfea
c01a4d61
40dc47d1
31c06032
0b5dbf6f
c9350134
4a3a40a7
591996ce
02766d67
7a2961f9
2101a04a
e7b7eeb4
7f2c3cba
8e02f0eb
38b3092a
26bd2e6e
356774cc
d127bf98
3c2ec078
866fe63e
56929cb1
567d852f
8fe3dc5b
32fd9a9c
62efcfc9
8d8c7cf6
24e8b747
ad223729
307c59b4
9d79b0ba
dabbbf7b
98228bc7
4295bc2c
c1a61968
25982bae
20be043b
f5a26b36
8fd1330f
411406fd
3d827ff1
f874467d
8957c7ba
6e653b2b
50b2a490
dc0aa73f
edd4e938
757ba261
fea9ae38
c577eaf1
bf7160f3
1f75e4a6
65317463
f028882c
b4bb9365
59a53985
bfe511e2
f4006e73
92d23de8
d9aed73d
729606b3
bc60155a
34e1a232
c59c7f98
dbc3e972
50bc9322
98a99b62
47bd039b
0333280e
576be4d3
19c5aa23
059bc343
82c9900b
48756f99
534b2ffc
c933b2fa
2c918c4c
0db7d305
4f957d7e
33364c8f
70aa2cdc
9cfc9e0c
456f3cc0
aab466cf
4fe0c016
1b19d272
93544261
c587a238
6cc33ddf
f7158260
f8c3cb86
43100588
be762201
30f31943
81d48bf5
253c50bf
ca479e7b
570a786f
d9746e51
8cf891d3
91006a5c
422b38f7
a11122e1
d32a32fd
59c8c4f7
a1f58c93
218ddb12
1cf81d33
1db631f3
26dd04e6
83c449c7
961d7c94
ec0694cc
3490adeb
61688a93
afd973bf
8d302387
88fb0824
6c2600ba
db95128c
c76120b7
b94ba810
578a7a05
8b464fd1
ad8cb3a1
d429879d
35f245b9
2e9b7a24
29e6f04d
d05d46bb
144f71d0
8d69159f
bb8c5665
e05c4049
c8bac18b
66e66d10
fc3d504a
f238a80f
fbfc513c
44d33959
20fa0f62
8891ca34
4bb386a4
38475d68
ab2fa25f
56ae58b6
16c7daf4
23efde7e
5bedec90
5cb57fe0
9abddf10
16113ca5
951453a3
383a7c28
c31329d6
7559b384
e03a90c8
adb44265
404eb3a8
be195324
3c016b0e
73324d82
728c4fe5
ec5281b3
6722e9e2
a3c77c97
95fd03e2
34f1e573
176a394f
a8cc026c
73975d0a
518b80e2
dab1fb99
baca93cb
afd39d7e
7ac17209
d4cbabf5
b93bbffa
83ad82ce
57dd9d5e
188e417e
ec43fcdb
4f30faa3
4fd130ee
3769341d
a313a4b2
8aaaed1a
f6633a44
60a0974b
69a819a6
e00bc2d7
39079a93
c1e00222
a9dd1f67
927bfe06
8e8ba4b9
89d38aaf
8a8fa234
3ef00345
c4e81dfe
02ea8fae
f2199a92
adb15bee
8fd1f26c
d69a2f8d
fc2b7107
332d4316
98679992
2b6c83c0
b3c65e2a
b0058d32
7c4eddfc
efdef634
7a25150a
67f58b9d
a89383c3
ae0542f3
1586ea09
d5a190ad
740730c5
885fae86
8374e37b
89c556c0
30a534f6
04edb5d8
039d9a3d
ce67e91b
85f4f5fc
3f6fe456
5910edd0
5833c622
1fb81c9d
92b151cb
6a33b0ec
c93eda11
1edba9b5
307282f3
b0045cac
508c8c31
81879849
ba6b9c2c
1680d87e
8a3edc7e
5e2d860c
939d7af0
b90681f6
18db292d
188b57a3
f6c2bedc
87531ea5
b4390abb
bd38a5dc
de30c932
43b5bd34
b46555ce
8c51f521
ce5d4b8f
727ccb54
23132db7
36dbab21
1b3a980f
2734050d
a699b132
e458d4f7
52ecf961
dd38e8d9
e29284aa
1f17a8a5
0a6002d9
dee18682
a9910710
c67b8032
6618c201
2e375ad8
edd61ad0
6de178eb
8fe12f83
fd6dafc5
13481cec
273b0843
b096b196
3c11c916
9d0db894
566802be
35ba8e69
b3eef6ce
94ccc0dc
15448435
482559f3
9c405c9f
44966e6c
978f36bf
2c6e2bdb
827bedb8
87f1dfda
0a009d62
ad8233a0
4dbfd15d
448ed5ee
75b5c1a2
856d5427
9d59a338
5c46e536
d9499e23
a93e8075
8c65a873
bf6a1b63
434b9ea4
7969331c
7bccd865
85f2935b
acfe0fb0
89244645
cadbbd94
1a937f65
dafb3b3f
d37227d1
98a3652c
680642d4
bbd9919a
e0d18019
64659659
8a384a70
736f65af
39269a1d
abf9245e
4331f387
e4b0d148
98d02aa7
63133054
f3485423
9896c8c0
35d7d571
b693e10e
6536c5cc
ab48fd94
62c80e60
38c164f5
fb01ccd1
1a13b7a8
33c23f00
cb36e58a
54e2a86f
f05eb030
b4bf3892
862a606a
adb0e84a
cb06852a
bc922a9c
d540f160
01ebc6aa
626c7248
c4c1dc5f
ef0d8da5
c3dedc74
1fc48285
864e0fa1
12f37bba
8bc1fcd8
d1705c29
77fc9622
d82ff312
f8193f04
ce016ac1
e14136cd
af102918
d2cbd4c5
938bb8af
0c6baafd
6c1a22be
208f55a2
aafd4e8c
f3d8b3c6
5e267ba6
9264604e
0f31d36d
81902032
1e64bca3
6168dff6
e2f863d7
175f2303
c9d472fe
31d7a4cb
550b7134
9d2b62a4
a6c8aef5
e3350580
5de32f0b
759efe04
c4b3a303
93be01e2
783ff88e
2bf8c456
058e292b
c11f2aed
0515661e
232f6709
dbb46f65
c4aea29d
cb3c8acf
25fc5f3a
f7c02e8c
6b281a01
5f5b7ea0
76c4e62a
5fb0d85a
4f3cc6d5
8e24b734
0345fef6
10e1a3d4
05a14404
dd9dda4e
b61483c9
788c3e8f
b8d1ace5
463f5166
f391633c
d169ed2a
8430eae5
ea82a89f
af915c13
84da86aa
7dd5538f
4829a9db
5f3dface
8ec407c0
0b5c4c4f
51bb2a05
62a2ecdf
4790e49f
cd4698f2
aaae10f4
9a03dec7
95882250
24c26607
6759e853
097fc2c6
1aef9b5c
b31284a8
b6580d3f
4b4336a6
b3ed48f2
07c3a276
d5412dad
6a4e6e69
370dfa30
646d24ba
481a1122
b6b969fd
3246470f
82a1d1cf
d223d57e
1ddfc35c
2d7a6e86
79846a7f
1874cb5c
00a13690
e1970ce4
b093fd82
a6a6d2f3
a65d354d
12ddc1b5
63c5e181
23baa771
047fd7fa
ba29c958
d7137b49
fb0488fb
37a6615b
aa52893d
c6f2c797
81a4224b
c1324189
3d782a86
532b358a
64c4643c
70ab19d2
5e2ce506
d66c73f1
43ebb3c1
749ec715
83487f5e
a9760125
29886856
ba3e5bf3
be61dd58
98676a45
fcc5827f
34db405d
54506eee
f4d80374
7a014763
4e10d033
fbae6bb9
7d881932
047265ea
954fc534
a89a53d8
a38e658f
88681652
cc71d7c7
735cd9ef
e4d41e29
dde27f83
5ea29cb1
0b91684a
68493d42
24aaf9f2
4449814a
c74e904a
c1407e2e
885afa74
f2102f73
24a5393d
cefbdff7
23b792ae
f1ed9c3c
af204b02
37fb171c
3a3b61d7
10937689
532d1b77
15a52437
a81226c3
70ea5d75
653c8f73
a4aac534
3815e5bd
97926081
44bae922
7e606317
719f0b6b
c0519ac5
da4caec2
f00bc8e9
c614ebc0
cd9d70ef
473b13bb
e320d5b0
db0fc707
842dc0e0
e507f22f
e10818cb
02ea6948
158c7a34
85b52570
c7769806
aac3db59
f73e1cf2
a6a8d42c
1aed8029
540fc2cc
32b8606a
f2fafa09
e984e29e
5f81190a
693191c1
255ed3df
9865183c
7419b7c6
a903ada8
59dfc16c
8d7786e0
be943c13
dded7905
1b73b86b
067e26c0
84775b6d
06b52fac
45073fe6
8db3e7b2
daa79214
c279103d
51bfea5d
f2ee393e
21b7c246
668fcd5d
35e7de50
e7b57923
d72f07d8
60360ee9
32c32000
94f05888
e117cc27
8a562742
d37aca1e
173c11e0
b85e2f34
11e3c0a7
2d7f40c7
e03212ed
158205e0
c33c6e6b
d9b0cc51
2b56c5d2
9551a273
bf36b701
0c3b7c7b
655c7a98
328413c9
e36bf600
80bb154b
deb3b15a
d3a2a6b8
1c166622
7dd0c4a0
74fe543b
bffee14f
a3788e0f
b5a237b6
6bb06771
2971987f
0a94bb32
b8b44d07
00310860
0562f4b2
e6f390ce
e7a83143
44910356
71f23c80
eaaa3f31
0a4c78d4
ed4750d6
ae9161e1
3e7e9f39
c80834c4
9904a6f7
fc2f3fdc
0239fe71
49b7b7a8
de33c14e
1f39d223
5f5c868b
79ae4840
6f9f9023
cf96d99e
ea2ced44
1098cbec
3b7fb526
f7dd648b
4b4ae0c8
6c77de1e
3fd1ef1d
e05f0576
133bb5a5
996cf4c9
9829dd79
901137c6
bc854f4e
03e4c681
1476c665
7863f2bb
e5f60544
977a0108
f9be34e3
c6892f97
e4661b82
60083fe1
5030a069
dcad477d
1333ce4b
5c546bac
a6294706
ebadfef0
07dda033
091d894e
b6ac1b38
9c5fab08
7ce33fdd
b1e239da
0bec6927
75791982
81733eb5
d17b0ff0
457c0b8d
43a65d0a
978ea649
754d6b8c
bb47fa87
fd3f00de
0d7ed7b6
1e7be793
0edb736d
bd77d83f
bc972441
46612578
ed185784
244a286c
b8a324fb
0605ee69
80b495f2
a1438f9f
83929506
cbf6ce52
89655510
e2036344
521e6536
c2734f31
560e30d9
d1cba264
81963858
c1ab6f6e
d36dbbb8
5767540d
1ddbe696
ecdde468
bb5de470
b575ec2b
3ef5ad40
e1d1c00f
81185f22
153080cf
3aae8f86
d8d4b532
beb83421
887a20cc
58f5fac7
7eb86d5e
bcaff9ee
c1b71aa4
780ed138
44aed408
4cd4c61d
7156193d
7874974c
63b38a4f
6418a3fb
1fc434e2
2deb355e
f1ba2375
7a78b959
cbeab7ee
1ef5b380
ed22f7d1
1cef4b7b
7c06cc11
0bd1aeb5
4258dcdb
a1c991f7
1d98f79a
45144e5a
534ab751
cebebd6a
003919ac
8d69123b
e4937de7
e94ed5d3
ccba59f5
a98d2dd3
17d36d97
a390d781
cbeac944
1f2924f1
f6285bb3
f32b7651
cc12e92f
8f940e85
df506336
32206374
eeef114f
cc04413d
b760168f
2863ea12
d5c781ba
6dc8104a
d1fdbf1a
7340ba26
8084035d
662f5bb5
d7c8ed73
f092fed5
98f3b4cc
fe3a71ce
869fd802
2f9231a7
d98cdd11
8e6d57d0
06acc34a
3d595c74
04b392f6
5279730b
30234254
0bcba5dd
ee12ce96
a5a9acca
9b0534a3
042053a8
3fc40b8e
619f94be
60603f67
098c28c5
e5c7035f
dc29dabf
27ab3933
6cbe51f7
92f31edf
37c53201
fb4c48c4
e394ebaf
eb2cb879
34d5944b
1a663bae
997c801a
0e5344c4
20815fe4
2742861d
7a488b77
e3cf4b8f
3a0f8bd6
4dd4f8c5
75fd0abd
46224b61
a39356ee
193d300c
b4cb8cf6
ab9ce590
81986dc2
aea2570a
8928b817
b6359e16
c4401004
9ae54752
4d392c09
0634eb17
1f21391f
ef7e24c0
a6dd1843
5b5801d7
19482eba
f89f9859
f7ac5d86
48b0b4d3
56da8a51
7b2d36b1
aad85aae
426ed96b
f0009610
e1e4bab0
9afe98bc
f7ee99ba
169b5eee
c7fbb868
36052b7e
6410c015
a12726d9
fdd6d7b9
3551b832
14573033
cf8fafb4
41173c5d
556ae9e5
a4dd3623
5a40f642
5bf58d35
21abcf2e
770c1d66
682e4b70
1d556bdd
3b05ee8b
0e38d11b
b71c3d90
1acd5e02
47581372
3cb4bcb2
24999764
e1980664
a8c51229
ae5ab020
7b131dae
26e739cd
4e4a4e10
3e908548
f573380f
7d22eed5
8415cf02
c01948e0
6d5f3dca
d8a6f69a
857532b4
9eed9858
5190326b
ab3e00bd
4b9f7d02
98f81860
b969f65d
ae378a97
690ebd51
c216969f
9d359b57
fde38be2
56572659
1505e07a
88f38084
f1cad9b9
b9b3d979
ade7a9a4
e30c4d15
d4c5dd8c
58225b62
25df9323
edec54a7
b81a931d
9f822b66
2b6f603d
8dd207e0
7c05ba0c
699cc486
ce85e413
277b687d
ada3aad1
05977296
77c5371c
aa1cda04
3cc5f0bd
8c0e38fa
6fd63299
5fd9f442
1802e7b4
343bac9b
8cf15f69
6c98199f
97790dc1
173c0cbb
fb87a468
2ff168cb
4b9ef931
604bf57b
1d51d780
5d989f2d
c03c1dde
21136ef5
b56ff9de
964db382
0f0f2e1a
db53be5a
3e457220
29ad80da
66851632
ccb23ca9
f9e34dc1
33e9fe36
80059281
be72cd77
693f4098
f66d079f
e127d36d
2b717579
12ee1398
475145fe
f4fb4cad
b3b82818
de16e504
89723b53
2ff08815
5df128f0
8b9ffd9c
dee6046e
8283ebb9
7b562f73
0fd36cab
3531b8c8
fa6e7c4c
d3e8842e
e5e92dda
753358e8
51a028a2
20e99c34
678e4833
86cd2fbb
2d26c91f
b19763dc
6762bb97
d4916e58
e0cc86f0
5b95e851
e450837d
0b1d7191
dc441260
aad2efe5
62e9627b
e64b2bb5
3d57e0cd
ddcafac3
920f1394
f7e5b387
9a229c5e
461d232a
c7a14cfa
143062ed
ae258c9b
344e6dc2
1b59f180
9e92b69e
69ebbcd9
b4eb442a
292b1ce1
483df95a
133fdd0d
5c9d5d03
24c57fc8
56c9a394
d121b34e
d0052ba9
7aef2d73
d92fd5aa
fbf70299
085fc87c
97d2af03
a7ec800c
af098ae1
ace357eb
16f5c414
82299dc6
749906bf
99c5356b
ee83b498
b8127e54
5d90744a
36bd0a7a
50fcb393
920e52ca
e6e48689
87641d0d
530fdd8a
1246d9cb
140a5370
d5a6d880
f796b487
2ff3ce92
0ef1c4bb
e945f77c
81831c61
cd9223e4
f6706607
a9b110af
f9d18490
655433d5
82f55a8f
68592c68
d488bd53
72b4ec5b
b20ac39b
a3246db8
fcb205c8
73cc62e7
b9e4cfe8
4671bdf3
21d50103
0fdac119
b6392028
762219d1
9be4f63c
789b22e6
b55b3ea4
4bb145c5
564f443b
d9a5164f
c15dafcc
b2d2b60a
3eab0134
713196c3
c5447827
2a8645a4
a6f2fb01
aae93ce3
3fc18f04
cb9d1a5b
60234694
6115170c
3075eb72
e0ee8d48
6ba10df1
624b0596
9bcb1931
bf081b36
594c8757
c613c951
c0d463c8
cfadc50a
c9c01220
f5a291f5
93c5ae24
751ab6d2
8fd812be
75120259
8c59490f
cdc78089
667fc11e
07b3dae3
5593118e
a97b68b3
710262f2
ac0287a8
cc47fd44
02370b28
135244bf
2682563c
843c1528
13d2dcf2
8aa8aa53
2852995c
1cbf85aa
5d3fe038
ccc6d5c5
66c81cfd
adc9e25f
6ba7039a
1e8a3a8e
2c7ca6c1
2e68e6fb
6af13e8e
3d401192
87d23ee3
24208394
ee863cef
b6249821
c88ca485
92777e78
4da4ba90
a431d16d
430eb75f
690a5c60
816eb390
0c5edfe6
87bdfb43
a5e2c1ca
179eddee
dcf7422c
9122d3aa
964ada10
ec5b0250
4d02377d
1c109939
7d08d49f
2757c10b
72d15592
a2d53d20
d0aeaded
69e7711d
bbf33d92
93dd2f41
9ec8b224
9b1dace1
8f8b3c50
c5a26858
62468572
da16c623
6c9c599d
e569cb2e
cd5688a9
5993dc9a
c7778648
e7940b48
4c37edc1
f98914ae
7ba8e248
36089bf0
b281569d
a57ec4bd
ccdf8812
10f7afa0
2263f6b1
d5a39297
0bba4fe7
7e21a56d
abf67e99
c1fcd19c
b24aaad0
69db69f1
0c28f8b6
f84de99e
362f2e33
aab99159
cfa0c1e5
797b29f8
851429ca
65c64820
16315ac3
421567d0
6b573733
1b0b1124
2170c6c0
96648adc
38e83811
59ddcdb2
87deeb30
21a85930
ecb9cf5e
95adfa91
cb698381
6c517d31
ea5e9070
782c7db6
dcc6cfe8
40577076
27800a89
3ca4b24d
adcf5d4c
48da9fcb
d9925eaa
107f64bf
3e4b0007
557ef8fc
99cf74f7
bab867d7
8fdbbb5f
857d1364
9733a461
25b25c23
15537583
e88be367
da6dd0e4
98be6f48
94b63ddb
c2c13f52
a55c1cb2
06b0edaa
55907fc7
98f099bd
7e75df79
02bc4e94
9d5b6338
3e228b58
064065d5
2899259d
eb100483
c4007a15
b325274c
2e0ce3cd
da4192c8
e22b04e3
4cf0c532
3841d2ea
108315a4
de180aa5
2ea5e8c7
6e2668ac
03db00f7
563ad8c9
6ad3a54b
189def47
a1ecf084
af1fbe7d
dd064b00
7322aa89
113354d4
193f5e6f
6dbff1cb
0c9a1dbf
daf5f754
471096b8
3cf61cc1
a651c984
89f9f0b5
dedf0eb1
499f557d
0afba7ba
bcd65906
546ed906
d09367a3
b5969cbe
b585e3b9
722b46a3
be8c8ae6
8a1af585
9f68c8c6
e750000f
1bf20fce
e57889d3
48d392e3
992ae167
a42f33dc
2d894a2b
81da11f9
f561497d
6102439e
0f987371
f19e493a
17f0a0ab
bfefb862
c8e399ca
6030eded
3f114f5d
6dc9ca41
c060e298
8c463c8c
d961f507
4ddeb565
70ec3d9d
2cc18c4c
fa63edfd
ed4da33c
48a52171
ad6ea084
52f7e0f2
c91db3a4
c4455259
d5069a31
3275ad3f
8d10fb60
b28dcbf3
30ef3b36
40a69041
40d8c5ab
55fb060a
e104a177
5220c2e1
08bb689e
a863dfcc
44ef3324
82a9f56b
0fc794ad
ad314d1d
bdbe4f64
9b14fd90
92a25593
d99f3e27
d0b47bac
08ee5211
5714668e
4ef0ba3d
fe9a8032
b3e6fed5
3005f055
b356c6c4
519a2aea
7d5a8134
b44c8705
3978afde
2d40d276
aef40a43
e50d6e5b
6de5b9fe
d85fc3ac
ed4d08ae
1c3af68f
630ea003
ea2680bc
04b3cac9
29bae8f7
b016452c
1ed4614d
a5572bf9
cee0825a
ce5d9900
0c7df5bd
bec9417a
79fbd609
1158586e
da5f4121
6d515141
68e854b7
89dcf65d
7edb31d4
24c0ebbc
d7c64bdb
0a2d4400
2744f7ea
a116d892
7b15da77
4e29c44b
7850e40c
afc4abec
4f9a30ef
753f4961
9309ddf1
e68ce5b0
ce607639
d092891b
2d72196d
d9c2c543
afdad5a0
7a3d3c25
a40652dc
e5f21549
11e850bd
eec5a571
bec48dda
3c55b863
6b67e363
5615374b
fee73fa8
06109db6
2a2f85b2
b753ab39
74d50a1c
6cde69dc
acf2e8f8
cbd90416
061c815b
5a86f22b
89a51217
bb2fd42d
1a41e020
570fd334
8d88e252
e30831ec
f2d452bc
9b734c92
4e8f1076
9c94303a
8706b3f2
ef6a2b39
969e191a
8513e271
6a175714
f8792183
8dc665da
64d10a7a
c8de7cf8
ab7f70f6
1d3d2f24
f79cb94f
ca4be19f
059d0be4
e0e0b3a8
42b1e586
203ddb8e
4c53d884
763d0af7
893c3e72
e72cf7ad
65c78633
18d9c388
5a465b61
219f498f
b1be4849
79348fdf
c9f42b51
e9f81745
872882f2
4ab0b1ed
afa4d6b1
fcb52f59
944e0b10
7084f9cc
7c410f7e
b9393612
96612c1a
72eed278
6f2b802f
1aef4c97
95646683
af2fc853
fd3e2dba
a0f0b3fc
1c21b901
ef2e189c
12d9f565
807f77be
72a43277
78d893a6
4e5dc9d3
1dddb675
58848950
6177d82b
21a95d0a
ddda6308
9b96ab6d
9aa0c6e4
5d533417
aff2bd0e
75ccc2a3
4000adde
33c36b14
df7dc32d
a5e5d28d
b36ed03a
62a05c7d
7ef67c74
1d3b8e5e
a8a8d107
1ff47712
a60f6274
b2c6dbe4
c45c7b6f
6a7d751e
4f401597
0e265f9a
2976dd8f
99d98ace
1baba963
16d81d39
b3828ed0
264cd2b2
c014df3b
07d4e058
ece0ce6b
1c341d90
d9afa51e
3e9e99fe
9688d93b
2a209d9c
b1ee29bc
9e963d2a
5210b128
986deca8
a6020a2d
d69011b0
a89ad77e
6558d8f6
5a398e19
3f849aba
36d8a41c
ef0e194d
1dd21da6
2ac7936f
4c93239a
1552ac72
f47230dd
3f3e8f74
64eb35ae
afa58d4b
fcf11384
486e812d
b1fc8a4a
e353408b
fc140546
84d55aa0
2e629e75
681df8ae
f10ab5ed
6b2f7244
59314c5c
0b657c47
9a70aeab
84a1c3d4
6f9f0ec3
6ed32338
b95e06a4
59e01d5d
b934b440
a974a570
9e318934
9bca4ba2
4fd6cd06
decd6f01
53ab6910
fb593470
ad104feb
262afd32
24d4aa8a
19b5ba69
70bb5037
8c9918bb
d8d5cf97
149e1936
a9c3b261
87b31557
034a2942
f5a1e232
9ea819c6
d0694ee7
914a58d6
f11d4083
1cfc8aed
5e67e33f
17c51691
e61a2ae9
2f5341a6
b5e077e2
bc47a43d
6412aebd
7b403ad5
fb8404d2
e9a1a64b
d8ea871f
e29c7650
0c6b4bbe
efef2b24
983925ec
8bcb22e4
c157a123
a4707342
5190192f
63e7e113
9c56ca06
b359d831
ae256ed8
e99331cb
3b669dd4
3d87707e
8f3189b3
6519aa03
cd6baf70
2a7c9e61
0a26dc8f
db8bf592
417a95dc
4308c5bb
403c0ad3
f4bc1805
fcfb12bd
1dce96e6
114e7eba
a18dc0d4
b4bc9499
767a7c57
0d259489
9ec9ab71
d405d698
7ddf22ad
e99ed6d0
6ac78783
96a323c8
6faeba3c
d1f1a83d
785699c0
a9f84578
8cf6b6cb
0701ad77
9fe350d5
a8112398
8db495f7
9c45dfe0
9122a81f
2d818e92
f25efd67
9ac4a921
1b3a7786
4dfe470c
31e9a6e7
8a55786f
fb3073c1
90e7be35
2558fbd2
6fd82828
6f6dcba0
07f780bf
ad5301b2
504f9a88
74bef51b
8b5b68df
6bd82e71
010f028b
0ee3f4ee
cb675b17
8b44367f
7945b0a7
80b9fc0a
016b2195
cefb4df3
149fe157
70271863
2ea05dce
053eddee
19dba624
17518b46
6cf1de51
b94304b9
1e8f762d
ed743ded
ebd37d0f
0c5d0496
e24d15cb
a2ac013d
0bf2dce8
5d1f77d2
0a1115c5
6e4d1619
0a756d2b
6f180580
50c5523d
a7c9f3b6
4bba6536
a2882011
8fee6985
ba2af71c
ee636d72
6e643511
bb9ba5a0
700832c2
c49ad411
1d6d6796
a21aee13
8c9c67e5
d515e48a
ef7c9d98
2c3f37d3
0759a4c8
6130674f
6695c742
73ef891a
49168b3e
9c4db6ed
4bf4f342
bef0d7ed
73a88044
be984423
5e72934b
baef6e8d
9d25608b
6e8a15ae
26bc672c
63f9fb3f
f0f310d7
7af2ee55
d0e07f09
9a8cc90d
b9bdf89f
991986cb
84b2a1a7
7ccdcd35
8e9ad691
1bc27eab
881f02df
318bfdb3
9e1ea1ee
2bcb0499
a5fc9759
9cc85d7e
8701374c
ba21d802
6681f565
c6510d32
b9d26863
149efc39
b5ab35f3
b06dfb62
d0aaf6d6
00d2bc0c
c6a12d43
55fdc014
f1fa5075
59ac4bb6
80a0d807
28844fad
2566a6ac
72a318b1
d9746be4
a79377f1
a8349553
b474728e
bbca4843
24cf161a
5c473de4
4d2240cb
bac18b3f
7595ce24
3d1a5577
d8a2c80d
6490d0db
7bd8bd0d
d7d6ebaa
44a7d64e
52c7fdfd
863af8dc
bfb0c9ef
da00072d
cd470061
8e7b865b
81d8dd89
dc17cb97
5c7cfd7b
d6a47546
e4b923d7
4c50d6d0
d5c380fd
82195ff5
1dd391d1
bd4d94d2
0f1a56d4
af3886cb
d4393166
3994c746
c7d24fb9
83128d48
e694e908
ba89f092
46780f9c
ccaa1163
952efe06
fb7f94a5
21b6f56a
31c6d360
fd8775a6
7b1fd9b7
f196b473
7629beb7
d1833bce
d2f7ddda
098f7a5e
47670210
8d38e132
611261fe
dc54546d
1b03e12b
52e9cba7
3ed0b654
c768011c
d9e11bc9
390b54d5
a6a41c8e
53e00465
838ebf0f
6ab0ac42
9bdde9fc
54893ace
a6eed472
b48dbca3
649104b1
20bad37c
ea8f44cc
75c09568
03613e3a
b0476470
d825cb77
681a8bcb
57e108d6
8ebbc8fb
29a74399
d944f92c
d72b0af5
4968dba3
7e5d251f
e8ad0f7b
041f2186
e4f3cc65
e51e85ce
5d31dbab
22fe0c8b
4e470c2a
5cac59cb
6a8831b3
8233f4a2
25543fdd
3f0db6ef
a43bd901
3c022cf8
677af257
23332cd3
bf67f0c5
bde00238
5efbf314
0e49c6ee
1e797d7d
bd779c48
8d92bd05
d7913567
e55e50eb
892cd874
a274f471
511775ae
0fc5234b
0006fdc0
2664ed7a
58059009
089a4136
a297b22d
2df9771a
51623451
27767e47
faa3ca9d
8211c3ee
fd99d09c
d79b0a98
b3c143ca
19853efe
29f61de6
5f477bc3
a3a094ad
35a4820f
6f033c4b
4a34d95c
0c5725d2
92c5be2c
74334710
dada2037
24d4bc2f
f0a9752d
cb841be0
fdf16a87
94d282b2
07a3f5e1
b4f030c1
247157b4
85d7e9b0
273d6864
e980fcae
bd2653d9
e9cd1bc6
a09ee85f
8e86e8d1
9979733c
b6b9e802
7c6f16e9
eadfe54d
f1a49811
e34785bc
1f68bd7c
e748a9d3
d5833caa
44562e22
c689df93
3521de1d
98b9e481
715b2bf4
9dcd5bb7
8f7895ae
2cd560ad
6d2f5bc5
50111176
c8bdc42a
dc7329ca
9a4f0ee2
d39615f3
18433792
c840e70b
6d80d0b3
bc3dc8ea
5b2a0b62
497171cf
a8533f35
031619de
81b1d3c2
0c07d7df
11055969
f42a2c66
acb90ca6
f06dec0a
c5aba776
111d31de
45d5e8de
c27301bc
e390b1d9
9e64663a
47c901c5
3a0a4634
76d89f19
5a6ecc4c
6a06f2d5
3eb32a61
5dbf16c7
d3d09cfb
b73d354d
87cc12b8
b49d8e27
efd657d9
0714a1d2
49da1120
8b8423ef
c17991d9
f5a07edd
bd8def4d
506f3c8e
4e2ce258
02a2801a
b215fa18
8d70aa52
ce3d0a44
2f1e22a4
44eb533a
ac8e35cb
ce5fe9ac
03340932
64c85c02
8340f7e6
884ac622
45e9da84
82e7162c
fed409d4
d9d694f7
7f0c83f3
e6b22a64
d759e79f
c065c2da
c2160f7b
a6a95e0c
796b090a
744dc0b6
0ed3d9fb
0192e165
74454de8
fb81ba2b
844dbb97
9a4c1842
19576264
9b8a3b31
c22c5284
a69538be
c8ac118a
d68a68fb
26ca9951
cb95327c
a4bc91e7
b1cf0b3c
a4f4a048
97992f6d
c2160b80
0b7e79d3
1f2304b9
bf2fe9c2
64d51db6
eb0d67a1
e93c022b
5e780e4f
6c9ae061
745c82ac
6d9e16a5
a534a8dd
b6e056da
80a79c8a
c4256785
5cbdb194
babb4ff3
a338959d
02a39b93
71368d57
d9c5b187
8eddba23
03144b47
5ace7e59
8e71b7bb
b2a640d1
5604940d
e1f47f7e
7e3ad236
51dd74ae
da92eeec
bf70e8d9
cf1dd720
b59bc326
f2d83c6f
19075216
209066f7
4a7b51b8
d64f3831
174d7298
ca3d07f5
614599ef
6c8bb161
d75382c7
6620f713
e5c1d24b
07439df5
b9e8039e
7e849866
79316d0f
ac1a22f0
6476ca62
f3488111
3f1c0b36
a03bbeb4
d40ffc0c
410e6f3c
4d7acb36
f9e4d8d9
28e63f0b
81452345
1493e46f
8536d660
5e894175
c0cd0241
a01fbdc9
5b77862d
7a3b32a9
b3b97c0a
041107b3
e9fa05c3
4ed88a5f
a6af0d64
b7dfc9d0
93e44367
b9935469
ce3b2b44
72cfd1ab
140eb342
8c0a0152
7ef4ce46
3c416ad6
e7887d97
0d529bb1
cd56d2ae
b251d5b9
2b75eb26
816a9740
0dd37851
ad7c8db5
0aa97c78
a72d07a5
2da73804
6b269415
700b4c8b
49ceb3e8
6888a917
c11981dc
eb86d1cf
8d2db60a
acf1124b
5e756c5e
e0fba9fe
6e53ab9e
5852adbe
95b03adf
cf041e8a
e070c76a
401ccb4e
199c28f9
14ebe2db
342121e3
eef73de0
f1ce7684
a77f901c
64967134
44ded3e1
5d2cbe9c
08df4a2b
8a21f31e
010d44ae
e222aa97
99e8bc53
4139247d
59addc3c
843d0ec5
d62d8373
ad3f2052
8268157f
02125a66
ead74c47
06f70fea
bf6ad068
e60eafee
3ff00050
78013737
008ca79c
f5a9e756
8748e8df
0826d0d9
e10c85d8
4d1f0383
95549205
22c503f1
40996682
987e0fa8
85eb96ca
3a98fdc6
632f0196
d6c72644
b5b62075
a1b9df14
4e08de0e
be6660e0
18e5db52
43935fb1
ed21232d
d35e0199
70823c34
6e800d31
cfb7ab38
454ab034
43f32b46
07eea65a
6ab2e47a
2b0a1b01
a02c28aa
36621042
81d52523
52598bc0
da2f1356
6bec9438
76078e10
5c5a6276
b9a3eb9a
6368362a
699a2fbc
bbe95040
b6fe507a
20431cec
6e8e5559
2faa360b
0979b923
70bf0344
3a1f4040
e50e3c87
b2a08971
f689dab7
35bd1322
60dc53b5
dd8bd720
0d1decd6
582ea63e
618c051d
39de0191
2a782c0a
43a793f8
838473a9
b4e348b2
f21b657e
4e52e258
3c72ca23
cd167cc7
30718cde
262e3aa3
f99e7393
784b7ec9
9eb3fde4
f1d3fca0
c9007f9f
932564a9
2584208e
93031352
ca5c74c5
73d7271c
078fa0bd
19afd2b3
9f031ed8
51581c21
a3b5459f
603f140a
d72a82f2
40d745e2
b29a477f
a3fe9baa
a9c1ebac
9e17fca2
18b73bd3
91b440a9
b1193d90
a970a157
8e6b06f8
fd9b7ab3
284573a1
7bdc2a4f
b2b7f0a0
58fe2160
5814df87
f30bc96b
b77b3b3d
7cc576a1
7b8435fe
280282ad
19510f4e
08a71fe2
0cec3344
aafc091f
6f604640
2517e514
7b08c70a
f7a36282
b7c862ca
d532adae
9884f433
eb71afa6
1c00a6e1
14b95d22
b60a3843
927422af
518dad8f
5aa07368
cdf578b7
7950e335
8453b91b
19543052
7a23517d
adca6b26
cffd025c
7aa4547b
2e0a5cd4
be1a3ffc
7a999849
efa2e8c6
d7813b2a
581c7819
b2cb4a02
43d3ee09
12640042
c1286976
1b4d4497
0e8dad18
0a71fde2
f1cc9970
9ef54651
5ea4ef6e
2f7eeafb
01617421
0e91667f
7a497c11
780cd7a2
f24141c5
ef615061
6522416b
3e7d3cd7
688920d1
f57ffa40
80e13163
79430781
b124704a
c0e56f74
45e04ec1
6f26f941
c87be63e
4fe38c2c
d0201bad
9cb51c39
d81aa222
d2e4ed70
84d21723
f7bf50b9
10fd62dc
9b9cdeda
5c78b55f
896f6add
9370cfe8
e2b49e79
6548a7c3
a546f5d0
5b001c3e
1cb4b261
fb6ccd2f
c50fe5ac
6f6c6302
776c1ceb
85eb3a0a
72156f76
5e37432c
3532949e
68f80abd
91b09cf9
01c1fb8a
6b157fdf
63796053
17112539
36018200
c57e8353
f5f095e5
9ad269fa
5c3d9c9a
c1818277
9787cdef
e6437f5e
6a34a274
10168afb
f5d33984
8d95122b
97d131ed
4b0d391d
d83669c2
700253e4
d597de52
de166e2b
b71176ad
ec1307a2
ef07b8bf
79c49a3b
583db830
67bceedc
bf2cce3f
2a280402
cde6e91e
da3bd0a7
9ec8ab8d
11525efe
da968328
f31629dd
d4881684
1eee1ece
aac8e689
9d82a831
68c0a846
8c66a566
cf1ea92e
0ab8b987
d3c713eb
61d1407a
d3a6a925
b2cffae2
79265244
17f3f6f5
1090ebf4
00fcc7c5
caa22221
537f243a
a4a9408a
d9d37457
58bec3ea
cc883a66
411075bc
e6abc606
6677a7c8
2d85992f
7e7bc708
61498c73
b4a937ee
d6cc10f0
5e97912d
6a310f2b
29640672
b680d0bc
b9e8f7cc
6a626303
77ae161a
bb4584d9
ab7d2ea2
70d19b6c
e6b07f6e
5ab88d39
be7f6777
68943c4d
16d7aa04
b7f24032
5d4841f6
0c90f9b4
e819a99c
ab1da1b4
491cd54e
6aef6a26
3d63bdd3
994c290a
43a9c435
60670bd6
4910a8cb
a4374663
1b4cf34d
f89dc99c
e92216ea
be02d382
6c8f6560
ee55d2d9
6514d1f8
0f17a1be
e5cc70bc
be492265
5e85b986
ce530a5d
0b4c372a
9d88c5b4
1a0f5f50
d7e4d931
223015e8
e91cf81c
dbf5d19d
c3083473
2adea3f6
610ba90c
03de13b8
2e70ea34
ebacf8e6
21900c15
1f6f69df
84c29a74
5ceaf729
08f417c0
0bab0eec
10c91931
0cee6b70
0a2270c8
7f48489c
599d75d7
c5112fd7
8889ded7
156282ef
f18be9f8
3d8308b1
833582f8
381ab033
cccee156
fa6af59f
f70aa2eb
7c2a720a
3cd0e107
1b8ae4c7
406a65f7
739a42df
d5c2f363
58602c70
350862ee
7e6b0a38
9bfe8f55
1fe198a2
95826267
5ef0785b
90413a8e
f5c68d64
1c54d930
dc277008
47da58a5
148124dd
3a37d69b
ada93535
187c437c
52413b09
5edffc21
84b77056
dc7a8017
92b80a04
a5ea9c8b
1b582b49
c250bb03
3deb74db
37997fb6
89b2336f
dd9d5e33
ad7413e9
84753b3a
7845607f
362a0744
b3abcf55
5991f02d
cbc03df6
6fa6e674
e3325eba
6a216697
9858b0f8
24ae301c
bc0b45b8
30830fda
5f00dd79
5413bbdd
83811566
9a9784ed
a2d5a0dd
7b5c7fea
f048e83a
33d5d726
cc103821
ba5df413
6dc0d318
741924a4
502fe281
071f8a76
91fd5465
5d90dbc0
1ee0ad70
918ded88
19afbf33
4e1f6cbd
1d4e34cd
9249b574
585df5a9
6dbf91b1
99ca9506
b3a0405c
ab7b3742
62f2f1fa
83e966ba
9768c037
1672d79a
54212c68
ba4fa719
799d0feb
038c4062
97a10699
a75451e4
c1c210ac
f55b6fec
d86e6e33
7a82038c
d3de41be
c4933a42
6371992f
367debc7
68119d9e
8818fdf5
f7208e9d
d0a9ed18
55970930
5bc15adb
d406db0d
ae0ca739
b59cef7f
9a491670
d9342f1e
8943e55c
0c6d109d
fe410767
dc24b972
b72c5eef
b101373f
88d9fca8
a2c16df2
223a2fa0
1b7eafbd
db5605b4
f4ac0fc7
26f1eed6
171252cf
0bb50a87
e9160f88
fc40ed0e
89f73117
29e8eac0
057ec44f
2bfc5d4f
004d9fb4
f9191f5c
edfc8f24
0a442243
65975096
fa3b21b2
c8f5d45c
6857b971
e9976413
93578485
c93f3339
b7bc13f9
1eac72ce
f223a50b
2c35572f
45535760
49413f21
f865d705
48fd5b95
303bc361
a459215a
121e5eae
16ee8b85
8e822672
378908b4
e3b1a9d9
fc7fcf0f
69d42b73
5c814b31
49247194
7273cdd1
0a1b643d
d6c91836
11ef4d81
d82b6099
77c20248
f36c10e0
9b612efd
a769d1dd
2b38186e
bdfb5b64
a40d7065
be5f01b0
215dabfc
0bfbbca3
f057ea48
e44aa8b7
7a6896d5
f8eab9a0
8ea2fab2
c5f02b1b
a35528cf
2a908b04
b7ea218d
bbbfa3a0
ea5997b7
fa119d83
01ecb1ba
509d3ec2
655cf249
33e5448d
d7151ed7
70f228d0
06b0a212
e42ea71f
d31474f4
5e82b86c
4eafef66
e68f6fbc
c019a595
c619a811
129d8acb
19781be3
cc8ffda2
025c4f34
0dabf82d
82ed7e14
37fe12ea
4b9002ae
085a97f0
2944cfa3
5821c4c6
59e7309a
f21d79fc
3fec8cd5
3b9af11d
08cab725
cd1f2f45
ced33968
ca16af30
bf082b41
5072e25e
c508c37b
bfdae0fe
6f90d934
e7478ca8
447abe25
387ab972
3a773f27
5be34107
a0fbd03b
37e65917
2af255dc
bc44e918
7b159b45
950264fe
6b7eab96
d97fe544
509c48f7
094bf72d
4a459ec1
daf7e30d
b4af2feb
648b8ff0
73ec65c7
0ba1ca3a
78bb3555
6048aa8a
137e93ac
baba4a50
dfc19441
b8aad7fa
7eb488e2
527dba73
a667cfa2
8f94eeb1
93a9bb61
7a9e3a23
99d6ce6a
4893b0b0
6adfa9fb
140af34d
5bed2414
ea8b80a0
b47ebcdf
c630d157
fe5ae7d6
01b4614f
9a2ca525
5b5ce6f0
725ef768
60335639
216d5cf9
dc1fe6d4
f5462fab
e133674c
a617cf1a
06109d78
847eba57
fecfab08
3182983e
93a491fa
01a5243a
569594f7
45976d15
c14bde7f
7dee81e6
6de60339
a90fc233
de2e8d4b
b6c75e9d
e7561965
42d0b98f
54afd11f
686f7726
0a666ac9
5f4ff388
d683d989
70b41725
54611eaf
c6be5a12
0b7de455
ca293ee0
64f260b7
3ec59f64
0543eab3
bb646c37
8da02c7e
ea1411b5
60a4ec9b
e0858421
8e34a280
cc8c0feb
ca8df572
53561f44
f7cd0f1d
68f0b217
f9c67ae1
6a47dc8b
5d4889e4
24c4170b
6c76c7f9
47251e37
469e4f82
c214bed7
1df33e80
14986043
a846e466
41650bb6
6b919df1
40e2387b
5a01290c
4fa567eb
41843a83
1e7abe5c
41126316
d2d5ea09
df501493
f6f74750
4c97d22b
ad9fc170
c8696f44
1d125f12
0045ef62
402134fd
ba874c9c
4a16016d
7322787e
ceb0697c
4bdea4e8
2eef0ad1
f320fbdb
390f988d
4e770e4e
d30e69b4
4398e3ec
1f6ce716
2180d985
6101ec9d
6dd686bd
4e732caf
5aca1a2f
db3a252f
00bf8234
7ca66fa1
59e976ab
3ae0cbda
3b670cec
fcb1eec6
b01faf87
49f49022
63b9eddc
1e365534
91a86d78
e1e23a6a
8ce28eb3
6117964b
1a1dfb21
1231ba4b
65035ef5
d9f343b4
f0d1e81e
bd2d1551
b50a42ef
c0062282
01352eaf
c4c9ec59
11139e60
ed70c77f
5a2e7012
377e5db3
323527e6
be583a5a
ebddd018
a718c81e
6bb7d856
2f42ea6a
2112cd91
618988d8
c5421fbd
3b60d0bb
fe64c0a8
9de16fcf
71a5b809
376d9bf7
7349a45f
aac3ec86
c658919e
93a86675
8cc1d3e3
64bf1fcc
3560f25e
13c6e21c
420b1456
a6ee25dd
b982a0a0
4a6ebe70
0b7663a1
b2980b65
49bd74c3
d51c7e7f
1fb24d1d
5241a4b2
ef1b9718
d14c7fa2
a714235e
4a565886
ebdc3014
dd7d4b47
e3ef35f9
3002d50e
3340d790
c86cc929
e5016be9
54931b92
ef8fd560
ee3f3492
17cf2b20
4f8170bc
033262a9
fd75ca4a
577f655a
a089c447
c97e9dec
e9f3f51b
63e8c196
e90ad0da
72ea4320
7ace5d58
ba7eb532
95732441
f3da736e
d19b564b
9c4bb7a7
b17403b2
dbaa041d
7911e2c0
099e1a37
f9f5c2df
4f9da963
a888e0d0
830c39a0
305fa00b
d7e1cfd0
3d0f904f
5a5501a1
e1e27cb0
c67313f5
d942e9b5
b4058afd
9d04def8
4ede4b9f
0fafb85a
f8e55e9c
399c8a4e
381ac52b
2316e888
fd1f2734
5f0d2678
39db2ae8
b9c83be9
a155a2d3
24376fdc
56ad12b2
766e3737
e994f5ef
43244e7c
7da8cfd1
019a4ce7
4ac306df
07eb098b
889dc543
9d3e0c42
22386dc6
f06f7957
a417140d
7dfb49bc
d361ade9
d93bb01c
0aa3a960
ba75deed
e70c73e1
333c0cb6
50b7395a
444d5e25
41138adb
493aafb8
3f94b562
f8b133bf
2e708e1c
053725be
731149f7
7bb62fcf
b3687f05
ee6b3572
5287d403
f9bcb748
585cfb16
090bcf2d
1e901a6b
abc7ca78
5f8e07aa
dd131f42
803c9d6d
d90128d6
3fee2f93
271adac5
1de0cfdb
9fe7a294
1f592239
0dcfac5c
91d7e4a4
ddb0d13a
bd39beb1
e762b52c
e67fcc16
7f46292d
05f27f6c
22394ff1
9fa158ba
c8a6da83
fd0715f8
6f31e16e
e10b22b4
248e571c
bc7ec540
ac8c2e5a
71c609b2
11dd8a5f
e6db72c1
c9168784
a8c9ced2
b64b27a2
53b37731
90390b45
1f80545d
0f7ac0fe
e72ce130
703a9f8c
de56d446
b309ae96
3a7a9607
7424162f
4d7c3346
6b37f6ac
aa2fe87c
fcfc5c08
c5998931
f66348e6
9cfa0f94
ee03f0d7
1b605832
56773e26
ceea23b8
99f437bb
881bedad
b4e24bb8
05eedb83
70936531
f0afc931
1ed4c668
fe77a882
353a791d
2ba3a457
dcafe36a
cf387627
93c8013c
7f0296e5
bb9e094e
3b8fe84f
d7162b42
1e34b19b
ad083801
87360e57
92af9c13
4f867f8a
f9034749
e504e659
34715a3f
4db883af
302c90d8
01f2c8b4
18b876f2
8f12c326
011c3363
ee1d6044
76e1ae16
43b0a9b4
395c8e0f
0066a28a
3c49ca0b
35e6cc8b
029058f4
912c60bf
184e7b26
1c15d1ab
bbeee140
6f25f1e5
ba56b0d4
cf9fac69
680ff997
69c7600b
9c16a5c9
a0756c3e
391ba3c5
7a09e767
4920becb
f11ac871
a020887d
b543f501
b10d1958
53d01c26
013dcb33
088f9254
c95282b8
1b7ff3bd
8ba2bd1a
42f6dac9
ef206ff6
57539d3a
246c417f
1816824c
1ad82447
20b1772c
16157093
50100114
7a9c5d56
91231fa5
f21f7ba7
8262f55a
01aff515
c1b5e455
b5e19183
924b66d4
706651cc
6070822a
7525e896
6eb2bdfa
e3a0d4d4
adc73e9f
05febdd8
b78ae302
2b51669d
6dbcd035
2975c1e4
55684182
6d65e96a
352adcd3
b107bff2
9590c27f
9c36ad14
cd0165ed
f2724308
6c215c47
b6dd8070
f4809331
a9fb11eb
68ac6e31
a394e026
e6d1ac35
a4740dea
98e0285f
df207e96
c7b91640
f4925db0
5b25b23d
b6b0a024
b8ae3624
04e978b8
f0d7edc5
31e1a4c3
f4241141
b71aa7c2
91137e15
af024d9d
42f0cda8
6f72b853
a4fa1715
87ea7e99
57fcd700
aae6f78f
69cc0f90
376c6966
13c838da
33b81874
1aacd13c
345c7513
24c1263a
9777d073
d1e0565a
ef90a574
71e58732
edd2067d
7e9b834f
f82da15d
963430ae
d53501ce
fe6588f9
a23cebe9
200801c3
7bdb2e31
a0c41782
3f416f65
680ce92e
2164532d
d9f1b91d
7c30f5cb
3ada5bf3
1efd542e
5bcbba53
340844b5
afef1e46
c387b747
234eb6ee
a59942db
d186fe65
f20d3b7b
8b77ce8e
4588f689
0523b139
d81b23a7
97757271
27825906
267af9ae
b883970a
15c1391a
0cd353ea
7802044f
f143eeb5
c40aa642
ae874de4
6035c1ee
65a10c54
8534ba04
e00e1296
382a5e9f
562a1736
33c29b2d
a53034ed
1595aebd
c25d59c2
9c5f6994
91c69838
60717e32
d2009511
a7c318e8
e1dce13a
b1ed0a03
eb809c91
7c5f6cef
4bd6da36
7c68ebf8
7d087c99
6d766baf
57548401
a3a86372
2c0c7e53
1d296132
bb117465
7cab7042
8ed86f5a
a3a6814e
42986c30
9f3ac1d0
6e92636f
dbad5702
64fafe62
38539296
934dac21
20265700
f2eb2f49
1af84d25
b5c8d479
001c4234
e4bbe8e8
d07ecc1d
dd569c5f
8c07c356
88b995a0
e5e74c11
5aa07e83
a243911f
4129d6c3
42b0cac1
7f111c76
484cf470
210633b4
18b72726
ae22f082
3c431c06
529e5b9c
a0c7c7f0
e4df75ea
cb9ed376
155b8533
bb48a6f8
6f2151f7
8639dfd6
41d1b7b0
6c11bd26
32ba9f81
236f13c3
471ce8ec
d6d16edc
b1d2b85d
4193d36e
42241c00
5264ed35
57b8772e
3cb3130c
2574ed19
691ae3be
9f7d3ab2
107fc34d
4f80490d
7b0ebb1e
0e125697
66550c5e
30b4dcbc
1fb0db5c
c102263a
ab3749eb
627f8eb8
1c7f0e14
d51a67d3
14fdc2c9
22a201d5
9edc7935
d255b8de
629c26f9
9ab7bad0
222e6ac5
13b3bdae
780672ac
2980d76c
e1e06dbd
cb011123
b1d100c0
ef8a5bee
a16eb02c
a9a7b4db
5622cb96
185ebb29
9b55302a
1fc76e24
ade9c02e
55effcb2
02cc87d8
04a37bd4
0d49222a
c0fe918a
b7b80a7f
a50bec20
06e1eca0
ad405976
c1e0e62b
7174b47b
e4070111
93ef8389
b652f8af
2e95b108
3a9d42fa
c66a4246
c1706631
a4793dd6
34d13dbc
62020b49
5ee15960
d84d8220
5cf74da5
cb1b3071
936fc822
87955c5a
26c8e889
ce309861
4f896848
94610e11
f187dcbe
fa00212b
1814c7ee
289eb0b5
3bde6070
89220d09
3fdcf531
52f81203
30005b1f
4fa63ba4
1ffd5524
5cb028bb
8234ba8a
55beb0a0
dec83e12
1f513066
b96284d2
702d02bf
0df2b0d0
2131ee9b
b5f87461
fa851716
c2184399
f51ef497
fe4c3b3e
95148314
734f51ea
2aa4dbb7
f90279dc
3cd8d7e2
d191029c
cc9e79d3
b4b50b3c
4a7db0f0
d8d11d3f
f0daf785
84d89f75
96b018ab
3e2d512d
97a8a6e0
2675d8c1
64955713
f6530aeb
bafa0200
8c53dc92
dfe25231
8304744e
35b66883
32f887be
a4bca218
700b1d3b
a9e3ae05
ece541a1
77d438ef
2a4a052d
854f69c2
59a05600
3bca393e
8a26a6e8
e7ee2104
fc06e744
91f8d565
80b20bcf
930fd2df
18d82c72
2ee784ab
aeaa9d2c
37678fbd
9881d2da
08a7a0a2
974677a3
98f70952
c4365888
e841ab91
817c8362
a5f19b9c
fbaac7ed
64bd88fd
44a1ab0e
d0c7c743
1ab9b621
3903e904
3d470bcd
2c0b2a1c
0e8c5ded
3b0faba8
ad93d4b4
4d5dc8fc
001582b5
9509a63f
bad3e741
2fe766bd
6819158c
9e49000f
9f83f193
ec1a2f5d
abc77ad9
13c07dd0
f384d099
861f6540
ac8ffd37
a9a11b04
466b31e4
bb99b34a
a17d5c41
3b42a7da
eb1bfed1
b7b642b6
2d42bc47
86bf1466
3237b366
abebc1b4
ea2501bf
899d628a
ecbe18f8
19ef433d
d07b99f3
482cbd00
bceb0131
d7465d7c
a1a259c2
64aecc93
8403ad90
dc821a36
d5e88285
19cdaf0b
af820556
5e92befc
8d43f0bc
6c93eb00
b858caef
5ae062b6
14f290fc
60897d89
ba41a6d1
a2357ded
7c8c296d
c33a4526
9011b3c6
2aa16076
ced5f701
582be274
2bf65287
00f0ebf8
3748119d
97d6e401
6970380d
d10365f8
8dd80ad0
7a9cb81b
bbe86edf
25f98fa1
c9729880
72ae3e2b
48152025
2cc9e713
7ab4a280
7b3d12ae
fded0828
578d1218
17792264
70a78e8d
b130a8da
8de224a4
9adee6b9
8a3f33c8
485b5f41
3242b562
56613e41
6eba3f4c
1a5d8c6b
b51d3c0e
76999de2
8c0e6683
d915e8d7
ad149707
2fa14311
e4ddb7be
bc431409
aeab731f
4582c419
662402ec
f98fee6b
16a0f96c
2428294c
ae14a5bf
4730b5d3
7eb2777e
b100e420
4cfddb6a
64ab6963
f3c3c010
5500c589
8b5029c9
153466cf
594e747e
ddd0b61b
7a386765
e070ada1
33409cd6
c079d8b9
80f65220
48d7ced5
a37267f4
654dcbdc
de8d506d
107b21db
845eb94e
fa2019c7
3ce6cd67
c90ee173
d300fcea
3964e830
573e1129
3a641f97
1dee0f89
3fc1f983
8f3aa9d2
d1e997a2
5e2ba897
b9295480
c981b6ba
7bc8b3e9
1e38788c
57963b40
4fa4a160
1ac591bb
ce19b810
aa2f0043
168203b9
8fcd2a60
4b4ca590
a9371248
e2a6f683
afcd860b
a8c1402d
361d3148
33f215e2
cd127ae9
b3117d01
f9853a04
57f98a03
539a2a61
fb0d924f
c6d23334
c524a803
0fe0b5a2
28ea3adc
a5a5d66d
27a25eb4
5760adc1
8b48bcbb
c6078700
5c715aa2
331d40e8
243905fc
f49715a4
5642af27
b74cdc07
dbb03036
1bac62b1
666d9b37
320d3a55
0250cc2a
b574b692
b3118a4e
45937dad
c9ec33a6
bf7c017e
5a476bd7
24bce090
8d360e24
3a88f734
5776cdcf
f1c55bb4
28452e04
4031d23b
8cde5a2f
4a84d262
a6e219de
5f6a6ac4
feb19638
60ca8eb7
3b3b4196
13528636
67734b12
60a3760e
ee4e5960
ec80a0e3
9ab4f9e4
c4699af2
fc7ac989
93df9b61
ee4b05eb
faa7b8be
9b7ff701
79026937
64324b53
5d383f56
8bd92160
6eb3b803
cf1d3ae6
1451eac6
1395be0b
06fef4cc
26a6758d
1773fdef
83326c62
e2688703
0a6b814b
adb95def
35130cdf
d93c2993
2c895c93
c53956ac
0ceb6d2d
1236a54d
c752f9c4
4d61ae2f
6cbdeb07
665c9ace
665028a9
0102229d
eb79b765
159323e7
87311184
bfef81a4
4056959f
338eabcd
8b1c52cd
9f024cc1
f459500c
884a128a
0bfeb8c7
87221bd5
170386ca
5d80d935
84dd5797
ee048025
6de5e5e1
af278543
c2b51e7a
5e963080
0696bd25
388b3043
f2fecb21
774f22a4
8203e86a
95b1ebd1
a4094cd7
42824779
d270e473
f179d0ae
08843a5a
a73e2b58
c25fe6ec
9b97cde4
1a02eb0e
f218aa8c
118a637d
e67548dd
1ba91833
99446b64
00b56905
77b4943a
ecdce8c3
eb7ac986
c678b9d0
a36c09e7
376ce5c2
152f9d1c
25e585dc
14b41fab
35263762
86105b01
0239024b
c8b3cf42
af1b466a
fa541413
dc9fea0c
97e846a6
94f252f9
6be09ec5
2e2e9331
d5ef6ae5
f961a1e0
aecf6fa9
b9e72ae6
373336cd
3862cbef
f92764b6
9e5662fb
b91ec32c
a4ee6088
698ae1b2
f93fa74f
24d95b80
efc65a55
efc0ec80
8e39e2e9
17ef9595
3ea467dc
5be13c62
1d289eea
6a7029b3
c64b3fc7
2092a4f9
ebc89678
999625f6
2ee3623d
415d99c2
8c007d11
b0bf4a8e
14cc4af9
7688e56c
8c4cdb87
e9d1ca72
074ef25f
a0c89ac9
3295b101
699c7c72
e8955ff4
97921b71
7faa6b59
c3f3b285
3d1c3ccf
73c0fee4
c39c1c43
58480459
52d3cb13
16a493b9
353331fd
4ae3c41f
41e676c7
d2e605a9
a328a883
f9f9498e
ca876efb
6127d56a
2e477aec
cabde484
8111fbec
57d7d412
4fd33898
c6669785
7837f198
f1e0fbfd
d9442f5f
16b99fd5
8059b8b0
9aafbfb8
582f19e6
2144e4e3
1b1a581b
2bc2a7fd
dacdf26f
d549cf58
2d556d16
c3cd6e18
cf3de364
1f954ea8
2f5cad9a
face4f0c
be534cbf
4d112765
e820ebe7
a7f6c18b
e828ab93
17a5ef7e
2c0b9747
0656355e
88df6234
6c2b297e
f1958bda
abe134dd
dd11d3a3
9376671e
5f710aa2
be802064
1c0f6ddd
cf4e8f96
3b5bac84
7f70cc87
511f0328
6ae8b137
ef5c81b2
c798efd6
2ea16d48
85051fb5
16eb92f0
faef3532
cbe21b06
119f2b83
24b7c90f
8f4aca97
8a3c867a
9429232d
b1aece8f
e451115d
302959bc
c87c4992
97c57607
dc038f6d
4c76d03d
ad14f618
e8fa24b0
de4dee90
8bf602a2
14ca02b8
4edff4b5
81fbd976
c7615f4c
b18db63f
dc5c0629
aea445d6
2293a13c
e283571d
58ca0e2c
1c2304b2
2b12105c
743c0411
d8c2b110
0802b978
0a8e8995
40450fda
3d2452c9
1aea3cca
a4f98ec9
8a3f16f2
7732ce69
79335c14
65dfdf4b
34af0115
13ae5f13
8cd72532
c7b01775
9e210d2f
3607e552
4e74e44d
295061d4
7155fdd4
30730a2c
12891268
ec69e72e
238efd5c
e130244a
efcdc638
95955eb8
d184f6d8
fba19c9f
e80b658b
5092c886
31fce143
f933f75c
50e3ba8a
b8253179
bc55a6d3
085a2b16
b440b602
44689865
e6ab5ac0
87105289
9046843d
4c42b04e
dd0a58f0
836a2bcf
bcb63494
b9811ba4
2078de0e
4a031f38
3cf98b85
09fcb510
97adda01
5dd5e8bb
724c854a
5e909674
c63ba53e
62c5f079
e1e6abb0
9c5ff60a
8d2b95c9
c0bbdb35
84c7a481
ad6dccb1
d3c1906b
c3079f2d
72dfe485
c2d434c6
df0e8f1d
1cd622e3
518c3801
8b84a934
a0db1955
a8457f85
2fa06cdb
da180540
6b2107c5
ac74bca2
da4f8b0f
3cd3a353
c984f7d8
884b8f7c
ef77e445
797b3e9b
d1a79373
9c542eef
05130bd7
71f97ba3
08f85026
ca7e4431
4073bb0c
540f102f
f80ca384
1b68758d
9734b872
5c0e4aad
bc776e74
7c52afbd
0fd10c6d
b3785031
3da3a453
c7e2778b
792f82d1
306fa6c4
d406879b
92b5f318
012ef3f0
4341b167
f0c60d77
1de94a4f
8be31a75
f5f506fa
382d4872
c28db0cd
f4714add
71bb8594
45ab1c8a
482395b9
f731b3bd
ee6d81fa
31432788
e720c054
4670986d
114a4cd5
9458bf50
073b6da5
36348313
8ce30a40
de4d0f8a
267cf798
5026a822
7ca40688
c62bc0c4
b3ae7685
f62edfc8
7775efb9
e84f599d
a4c1670b
b400ad46
81ea3380
5af23101
c2eacbec
430f23ac
d3dcee40
b6eedfbf
fb6a22b5
b62a5d06
2580e931
9f55646a
74153165
3cbc32a7
5546b546
81f13603
a398f3f6
e0e93136
0295ee00
e1369ea1
dbde2779
ec983f15
26703ebc
1ac67287
f2c53c78
00045279
9bd2a4c7
c4f46992
7346c63b
d9c51299
60579f8c
656e368b
81c5a1e7
f871d875
e638c49f
9a0cc907
c2240db4
c2a92468
df6cec17
129e62ed
d901312a
6b1c37ea
71558894
629cf4c0
31cec2a0
32ac16f9
6289fa24
a3f92c8c
945c5ba0
555c89c6
31bb5ab4
f88231c3
5b061f58
44d81714
c5404da6
a0490380
42147e99
4ea72b8c
8e04d4a8
1060089c
885e74b0
289b583a
62382e2b
570b00f0
7253d4f9
1c3c770d
c3f298fa
730c575d
ba725a2b
60bb0205
0c291897
b5c0d29a
c6018dad
85feae98
cc0d48d9
5b0855c7
e853ab12
686750cb
2cfb6543
39fecb1e
cf4c0150
199fb66d
5d90c6be
45aaa797
b7a67733
b4c9e6cd
176bcbd0
d2b80550
74bc36bd
1a5f9843
99befede
3388733b
0fa5c1b5
4634ea0d
9ba3195a
1e322b78
fe28fae8
c7bfed6c
a412f483
decf28b0
a7797649
99ed8a82
2762bb6a
1a2d44cb
a1eb2fe8
01e1c990
65103ebc
30042ac7
1f2aa042
51341124
0e5bf960
7c4d97b9
1d9b0a06
b215eeb1
848c5818
e337fbb5
074bb602
4883900f
451f2ee7
afad285c
419ddafc
90c60287
716710de
b7c04a78
a85acd61
4c2a1eef
b698489b
c3731ac0
e7183730
6de2fb56
fe6a3c07
fad0e443
2d6f8c10
f7aa95f2
25430e80
7f9f2a77
c7364873
92ee24d7
69b2647f
6f751e55
5d46a540
f509d9ae
c0d84585
194e18ca
990e8d6a
121ece89
e7556987
01ab1ca2
0322923a
26b6129a
4023858a
0ce0f208
d3347d63
ddb1a881
40cdca1e
04e37deb
9f52a3ca
5002285e
a29e7e69
5d964eef
abf84ca4
3e772b6c
d823ec93
83b787dc
8f1b222d
965564cd
eded73b3
4101334f
09750457
371d51d9
f076f5f6
db329247
1e1a2d23
3e5fae91
5de2b3a2
427f6682
c5542d71
2f3e56df
79d26bf7
d680d549
232d02b6
ec4a5f67
bd6a4421
9eaf6a98
e5596c59
00b20f06
4345abc1
3076712c
325fb190
381c834d
4253d9df
1041340b
abae45dd
63baad3d
b3787664
b9831457
c0295725
4c88bd6c
de963365
8f971d28
a7116973
7d854684
d52200d1
7d28dab9
b7b71f51
23dc27d0
8157e84a
4c2bebc9
01da1419
e2f6d621
f9951af0
dd020728
2b1784b3
72c946d3
82f460d6
bc46353a
170c5789
3f7d3189
9122ab6e
780fe3d5
c8c5ddd8
16128f59
808eb759
14a4d323
62213abb
a03e9247
cfabe0ca
2617bbc7
b6c0637b
81ed8cb9
2dcdc00b
69b11489
7466731e
9a1b6224
ed416b36
02c62338
5e1be4ac
788c4d03
1f5391bc
a0bc9972
f6dd32c9
a41e645e
bf473042
c1d65dae
e38b453d
d1fd0e65
0b6d5aef
b7964857
8a64b903
8898a2af
90f0d31b
3ee05343
7c47ca82
796629ce
3b3a1205
c27cb5c3
67d99f36
4c0aa303
4322b6d8
be44a0b1
9524287d
77f2694d
1c75aa29
9d970529
ef9432b1
28ccf9a8
6c7afbca
1f4e1d67
c28b2f55
df03539e
03803f42
41e037fb
002eab69
b666f265
6d672b3b
ab0923d2
de668496
f9ccedd3
d04cb9b1
df869675
0d7ff717
8d42295a
31e4094c
8f0699f0
09aed9c6
e1b6fb67
7381e2f2
2bdae2f1
f62696bd
2e059867
c5a0a7b1
51828369
2acf21ef
59b2b63d
4a05cb4b
754dbcef
f67c07c3
0836368e
42bdc30e
0e63e7dd
13cc5700
02ed0204
3bfab46d
63a29ff1
de228ae4
ab714465
42ce2d65
f498581d
ec0470d6
67492eb7
7994a37e
b78728d9
6c8fd83d
a5962ba0
4abfc064
f6041b0f
52a654a4
775f7df7
8e655c5f
38ba2ac7
a7c5c9d3
cc8f7c08
61482237
1196f197
c1693aa2
6bf91f90
43775316
4ff82a0e
56999cde
47db1fe3
f7eacb9e
fc5bfc57
c7c18b82
12eb16fa
b862ca80
8aec4deb
ce4493b9
38892e2f
24260331
3ad0f4d7
5e7b4853
0a14cd54
a75f5867
ec3af283
c5bd9642
209169b8
aca3972e
d494d209
077c38b8
b201f4e9
681c06ab
0fe5a276
97f5797e
a8f3a7a6
37afba82
cd271d7a
a991d316
410e31db
e61ffa63
597ed546
84406a4d
ba1b96ae
a409650f
b48e4805
eee4233a
97941217
cfd5c09a
f7747054
3fb13ec1
715941f5
c958d641
54a8f371
9035e88e
319c1766
f6baac64
862690f2
3e80ea1c
f2a281d8
1d788ae9
91abc4ec
cb0ac5e6
458f3a20
898f37fc
4bee7961
c8eb7a2a
d11c1ddb
93256d50
9a9955da
49774f9a
2b0fe69e
b21b8d4f
7a5a8868
c36dea48
f49fd00e
2be84e61
350ff648
0bfe1bc6
037ea6da
73c93185
e209c890
282051cf
35758bd1
ba6825fe
52356d98
2919a1c9
de5901b0
eb65e4a6
18ce3ed8
4e7af740
d84f4b5a
155606b6
4dbd437c
6459291c
f4871910
6b26c473
07dd420b
f1624bae
88193499
fadf3f9b
fd01aa7d
76797fc9
eb3c2325
b23ee62c
e3c027a9
1d1b4422
e9568b67
02bdf627
e6a17c6d
6a579404
ac95ae22
f1eba714
88367db2
ca57c187
9ed351b1
c0756ce8
fb18f5bc
3fd8b3c4
a3c726e3
24364e38
fe81cfc7
d2b39aa1
59b7bafe
d63009e0
55621df1
aebb5761
f7b333c4
327e4852
ddd5333c
d3e9c939
9c38dcbd
0753eee5
0b4e3730
f683a0e4
cf8c978e
a16b73b6
992eaad8
d00c76bd
ab2e080a
e639ab71
f63b9859
786e0732
76d5572b
deda3dc1
c4833cdf
16fce94a
e77b6efd
5162861f
fafc1699
68f9be62
1c7975b1
801ceb70
c2eb93b0
35faf8eb
674f783d
0ef98892
04e007f0
c25ba801
470bf8d9
e4eb45f0
b55d007b
4132d7b1
8c5e65a2
75825a57
c0ad9127
f0b08a08
b20169f7
e030e585
495b14ee
bb7b7a68
344e99bc
6a15b0e3
d2243c2d
0198ce2f
6106fbc9
10fa7f1d
3bfc691c
4277c0c7
cf66c3bd
f0ba0797
f9e4be5e
4d8ff5ec
661caa8e
1f6f453b
5d9a5086
6710e40f
e8c461e3
dbe3516f
a159dce8
f833ef0d
80abbf67
108d334b
14bba812
c0fee26b
84465a0c
49b7d02e
dbadd98a
f16eec52
3c27a02c
8caeddbb
368ea1d9
ef5a7b99
efacb23b
33e9d517
a146d765
fa6559c9
352749ba
1c12a71b
d5276b41
9c539572
1c9a70b8
74e2e217
7f15826c
e04b6173
53a51568
3551e254
665e8a4b
bec2d1bc
7f7d4a40
2c70937b
533b435a
cb5c959f
117679c3
976a55dd
12ea252f
f06ad5df
e7a7efe7
f311f868
612605bc
10ed1191
7d85871c
5c9de29a
90b2f955
16bc727d
06a25f4d
3d8b376a
1a4b7f94
e46065a8
e50804d6
b3ebeb6f
3db8295a
2c4c971e
8eda0da7
df68f22f
602ee88a
c4653ab3
6960eb86
32e3e81b
e76fb30b
9564d3f8
5b7f97a0
bb3f1cdb
5ea04996
3e6f06da
26a5087e
f4778dfe
3820800e
b068e2e5
b92ed4f3
b2995c68
a90ff9bd
57980c92
bfbee055
9f385b91
dd159c0b
425b13e1
749d15f9
1e244881
0d00f5e5
d9ca500c
40c4e55e
9207211c
32b6f621
716bc029
4856b431
50e977e4
2ef7162d
b6f0533c
4c82e274
4b16a2c2
ace1e56b
3ff11a15
1a0d099b
a29a95c8
c89aa15e
aa7b4df3
a9071ace
df82e7d9
4c1b3311
d2976e95
37b09581
358092d5
f323fb22
30a462cc
1b0de872
d18e6d87
a5535dcf
43225715
9a42667d
8a0e7716
d538b755
e6b60613
f4bd671b
14165c56
6c08a940
74300f58
faa92c15
64e28931
3f7f5b04
d0fb024e
89d40ea0
ab47be6d
135ab733
887e5052
bfb76198
085724d5
10bbaa1a
bfb732f4
e4f64905
0c5efb73
174d5546
23160afd
052f476e
2e5af795
27b24d35
1d172e5d
52f5d0b2
0cab8696
cac2dee1
b58848d4
d339480f
f0b50001
ec7a2149
50021c5d
c5c2d7b6
6ca7864a
db4ef3f0
e466977a
f6628871
cf897344
b8a8ef0e
ae7bde8a
847c98a6
65960be5
255d7d90
2e42a872
62f28bab
bce68a40
813d0fda
81067252
5124e4de
32429932
77da3d0a
11078e2f
5e0bd13d
a5119961
bb723c15
a7e61920
37b57785
c4e2ec76
feed6df8
2750676f
bf3af2b7
3d92c389
30bf157f
94bbeaab
1c27c0d0
f971a139
1b3a4ccc
d993a325
477fa412
2275eb58
da310928
fab9dd9c
5fca69ed
9c35614c
b60b0756
a234f2ea
c5bc2d3d
a6a7533c
a5c0008d
c0a07909
5d5375f4
06cc529e
551b3ebf
8b2b2c7a
f03a0242
7fcf37da
16c33f5e
de2bb8d5
561b12b1
7e7ec64b
c969b4a9
71bbbcc7
1438087b
1ab19f8d
d75247d1
65b20350
7855d6c2
40fece39
b90fa51a
92f76f52
cf6e4cf2
f771649f
41fda72f
00c48a33
271bdd64
24a74512
f45d3916
b7ae7067
b9610c8a
a884b19c
3589a637
d68d9370
65f71bad
aa2b2b22
9f44b306
835a1def
2abbc9d2
ada482d1
e5efb8dc
dcac0f6f
a79b6cc6
d12db632
1e8be956
8dc2276e
7bae414b
ceac7778
d2b5cdba
00b87617
dd8a8a9a
034a9133
b1847140
0ae8d702
01f7b4d1
9bea01b3
70f108d5
7f945089
0f53596c
e4fa3ff2
971c8f12
c3789a05
c1830b7f
631d4811
929d0d94
62eaaf36
b851adbf
654933da
f77fdc56
e7dea4ad
a97f4817
cfe2220c
a2c4c331
24316d19
7c48413d
b87b5a5f
6973180e
d4589975
02a2ad0c
1bfc95e1
6ba3021b
8e0fdfd1
066a7b2b
d551833e
e42d2fe5
19c3a820
147d107d
e33a08e4
8eddd9fc
0989eb9e
1d37b83d
4e9eae0a
f44c9249
3b3b3b3a
ac30cbb7
f9ce25b4
5e07fda8
1f4c02f3
6153b753
6eb36d60
08809c61
a58ee634
fcb571e3
55d2bca9
0d6fbc06
0ed99111
09e94311
18588832
f896273c
5587409b
abf66b63
5a46d85c
e303fafe
664d8a65
c4b5318b
a3061f53
4ad29964
8270d0fb
b337de48
f2db247e
f597bbbb
14786407
151ac6cc
57ddeaf3
4d98318f
46616206
31834e52
82d35796
79ab060b
2b935dc5
9d985964
e218760b
2df964cc
37099d09
c6c82d46
b7d336f2
517a2c5d
0270bf65
096ba4da
6f276a99
f3d17d9b
4f14c4b5
d58eb5df
ded1d730
020130da
53c2146c
b435de28
28bd58a4
375d1d38
adc9e3da
643591b5
af2f4f60
5cee9779
703a0993
d058e46e
07ee8a6c
02d91677
a062f69a
4d6cb5d2
7383c76b
e2b7028d
eefa8cbc
5bbe653c
8703786e
3eacb73c
0cb31755
e79b03f0
20daf4ac
f30e13c2
211dd347
5def4fb0
3e572e15
4f7a6290
e4a40aec
ee6e2cf8
34356985
97776811
75fcec91
497fc090
5ebadbae
23b77621
51eae7b0
185c2caa
15bdf3b2
cf207b91
802b904d
30b49ad1
95011720
3e276ae5
ba1c9571
85c17209
8e7e3e60
a457f4ad
2bf027ed
6606d70b
fc9ec89e
1927c2d9
33346db6
62698c80
9a0d44b7
d87e8a51
14995278
d8d6eb95
2dd0eec1
b78be8a7
eecb0b80
871dae2b
480b5ee1
b0a15725
73556980
a5c5a374
c7b0489e
102e5bf0
16af8be1
6a9505c2
c418c0a1
1f901761
cf5c2581
95cf2949
85c2124e
d54e31e0
a6858ff9
3218bd45
a15d807b
067b78fa
90c614fe
6c13ad53
a742eaaf
1f6430f1
89d59929
c1ccda02
ca28cb26
16bf28eb
8d288d5d
c1583d77
3e34ad35
682f81cd
fa06c1e8
259de13b
3ccda5c6
ab9acc6f
a1ebf749
4f87769f
82dec8fc
c1707e26
67f613b8
2a134e46
56252c14
9b2d6525
b6de7f24
09e5374e
59c8f533
52465b6e
989a7445
1f117233
c2706566
22564cbe
2b386cea
afb538ce
d5f1092d
e811dde0
572f0410
0cf180f6
51007da0
876e292b
85197a18
9231bc2e
8d966de9
d811c5db
305845cb
c2eefb28
df907575
9a8fc668
cb3fe56f
8ce58878
60e6daad
67a28abb
d3bb26dd
7bb76ae7
185ef6c9
0fc59919
66b10d3b
3c6b31df
637c416f
44955c90
a90d25f8
a0e028ec
1e5c82ac
51b8ad04
571c1193
a8e52d43
f1ea9e0e
9022fdf5
d6a224aa
de01ed6b
1115a4e4
cbb7f001
511be1f3
4a53eff4
0630301c
02b49b76
66b8a23f
ec9c68bb
4a8da6aa
53d5b9b7
8753af71
bb206b01
9cbec7ba
77528a01
a2b8b7f2
a6e17592
d0c0927a
7e264ff9
bc9abe8e
8858ecef
1997ed6d
6b10bd5a
609c60e5
56b487a7
641369a2
aa54643b
d78ca7b5
bdd55be7
eb0c4069
fb1b5b2c
468929db
aaa2b0a3
7975d565
f7bc1c56
bf13de6c
d80a4326
4e9b0ba2
1fc15256
f21a7b92
c330819c
c7f68cd8
398018b3
0022ec27
172087d2
791010a3
993b9efb
691b89a0
db2c8972
1b02202f
ce0504fc
2f857686
7b9f2a8b
9c777f66
2bd070fd
521be8b1
dfe46a6b
51c504e8
012a267c
6428d3b0
7c0562e8
bc168e99
630be27b
d63e509d
a8e981c8
e9bd41a9
a34a3898
734d877b
88217487
1717c37a
65a90d51
565587e9
f79bcb1e
4b0e6791
f18d2148
1efaa0a7
40fbba3c
a2e443a4
7be8d527
236228e8
5a6576a9
64860977
3efa726b
60722f9d
e8e80df1
db9d48fb
31b6b0aa
0920cc8c
7e455a96
c8465933
1a6b5d6c
59351fb3
94347f68
fe08c2de
d30baab3
74e059fd
63e5185c
a43369fe
37ec3216
79a69047
9103d4c2
bd1216fa
2a0a2ba7
12fa25fa
d8a6a768
1e1ff65b
3fc7ba16
bb52b49e
0bf29b7c
23ba949d
8e97a012
5b7baa47
bd5b27fd
5e918a07
a6232e2a
b5da6b0f
5e88b898
2495e9b9
6ac13ed0
a4fa9cf3
e0c70f3e
38d0ce1d
8beada20
949aa49a
33bfd1c8
c3cdf0fe
88e5f71c
759c7294
ade4a6a6
9188dd4a
a78a87f3
8d984384
449238bc
64e92dd7
dd10b09c
0f963a30
a77cce4e
ce67df7f
fb612896
2e3c67b4
78f8ccf1
1db36333
47ea7f6f
fe6cc18d
2b8f1d4e
b79a0bda
84d94167
b2130f35
25aa4089
1be2ed67
eb4d19e4
4f4d7e90
0772cc9d
7bfd3b76
e39e400f
d0f5d2a2
f8f33fc5
f1948298
0a431262
e5886290
2bea0414
2f6ec429
11dfd418
d8329f77
a1f56799
57c090d4
ebd8076c
04af6794
ab5bd84f
fbfeac9f
c0c6d870
9bfa26ab
2dcd6af7
1ea7cf3f
8ecf587b
152504e3
f0d6b012
fa54fd3c
e6f58a34
4f570507
0e72cd41
11c6643f
3bcaea3b
629fa3e3
1ce1e0c1
606f8917
4efbce18
90e2dca6
eca1dea6
107f2b08
cedbe874
376b969b
f1dd807e
5d9382a8
23a02c89
e1e8cbe3
aff6464c
f35ce27f
d618ba85
1a782b14
7585ba23
45b8bec3
cae677e1
f114dca4
ceb78b05
28cb183a
ad8de1bb
68b1935c
839b5e27
690f9348
4085f548
b0c55fde
9751183e
2d875d97
724b3842
4db2cfa0
0cbe3e89
6f51610d
b5552744
9000ec62
6c2a0fc9
25a4c957
0488e985
2ed0f42b
837297b1
60aa8f17
f9243253
0d680289
404b2703
8b8856ba
354fe83f
19c19546
ed6c3618
86b38ced
54e6fc97
059cb7fb
9897bf8c
a6959e0f
29fd15f6
b4c3c63b
75f729a6
aeed483f
3dac0ca6
8ea6a491
16a90792
2e55e4b5
94c17af5
474ba69f
dc78e45a
9d7e9c0d
8bc0a800
487ab955
c4cbf09e
8d2f6f6c
c4eb06a2
a25ccee7
f1397c35
f62c248d
4ba3637a
4537f90a
78ce6901
0a0609d1
1508fce3
6666272a
fda35b59
555d3224
f95d40dc
e92f79d9
72c2ca92
7b93170a
bacbb95d
44897a6d
89f9c8d3
66d60861
82f18c76
62e77d17
f24b0bce
460fb83b
7fd00723
3d94124a
35391158
0f80a924
aafb81ca
a5a6a2e2
8449eca9
b3598e9f
448ad869
f89a9194
3e5dfd17
a7cd8f5f
f00b211b
22325664
0a879106
7b7cbc3e
523fa223
38336db7
f0fb1073
87bec6a9
48bd9a97
55c38fa1
d88fdf39
5dcb4e7c
37be1396
aa7cab96
f894a8d7
56690a96
ac19f3a5
9030e259
8ca68e2a
e1caafbd
ca2cfab5
2813051f
56a1c21e
3e16ad3b
4da30994
39773e97
ce77be5e
62e3fac1
a78e88da
0acf9d11
61e37ddb
61662df8
4ab4cf5a
2d1822af
9c73fe70
b97b8750
5ea51efe
a3709ef5
c14f291f
c1e26c91
70b6def6
78430869
c93c1c9e
004fc951
4e1ff248
7eeae8cd
57a5b8fb
5da65e23
bf5b2ff0
cd8b9440
a0f974d3
028014d4
3d87d81e
3a738557
a720e0ba
12cfdf0a
769374f5
4219ee65
a42171b7
ca5054ba
47ee03d7
384268ad
b5ef8f21
6db2396f
c4c8482a
82dee428
7682f115
82760042
663ca933
83c5da76
6c747590
51a62d72
df91e8e6
497a2b76
8cf9c26c
51a80111
07370134
af4f4301
ecb65d2a
14d1c207
c0869fe6
f1b4480c
1096e02e
cdf413d3
81caaf25
2a4e316f
1c5657e9
8fcbe68b
baf18dba
53e899ac
3ed67e64
003c272b
8e61fc35
8fc6b900
dfa52335
0db3366a
b35ec687
23681e8d
1501f477
fe52bdf0
c9e54553
efe77308
9a249e0f
89915302
4849fb97
573d357b
558f2725
dff34e34
49ed8ae2
e93df252
75b30707
6438cd32
9b5a6886
1874004a
76ec6f4f
055fb2c2
b57aa16b
800a7193
73dddee5
182aa5d3
da527dec
a95d6dd5
28be94c8
69783580
880b3dbb
0e8807b2
c37021cb
02423469
5521f133
f765ab01
4a1440f0
8d577824
a0ce08e8
9ca27766
6c0550f5
afa48083
b10b17d1
12bfdf85
3969430f
6b16c669
de2e345d
93196986
c8566c86
f7fc4de9
d9171635
2bec71ac
bc60b687
4396e0f6
b74dfc2d
3b7c233f
50b89b78
ec62091c
e7cebb97
f42b3010
9caa08e8
2c25e8ac
75c2d4f5
fb100c59
7f1f1368
3534e2ae
82ac868c
6b13df5d
c3bba05d
3e99e494
8335290f
a51a80f2
4a208612
8d58b841
2423da60
962d9115
9eb63e39
4bb46d9e
24b0ba6e
ed9e7f5d
653eed10
9be54cd3
0f68e639
24f21500
644a8832
a09cc034
7a5575d9
5c4dc6eb
68ed20f2
9f311c67
189f7fd8
dffd4e0f
7d6f0742
861529c7
5689614b
5fc540d3
757cd5c4
f61c8294
8d79612e
ce3a2c97
982b64b7
22e9002e
99d66f0c
edd8b195
4e78827a
28976624
59382fd5
c697abbd
ed047e3a
f39d2f46
5fb49d03
5fae532f
bf3f1bc1
ed4a9bc0
18119d2e
fd8453e5
4f4352b1
d4436c39
0f81f7b4
54b95a83
58142526
1fbbe2fb
678cae9c
bab5785a
a39350a6
8d41ad20
1ccbfe9b
cf21f9b1
7dd84078
6fdceb6c
993c8b62
0745f11b
97eae260
30f1b5f2
63f2f2ef
6e4ebd4c
7fda7712
e2690a05
cdf05125
12436042
11d6bac3
03400efa
0992d233
92bad299
d8d44814
84f6adc9
53199d6c
dab66b96
a2ea8001
7fb5264f
f2135edd
ed715eca
334b4a61
a75435e7
2f306dc5
ee4a049e
0ad1bd2a
f75a5d18
2b086cce
69ec3f84
469f27d1
36c4d97c
739a6bc8
388b0d1d
cbc392aa
57804b54
57ed567c
cb5beec4
8900d206
b0df9997
1fafaecd
b92cdbcc
2ef5feb2
5aa9e77a
a8c6487d
ef4f270d
e0502f16
f2682934
4149a8f4
ce62acce
c38c1866
2af762e7
9dbf3361
78c706ac
6f07aacd
14d02350
256aa349
b106fe60
c1a35bba
1536f8ee
c00b3c18
0d657cb7
30b8d461
318bae84
311808cb
3eade4f3
80c78520
4645cf62
20b8b0ab
f721276a
a64c834e
2554db34
d4f7832a
6498c142
598b963d
03d3193c
f2c7adec
4d32d5d0
efac9546
10e391f1
44d712ad
5c15f649
91bed849
32e11afd
42f520c8
b102b75c
0c7758d1
26811a8c
8f63f8e3
89a98468
2c34dca4
92738cf0
c703817c
8fd50497
5045279b
a059e70a
1d6d3a98
0eb971d6
5c91acd8
89126d6f
2e81b33c
7233bab7
710d1b38
147c6bd1
cbbd7334
fd4c0f14
2bbd2074
b84cd65f
5ae39801
9ac38886
4daeebca
b9429bbe
1e11480f
16139e46
0f22d9c1
a06d1353
906a6c00
4f266f4f
c09f0f0d
a84396c8
64e155a4
bf394881
09e4b455
229eb30e
b7412b8e
e9b7cd7d
4f99d597
8526ac4e
219f461a
5e4603bf
cc919ac9
e7b526f5
93dfd71b
ad35a74e
c95a56f4
8a3c1e63
ac87eb79
a49d3ff4
9cb60558
e7c37008
70a1cb3e
c768ea85
c136ad22
7dfe048d
0f3d534e
e6a7a506
70f17548
bca7748e
47152250
6be6db8f
faf1ecd8
ce88d0ab
851288f1
7ba28b2e
7394b3cc
2d4ba149
6fd8559e
21a53b02
c05980ce
b5389545
58cb7eaf
21a4b64d
099399bb
c7bfc64f
25195ab1
f2c0ca09
90fcac6a
e158e824
d7bac0ed
a7f71ca6
bdcbf723
7eb5cd0e
8e8ee343
0b973da4
c814780c
49244c32
3afcc7e8
593a3e2d
90464a90
11c32b38
7fbbe1a8
1e72c69a
b0b291a0
922978a2
0cd15cbf
70a2fea3
c996bd56
4783bf7b
043439f6
0ec171b1
f9ce10ad
506f31a5
57df4531
045ab75c
8a949f8a
91937ae1
6c7c8234
9bc8092a
a758f359
2532c87c
47cc2471
f054bc9b
decaea44
4a4e4f32
08da4840
1c82834e
76925f3d
6f031758
22aac05c
eef6c3ca
f4f345a4
9d0e5474
f5292f85
6182f3fd
4ec688c1
1460e312
9e4bfd30
e4aa5a21
3e08c7e0
a44ca69a
6907ac7e
04a19678
c1dc5b68
1a2ea28a
e5c2063d
25b87a8d
953df65c
78868e34
2b217abb
accad708
efcce9f9
d928e05c
792333be
5945b1c9
e1b1733e
95baf44e
b6a8051a
42aa3fd1
1095e0d2
137883b2
d97b01c6
8ab23215
e3929956
7f2e124c
1988798e
2481d8f7
5b9ab2aa
67cdac43
b0d873cd
fb82b071
3bcd9691
73931311
23d17e5e
29b1d294
cccd8670
3e71dc38
ac46b128
7a103cb8
c58ea0c2
b64187df
3a87ab05
2bbc69a7
4e3cd72f
6f3dfdf3
a0798719
7b346b27
eb98ad1c
e0ed5c3f
dee738a1
43b66d10
05b9a46d
10b24746
fbc31b86
f2637cdc
da445c06
e462a831
76e1af68
38dbe4bb
9147bed1
aa8fabcf
3e1ed99d
a28c7a9e
3b6b9264
b73c0e21
0cc39580
0d0d253a
e49b14f7
4c40b3ee
4657508b
c8290c20
01da7e84
cfce37cb
b2d407ba
584b844d
9155bfe7
bb9b7136
6565908e
3c670330
74e40280
e05d7e47
f49d717b
a88e784a
406743fe
103316c2
dfc457c4
baf34a81
bf68cef5
a15382f6
e6f9405e
51c4d6f7
c706509d
bec71483
e0702e82
0e334d89
8b4e3d2b
fe3c2f8c
efa32380
f4512f44
771b17f8
a3ee7883
d9e26f42
50c247e3
28e38534
fbb20c40
eebed8d7
49d7209f
979b9e1a
4758f38b
0aaa828a
1991eb9c
9dd1731d
9a65e595
725ebe16
0b4d7f26
079158b8
5ca24117
80e8c741
d5fe3cef
fd07afec
26d23e8a
fc396800
232ecd7d
7f613166
56e73824
934056df
17859567
85d35df7
c59825eb
0a5334cc
763ee09b
5d039cf2
1ae56f16
85e6292a
2fc1521d
2680ec02
a25d3491
d0a73557
aba6c81f
1106cc65
8543624f
a1446aaf
d2a82972
cf7ce0c8
f26c6828
e78fe202
76fae399
78f62ddb
7ab10dcc
39a0fc4a
08400933
f21da810
4daa5fc6
df5a5653
98a77154
eef88b80
a2ebaf0a
5bac7a7d
a3d261a5
bcf02715
27a166c9
3b920137
c282fb7a
ed96a4cc
b39a281a
84a22006
ce4d2961
3e8e09ac
1a92dbd5
faf24849
1910f0e4
7766c462
efad95a1
1bdcb4a8
e82a6049
8639d012
153fd3d6
a42551a9
cc54bd14
653f2e69
8bb23e62
aef8d8cf
9b0a1b47
2edc326f
501d7d3c
cb5c3864
89d9371c
0699c879
7c2aa474
c7b15460
65d2219f
49d2505c
17ceb023
3baf2c8c
9c2779f7
ba7e05c9
8b806117
12066479
1e005271
fa68e830
896c9e1f
a7449a6b
54c6bf0b
5d09fc7e
4e008909
6756d5a6
e0402146
8ea0ca44
a0dcdde3
d18078cf
43c579a6
76308894
cf3543df
f3b1b72f
494d29b4
f82a8d5a
a2c671b4
059d4a9e
202b0ded
7bde160b
54750a5e
e4d5f12e
6dfa3bfc
cb216992
b634de50
63262783
e649d258
df4e80d9
4f9ecb19
6974b4dd
223a9e24
857744ab
c23b137f
6b3288c2
1ef21214
61bde265
473bfc84
42189043
b92ffeed
f3d3b4ea
2eab919d
f735396b
72830c5e
07e1858a
00f62514
b8120453
1c79b43b
23231ef3
2b43d020
941ec278
111f48ef
08140f17
94b22e05
0c6303f7
8cb474e2
43f7ca62
9d6fec86
86ac6c07
d5db396e
66138c28
f44dc6d4
9698e317
f5e3e523
bbcd4521
2d2856a0
2a96811a
87f2cfc0
5667435b
d2b598d7
0865e733
a335ab55
f1dd959a
7d4c7402
b0147f82
9d3247df
6ba8bf47
4dbc283e
e0e41895
3e01b303
d0527274
f0e4174f
37915645
4d65d321
7d76fc72
c90f3110
c25380dc
ed752138
31509940
edb22c2a
2bc29638
9e5ed65f
bae6496a
b979d8e6
c4c745d3
8d9cb4dc
589821ca
216bcee8
f9f89496
24538514
cdb3fe91
4fde83a0
74431ff5
49c0d010
a7213e3d
8d95a408
b88979d4
97c55a50
1c9e37df
88fbda03
e5a5c4f4
d78b04ec
e3e94491
b22d73b7
33ba0da2
e1c54bf2
c7f60d87
6be2b7b5
cc6bb14e
7358f337
41c055bf
c5d86b53
d95893fb
ec2801f4
04ce4106
44d2e0b9
c7a6d940
2c049129
3fe02905
8cfeeda1
f460cf1f
83ba5134
5f841c1d
7fd2c3f5
ca96943c
b50f617e
889cfcdf
5438e376
bcf4a64b
cb7e2ea8
1a125c15
bce6ed66
0d4b7e05
ca8bb219
2fac25db
46baf312
d7c7294c
9c7e6c73
a4cf88c7
ed1800f8
e370f467
003736e8
ef213aae
ad7d9f5e
4d9f3e31
8f3bfaea
5465f026
be78f15d
36397c35
d2c4bf73
e0562cac
9f63431e
da073185
1f24f44f
d418ee8e
9cb85232
fa746d5a
5f65d98d
da626868
8162bb46
b20c8f92
43014321
7cb89c11
cd889f85
72578d01
a7da67a6
c0531e93
89ed462c
354216f2
38f342c8
dfa4a50a
878b93a9
6cba7ebb
fc4b3d8d
c2c52dfb
83bbdf12
95c7078d
09cbafa5
42314f31
8690ef4a
5cce7556
d9487a4a
7b918dae
0812804b
dc69780c
e61d2fd9
0e050849
345776e3
0a67bcbe
ee9f7c8a
ce72bcd2
7100172b
2bfcc451
2c44a784
01144f6e
9f3a72ac
2c962fb2
b7fcb910
4c5cce90
aecde32a
a5fa8642
7e70d3e0
b81b9770
23111f8e
fa2b9834
0b400155
3f24b625
deb523f1
2a652940
aa9bbaf7
ae223a55
f9b430b6
21446668
014d34cf
1664695c
d79d8cb6
2b734351
53e6d90b
98406624
93ecee91
bd26e3d2
96578428
4cb0e78f
acd2b411
59941870
29250488
04910043
9f0a7957
d54bc041
3ebb821a
9421d2b6
1ec892d9
edf10c3d
fdbc12e8
16c6feb7
00296f17
94750a9d
5ad98b28
3a22d22a
ece6545a
03779115
773314c6
0bd5edb8
c164803e
07b3385e
32057003
8e85f815
bec84871
c14bd229
719adaa2
b5c55319
0e606bc9
7a7bee36
deed3663
2a51adae
189133fb
d2d84cd4
dfe75dba
bd16bec8
5dabd1fe
278253cf
b59098e6
e3f31c6e
d1562a91
e075c705
98376494
8972f8ac
9b2c66df
02737294
b0c646bb
f3d50b8a
15f5c723
c9f15428
40580f54
acf3db89
1f57f50c
2ba86f99
385bea0b
f48e90b7
723e6fd0
2adb5691
8879017b
879d1680
d7dcd000
21ce4600
65b8f086
f946a44f
bb557233
be55b1cf
899e4b18
1791a0b1
47a653aa
29de3f42
e79d158f
aeae86a4
d68f46b2
604de875
10cf1c51
4d69946f
6524d9cc
51e59877
aa2f0ba2
c9dfd4a4
aae20318
afadd139
1dd44b31
affeddf5
8e7b184e
8188ca72
70d41b51
df340c76
0807bd28
71ab9ab0
feaca27f
06535bd4
ef79b045
6aed6e31
5429ebd7
dfb7f81b
113bfd97
3e7697d1
92078c64
38ad535c
9d2d7d9a
0fb0cee1
a2626e2a
6c92590d
4fbebb4b
b3b4b01c
d21d43fb
95241efe
256e8389
0380ca56
c9df79b5
d067f3c8
c49b9f7e
d0520e2a
4feebcb7
eb1acf62
b50d1561
efc06a7a
267ad0fa
938b21f1
0486bca1
7762cdb0
12367c89
d4efb51e
00e2f113
9569aef3
a7f4ae52
b51e6b91
54a3bd49
1a60dd45
af1fa42e
ad024cda
87e13bfc
a556e6df
b0905efa
43afcaa1
0f0849e8
cf9f4015
9eb87900
4d0ea5bf
b60e5279
14223dd5
50e3cc32
c454d171
942ada55
2c363e42
e0f02586
e2a725e9
255c6392
4ada4ccc
f20735d1
4dfc5afe
660de747
c1eaa2fc
a7068456
b32e6ca6
7362bfce
fce302e4
3175cb75
1921031d
9200c697
ed14d04e
e99812d3
cd3593dd
9d64823a
4617279f
a0e3935c
e4e4f967
ced9e66a
6225c1db
8853760c
0cbf6b2e
061b55d0
4bf55a77
b7678f70
1c6b3685
fc7ca4b3
40f55888
8b63c7b1
eb93dc07
b8d61f59
e7d0d919
73db6cad
740e1a4e
31837974
0ccb5cac
0a46cdb4
e0a52172
36dc048d
6cf379cc
ac9adc2e
45381245
6f22af96
c51e5bc3
8fc158bd
611a47ec
ef016a65
7fb2fa15
bb9c4c8f
dafc47f2
14eaf6b1
bca84ac7
16ab3fb2
20d4cac0
4b6caf1f
d757132a
961a6cd2
2c1ef649
792a087f
d26f83b9
8f5b8523
d72becb3
a349f36b
e392e9d2
00065394
c483141a
cd1a422d
6f996feb
ee272ff3
4e3a3d2b
910541a1
77b5e3c1
896d6261
5eafdd72
fa159978
4b4dcd6f
9648e741
daa6aaed
604ddf90
b5af5f30
af5a4bda
e1ef1682
53150705
6461d06c
ed9f8f2f
f1f26dd7
8b4e103a
5294eec4
4fa6124c
77e51bf4
f9251f05
fad073b8
082c411e
f567b2a3
81c5a0cf
76198c03
fd1b7599
da491913
6a637fb9
0b4a548e
2752598b
9a1fc3ea
001a827d
0bcaf718
e443e1b9
96ebef22
74b1cf1f
03b92d8a
998a40bc
e64862d2
c7666bd9
0950b5b9
e4d67355
afd9c539
20a3e4c2
23004bdc
688f79b3
9ec9116a
4af3fab2
b6c2a7e0
d7f5060c
b5ca93d7
896c8320
d664645c
08271348
6de6e96a
c2d4b65a
43d93f8c
ef760374
9b6a1d08
95d91835
41eee50e
00a883c6
a12b4b20
718772d9
e1d0afb8
c67c4ed6
0086cba9
76532228
fceb656b
1242d102
c1858ead
4895ae59
835886ba
d8391761
5331e471
1a96ea89
a9630612
29486958
6309a2b3
f3820e02
b3e8521b
1a6d90c6
9289242a
c47d0a5b
abd4d948
72c483ee
691e1910
4fc151b7
aa989481
0e7f7053
ed715443
e54f16b9
988533f9
ded64423
17ef9ca9
3e00f456
6ccadd96
d026f09b
068acbc8
686c8f22
aa7b0d9f
9da6d8e4
a4d9b577
11d1f520
4c0c9f7d
4a20932d
844bc3df
1d7fdcf4
50a1f4d5
72fa6b47
620baa52
a54a1a1a
1498894b
61281707
fa34a3de
facbba9c
8dcaf4eb
41e60c60
1b124b4b
a3ecca7d
a921440d
0d6229b9
233a6d3e
ec460d42
be4e9ad3
b1cd5ccb
6037a99d
9c8a5769
344272d4
29260651
8ab8b6a2
dc41226d
f37640a3
89d923b0
cb317f15
eafd975c
06a82949
a7724fab
953f886d
752a4ea2
4013afcd
483a7f3a
e2f20ee9
f5103f40
776e3886
7ea47cb4
7c01ef87
b2f2c519
87d0f966
e8dc5426
ebf92c65
94813af7
55d81d31
ef1ed8d6
145108c4
43c4f530
070e46d9
0680734a
a0e5d9f6
1403b747
08da8159
3c5d8885
43aca72d
a3633736
79515f61
fa0b0415
8bcc6edc
a6cfb74d
028e6842
9bb468c7
6712f57b
564d27bf
83aa13fb
cf1cf3f7
3129f95f
ace14883
a5ce8dc7
ee0d45ab
e10c2cd6
f9e5fbb5
59a1b6d8
97253d36
bfa67be3
72f20a64
7c34a505
1e5b0a9f
c8698d2f
47ad566c
2ce5e6ad
141ed9f9
5a6bd3cd
85f1420f
f933c729
dd7b1a0c
3fe06684
67059a13
34a82f20
6d280743
5c7d4428
1a6da091
85fe46cb
a70126ce
5d2e5187
ea4e3510
a1ebd2bd
5f6c2abf
93140820
e69c003b
7dab50a8
692c1498
74b3b11f
98c31661
51822d96
b2caa32e
9a583ae6
be00c3a2
e7cf5b16
890de824
a5c4c99f
bbe1d556
2a35aadf
3d9664dd
e82feefa
b2212e01
4d6d5462
5cd265cd
755a7f4c
b6d888ae
e042385f
95cfd8aa
e4459648
35242528
baa7d784
f6a0f4d9
a24510e4
59414b81
e740d4f4
7b439830
629ce610
c24df5ae
86e8b42e
1fc8ef40
4a8db2c7
4fdbadfd
203b2350
d4970171
61e3f5d9
47dab984
19b953ad
a7d12ac8
73215380
adeb7b70
df99f2d8
615d66a9
d98e601a
e0d00aa8
99da6bfd
45c8bcdd
b7313001
ca5a3114
0386eb4a
6dabc8fc
8e3799e3
98fe997e
7ff0f8e9
f68b9e4a
62fbcbc0
ab60314a
47bdb93b
8b4f2157
a91ae3c3
3d8a8ab7
c059d740
d0812b9b
cfd2f9bf
a373684c
275b2257
1c38876b
98fceedc
4b6f6256
9f1f59d2
4fc3d52b
c6ca52ba
e696238c
a7de8119
82a24438
ae9a0aa0
6800f90b
83c76b49
d40bec1b
6d97151d
b1349730
c7a85dca
6eb99c9b
b5c721b5
45b639f3
686337f2
b45cb14e
b6f7ae98
1b1a7dae
2747449a
de78c6b2
ed1a7174
8f96c22b
a4a7f642
87234374
8cb190e7
4ffd9030
e91b963d
dc0d60a1
dd26a476
726f8b8a
134e7a67
124e13e8
13c45278
acd9f1e1
907be2e6
de6fdedc
c9eca24a
3663153f
2d5d4509
c5f094fa
7de146f1
66418a7b
fd5368da
ad54d265
ad128f82
b1816d1f
e5aa3ea6
d9bb19a3
a604e36f
31138718
eb346cf4
deba5540
45b0b274
aaea9e17
42cdba92
8c078f4f
ecfaf125
d3d8f956
334135a6
484ee1f5
5e304756
2f9b4ea3
6bed7c14
6c605750
9013a7af
3e07dcb4
75359bfa
b74e0258
2c3eadea
4fbc7173
087bf21e
1718598f
d5982ef3
c6c7768f
bcf93e8f
0d6f1bd0
e110109b
a2b6ea60
68b6edd2
417daf6d
10d60c6a
a8fcd7f3
a749a654
25d84b4b
3758bf83
ec26f264
3f030a54
49aaf53f
ee418d89
4adfd106
6d54e6b7
f7c7c23a
7f1aee5f
0dedcef1
2ea809ee
762ef09b
5b48983e
68e644e6
f7064fa6
5e7d1808
6f0e09f7
9e2ff899
4c314d1f
7eac52a9
6b917aa0
52f2374a
e15c83d1
48ca49d6
94bb1ab5
596e049a
261d5980
bf7b0337
824f3076
9fd6bab3
43a67679
30c76f0c
91857ccb
325febda
32af5477
9ff38f7e
bbfcdff4
f9e3fe44
1cb380c2
61032956
d0a4b2e9
89c08fdd
317876ca
751fce48
33f5483a
17b1bbea
03c0cba5
58bfcb7a
b96cbe30
f1f48f88
dae615ed
d2eeef18
aa433d29
297ee075
a35c4ea9
eb6b75b8
913b6df2
bdbee920
50e16f22
b08465be
07eafdba
07da26e9
64ac87af
4a2171af
71534bea
a5c41ab6
1767110d
d8a9619e
a54ee3dd
283521f6
27d779b3
74e01596
ca7655d5
6980c5a8
4ca0165a
3de1b501
aeb4af88
7eb55e9e
b45bc520
48cb369c
d9179ef5
a5075e6e
c95f8689
23a19752
8f5698d4
1f0c53bb
018e9ca7
9d74980b
2f1f7459
453ab498
bba035de
f395409f
46ee4c9b
300216dd
1bef76f0
bae018ac
c621511e
76c78971
b826d4b9
cfc8d020
faf0de4c
091dd955
1418a958
2524c2b2
9882cc31
46c9d71b
1d065864
95ecc47c
5a258cb3
d9140757
5c8e15ac
dbb5084a
c0728f0c
b6ddc24f
ca389541
c9092c5e
306cf91b
68a89bb9
94615592
4673917e
773a2a83
4b6665da
0982f662
1eb09360
37c0ce00
228d1394
1f1266da
15fdc878
4d9eb2d0
0d546068
080a18d1
92fcd59c
e92e6e52
7e228e9c
3258397b
e404dfde
e31606ef
528f3b26
8f2b4532
a5fb0a0e
0d05c0ac
a0a73f84
323ab647
aa9e7039
289b3f2d
7044d0d0
d6074563
82a0ac94
91f88fb2
604f3979
a2d8ce3e
038adeca
49084d8d
37cff8d7
fdd48cd5
621e5de6
bb837476
572fdbbe
14a82efa
27ac346e
2a3d199f
0042cf4f
8328d04c
799d29b2
07a0d7d2
9a723482
a0ea1af4
ccddebbe
4b088593
03a5088a
342fba5a
0e78842f
addccba9
9ae957eb
99ade35b
83e125cf
add5e030
d9706836
7dd24ab7
63bbfcdb
7cdfa375
6bdb50f1
1a5c24b2
46d653c4
d231cd43
c5f81032
4fc856e1
7f96eddb
bcbb8602
01da9dcf
26297ffe
aeb22815
4e66bb83
037af6b4
e660f833
4d494d51
4a5685cf
d17e4c18
81c028e8
652a8bd7
1dc1512d
50734117
6960a7ab
5427bebf
96898e9e
d23d5454
1f9fefab
317011fd
6a16b189
d7b28df9
476ecf24
d3fe29fa
6f8c817f
cf8a3d96
5e912e7c
d5e61ff4
654031ab
966a3b4c
8a3ac5c4
c3b6b969
f49a9b11
cba81281
4e09f0e9
a75bddf7
7a20dbd3
3665050c
dca2dcb6
1702c59d
6ee5bacf
cf6626a4
5209cad7
41095d70
6d40a592
66307f26
fe42337b
bd8b4b41
08cd8c83
c983d3ef
ecfc898e
85ac85f4
e130d53e
a23426e1
161daba3
af0ea05b
94b9380e
516cdaf6
0ad695bf
de0b35a5
85633c8c
521e9893
547d1289
8ef2cac7
b4d315bb
b3640a96
1b560fc8
5ea6e347
67c7e8df
fb08dc8a
9c903864
552a047c
ada88b4e
6d9aada3
6e7d93a6
3c6cddcb
15b1c3f9
eddb4527
cab9d412
f730609b
a72d255d
cde183eb
02fc2ae7
03e10639
09e594b2
16f89ae7
7bfb224a
d452eb53
7d15b5ed
2d15530c
064ff8e6
3f59d851
15173528
a45041be
a64c26c0
60c0cacd
b545ce62
21abfd2b
1646dfc0
6b909c91
1b17b7ec
a5a84b71
e04a7b40
2215dc82
1e5443e4
94ecd3ee
378d2c3c
90677e2d
388ca1a3
be101fd3
c93f41f3
3af84e64
e9c9f2aa
518d2790
cadbebe7
7b246f30
06b77c04
b6392d23
596e3545
551c24a5
57479647
867816ba
cacbef6c
3729f993
628cae46
5cef5164
f7d1e40e
e33be912
48803789
542b50c3
5969443e
a74b27d6
6ac337a1
396dbe13
27e446fe
c3d0a70d
c3a60be2
1741eea9
a6534d24
0c685f6a
c17d65d5
8b7dc9e5
924d3e7c
26dd9c77
4e556858
c78db11c
89c4d9d2
2123e542
35adc260
3c94a31d
01c02540
953c9612
4f07e926
afc2bf3a
c5ee690e
a8743357
f5b3ce3a
dc29bdc9
0d2062bf
747fa454
2e593b8d
7d326321
d46af193
6c6acb0c
f500b602
1886f41b
71fe0ea9
165068f8
7c152f53
270e429a
ddab3caa
8a6af8a9
fee778cc
5a515403
9bee10fc
c59be9f2
07d201bd
8a963788
0fc75d7c
0511e032
14b60eaf
19d06323
ac7885e6
b21132f2
9447792e
7abb76e3
65666ab2
d5c67460
212bfac9
dc2a3708
52b42c79
9d98ac33
d95bd183
9604b04c
9006b017
1f308f72
7ec94ee3
251c113f
8af27655
3d332bb2
067badb7
67e502b8
114284e5
c59211cc
5078e76e
ccf8c9bd
25eae6e0
0bf345d2
6a645e7d
fbb31807
52a3e03e
6d89565c
52bf69b5
38da01a9
67a1ab2f
56351000
a350f5c2
0e1fa2d4
82e8390d
66104b8a
ac765d48
de67ddc6
f6accd74
1bd7fe78
b66add19
1af76fc0
0817d197
9151e647
92799c06
83acf977
0c4df71c
13e357d4
c4bbfe90
dcee2a7e
9d612b7b
ca6d1e42
ad3ae37b
821993c0
2b66eb28
106aceb3
43c6b224
c018f12f
a7cf3cc1
455d080e
c1d92ce7
6c839dce
18da6e98
99a72605
8105f5b2
14e814d5
48c1160c
4f7ec3bd
571a3e2e
24637480
6d0341f6
0961fc2f
33f5a57a
512ee3a0
70e9840d
a09a5748
1194a954
96cf2e56
6cc62b65
4f703156
98bdc41d
6465087f
f9596667
ef4a1656
66cffe5b
0ed1ec1a
b0798a2d
7a339c72
dc338b92
034e00db
4eb3a31a
7fab3354
3d7bcdf9
6bbdc6a5
c2ee31a0
7ba03d32
16bf317f
c13fd058
d4647d85
cfaa5a29
e44f54bc
f99caad6
bfb2beaf
dcbfc532
204ca207
bfbc8834
c97956eb
e2376a97
0a054723
4cb4588b
48823291
5125d8c6
7256619f
f0b49621
b80460d3
fb9bc706
381c76c8
4bfc490a
20153836
98ab2f7d
8d8d1f65
4dd2b3c2
8a951c46
ad2c2756
8bf4bcd6
6f5a1fa0
a040d967
4bbd774e
595a2e2c
dcbbecad
2504ca19
ccc420b8
a67e4b79
90c01304
0485b3b3
857d24fa
9407a17a
26f8c864
5c341856
651fd347
6ae9df36
3dc28023
d0ed1b3c
96b9123c
0c863f8a
60c751cf
37a5f68a
