744205d3
42ccf508
8ee38584
96402535
dfb8bd40
ba0de687
eed98355
4331f87c
f47e55e1
c59f2de9
509e3c32
7239a672
e3efea76
44563f75
7328999f
1e542542
386d12c0
97a2b5c2
d1c61f9e
964782a2
24f2f55a
32bc4afe
7e7fd5b9
e1dd4b5e
c73bb1ef
8cc17396
cd8eecea
f2d237c1
920c0cfe
96f75ca9
46827901
c516bbd5
c1574d85
87e2a6c7
60fbac28
2f6521a7
1db53d59
60015ddf
3b3ad0af
184105f0
ad6b266c
74d455e3
84c077df
dba00850
98bfd87a
17ed6d51
3307dced
ec2ea2bf
98bfeb02
410617fb
0dd984d5
e2029170
b5513036
9b9c6411
5be0195b
d7ef7bc9
20da46fb
b4b3e62c
7ef55a28
df8ce8b5
9d44ce52
bf3f1fab
4c0164b5
766fd277
4c39b79f
2233e1a7
90700558
3426e97e
07114999
e4662d73
eb003c64
8c55e1b7
f8ed4829
1d2e2013
8f5fa14b
06190cbb
58a294d7
fc690b05
d078fd08
2bec8863
2426ad92
53e5f6bd
da52956e
57cc4262
e6b37cc3
07139098
f93bacec
a5649550
205759f0
0b7371d0
3edd53dc
ec6c5c83
85c04e96
4cbd6919
fb8b34ac
bce337d3
baacf95b
446011ee
4fe35030
1027d412
32e9ee02
d1568eaa
28158a83
a60b37ec
0b33edca
779926d7
737c7e5d
4c91c5cd
ab70a9b6
5be97fef
1114451f
1950ab98
b899ad71
3d1192ba
c692c90f
52d135ec
2dd27faf
fbf038c3
30434039
ab3354b9
fbb914e0
48fc076e
25b5c89a
26e3b3f4
865907fa
05fb1457
f44d8225
41906d60
eff8179d
ce7c049c
f8fb06a1
e5097155
c8f66a37
df4326ae
be7404a1
becf427b
fc7964fe
aefb9e1b
16a2e899
08ebd54a
cd6da004
bbf8a2a6
2374bfa5
20eef9f2
3fc843c9
3925b813
89aea87e
b5175441
61e899a0
442f0eb6
7a7e49c1
c4dd7f21
c722dfa7
e2595962
0aa208ba
3660834b
78ceb610
f860bcfb
03bff364
cade1846
66aa18bc
d124ee44
af1e44b7
2af702a5
bf9f2936
4fa32471
3af5910a
4dfd786f
eb1411a0
768bb465
05620077
32794fc5
2ff2d222
133e7661
2276fac9
4d7ffe62
28654b4e
527259c5
20872973
acac8e5c
3e5fc96f
ce1f094c
8476823a
d686b047
6c360f14
26df3b69
b7135c42
01b0aa42
35ed95eb
ed26fa3f
c054407a
1863d8ee
6d13f34e
9b2b6dd8
d94ae4c7
2583788d
5c5e52a6
ae43eb29
a59462af
3f82e34c
4c02201c
d37d0654
d67218f2
49fb59db
354d6f54
c92aacc0
48971a58
2b1397da
77a2c6ba
f21c6903
c608479b
ec9a7e79
4fcbbad9
c87ab14c
a451a0ea
1778e0f9
41976f80
2dbee8ea
a936b04c
f1dd8486
fb158524
9b0a22dd
ea79bdc5
fba3f42f
cae03b1f
51e61db0
2d238002
ebdc6ef6
b743c5e4
fa3a8a3d
538ddbde
7c7bef58
d583f5b3
b115d416
b8164789
54364623
08c8a56c
210a2890
a2ceb4a2
1546f354
af264af8
4c4cbe6e
9557fd69
8d09d454
c3786535
4df1a956
c62f250a
c4a128a7
27da6d50
6ef0e54c
e65beeee
334901c9
47e87ca7
1120b8ca
cc7a44a3
2466602e
af6414f2
f8a68404
991bab23
9a0f42d8
23f1acfe
ba307679
46c7e0c7
88e68928
36014028
84916d96
d1424411
d16800f9
ee16bc6d
bb67a551
3d462f0b
c0eca499
307d446c
ced2b9d1
1f7d80c5
24aa58ec
bcfb4048
f028d822
80d0f039
8785b90a
6e0097c5
b89e8e31
c0049774
994071fd
b223c6d9
c0117ed2
baaba2d0
49417624
1c0824ac
e04d7ab2
ea3b017f
3bf7e37b
8d27c237
87e27f53
a1838024
29517687
ae97254d
09cb51ad
1d2a561a
6f114c46
e99b7856
9c00c176
d25da488
b7a44509
7075d599
06f4da06
e2e9842c
622ea895
bf792520
43a01593
f7d609bc
28ae029b
a1ecc92a
ee13969e
0c5dde39
db9e8f55
d7f6354a
bc840122
ebb45cb7
3f41367d
4a2336cb
80026688
fd1528f6
bd80e171
4094ba03
d3907eda
c5089896
24a193d1
a26a9513
b4ecb800
23c188b0
a8612627
fbe856eb
8ea6efac
63b686a6
d7e302aa
1780fe6e
5efc585b
51b97724
bded47ca
9cb4aca1
31c7aea2
d2f95f61
a6f432bc
1dba5e4b
90d30117
14eef751
2ba15118
6b564ba0
9c3ee811
2498863b
a6c848bc
c10f802f
fa241786
08ab28e0
c8cb5d54
457147bf
bda1b3cf
c9b8e112
f4a0820b
281be6c6
e82eca8d
ef5e321e
89722a41
5e2dbe19
3364fc86
e6fb2a0f
45d2c4e9
3f6d164f
41f62e85
c3a5af6f
56376bd5
8546e287
7b2d9c93
4bb6d373
42684309
8f7f65ca
5e2ac54c
567f0aec
728a7e37
a5a1dca9
ce173456
940282d9
ee891acd
849da848
c9c0c67b
0618e796
e4e82add
c10a7b37
a9ca9684
fe633886
6f73a20c
860fe142
6514d13c
f3ca6190
f47700d5
9b2944c3
3c13ba5c
8fc9db02
238570ee
fb7f4543
6d6c257b
d59968e4
44cd08a1
3884a966
dd0b3ce4
baad94f1
552fd246
de06d128
72575e2b
2ac40ac7
73a9c2a3
de4f68f6
78c6612e
1a279d22
d04821d5
9e5d52b9
5f3c14b3
6883cee4
4d1a0a6b
7a318bbb
8e574ce1
a2822bf0
d41fb55d
599f1cec
48f458e7
556100b0
201f851a
6013114b
70a6a735
a08491c5
c8f7867e
f72fbb3b
3569510d
9877569b
5c3c92fa
10d2da15
8d0ef9d2
427f193c
6360b60f
29bb9e04
0edd7d01
1c12afbe
88e10da3
40d4ca5b
e377af2b
4e4760d2
ccf23078
73b858e9
10681e46
11d5968a
129acd89
a33770df
3f06dd75
faa24e89
886a6a1d
ca8d9ae8
fdbe5c64
d3296f37
5d448229
c3408b9b
c7bb54f6
1e0aab59
09c56825
2ff427bc
f7de60a5
4be023bd
dd66b002
fabf55a9
7f85d750
a2dc0952
903a3911
a4e9eb9e
aca0b872
5adac08e
a5c070f5
6e15e358
54bfb9f2
25f3eb66
8408809c
9f1dc506
de79f142
6601b361
1b7f7d03
22573ec6
23589e42
7914e235
c584db0f
c7bf33f5
b62199e9
67473a93
69598acf
5a6bed8c
bdd1cf22
83ecba75
86e28033
bc2fe3b3
6714544b
4baaf112
3435bcca
22e1b625
60c26994
9d6c347a
c546b88c
74fc4d3d
5e1ebaee
0e6b9e2c
f58b9211
7859bf1f
7bb35213
d01bbfb3
25b19fda
7f513957
96815c6b
a726fa48
a5a48ae1
8b853cd5
57a3e3b8
4aa47cdc
6a79e29b
be26e69a
c044c8eb
6848e506
98beb619
a33f8847
c30de67e
04c90fa7
6db9353c
1ebf681f
12effaea
b8ddc7b1
bf51a427
fddd7da5
5a716b76
5b1baf21
c1c5aa62
21b4347a
240145c4
ac6b06f7
49db5a98
98565ee3
9f4bd3cd
af0a028e
779b1da9
90b2cb3d
17769a62
a5d9299b
27ed9404
19c3244f
4ccfa31b
b3233ed5
bc97decb
3dbf08ea
2ecf1f3e
4ef899b3
59224988
6b286d15
c4c052ba
a2633c8b
f1163e6c
3263fa0b
bc0cb3ac
a3e0f54a
217d9660
7e358af2
bf44ba5a
6500b824
6db4f36a
d260bc83
151729e3
2ec252c5
585f6c2f
76a5dd58
ebe55388
39a1ebfa
96b880e1
35565166
ab6c01cb
ca2b4194
0c8993b8
2be6b570
14529a8b
2a3b474b
2be4a4ab
4260fcd4
d0cfe54d
53144e5b
6327f491
e3ab3539
81216f39
94c8145c
5547539d
23768151
cc226206
7378d0ab
bfb5a796
71e47ea6
8df79036
6dbd37d9
15299954
c613114b
9fe206df
1061e03f
a7618680
03b84190
38806dfc
0dc2ace1
defd5e1e
71fe7c63
c8b232bb
beebb94e
8b2d0bd6
34f19e97
abdf9a85
36e1846e
d8eec522
670c1ec3
df25c5c9
963c69cf
4c7eeed1
19319e22
ec522f9d
1a81a281
ceb37236
bc73f668
1d250191
9dd757d2
a882f2ba
1c562f4d
4283eced
c74c25dc
2a2d9440
098580e3
e3a71c4f
3b590f9f
aed3428b
1620fcfd
9194ac34
ed648197
6406b31c
6133f65b
8ffbec91
ac8f951e
0ae7bfa9
1528a51a
07d78c26
b4be9a8c
96ed2f05
1df53700
551754de
c593193c
86ad2079
983d7a87
ed93a7fa
c642216e
f156f0ee
b65fbe4b
05a8423e
40904f45
71da8279
05bcad95
bcd7e1f7
d37157a4
1dcad77a
4e5d748d
89525fbf
b7272475
5dd3e917
9370da0d
56a7100f
0b7170c1
019402c3
437eaa39
9b10dae7
705e06ca
3a72948f
9563c6b8
24ab1d9c
3074dd0b
507f8575
00eb96e4
ba12433e
0f65b187
6b4f702c
ad07ef38
da018b87
b711bff8
7a6d56b1
7f2d89c7
e0d43c92
67692385
293df2e3
6173342b
741dac5d
6fd3b3da
47f8c3ad
da94bf9e
a51bba91
2cdc3c40
40c87fd8
ad2480ca
ee00119d
65b9057e
6fd7d631
2ea6b70f
0a82f610
ad3b2d07
77c066e4
5d321b16
58d95b55
4687d579
869657e1
10a532cc
be75938e
5bece365
3e9f34e9
ae3e6c93
61430085
d848da7b
978fc7fa
553ad312
be7219b2
0621b01c
e29b9138
a8ed1476
0eb9afef
b12d1e11
d552a82b
e811ee7c
87ae5d07
2d9e5cf0
e2b3fc32
258c145a
43f4dbd6
30925a24
7f110ea3
7588f465
e693d683
0e758c02
9ff692e8
77c15d28
94963595
48f5c51f
44bfe10d
4d1b8fba
4fb67d24
c8288266
df6a4160
7483c50a
a515ef44
bd1c1826
9810c573
4988a314
38825479
a04b285a
83df31b3
89b517f1
a23740a3
78209f50
cf9b772c
8e536caf
5d3ba545
e9acaaf7
f9a9927b
76ee6700
1fd68065
30d2570d
4e3d468e
376ed363
1be14512
262d04a1
6081ee89
2e5cf3c6
4402a230
f5bfec65
0a9b2ac7
06950600
0740550e
a2a119fd
e2402cce
fd8b66b1
25300b90
8e3ba9b4
1b35165f
951aa5f1
6f39196a
280bc593
f524ea71
29bb4d09
070cd3d4
0dd56fdd
5a6d83c7
c9eb1505
79b29487
1209df43
8f80dd29
49fa8967
0e4b4942
23e51976
4dd1f285
0e52caee
3d24b6bb
7bb5afd7
de35cd4a
2039ef3f
e91fd49a
5440b877
2fc9f4aa
84778761
d5f0c8e0
90e20395
6fed3453
cb3f76f1
70473448
276440b2
6d4424fc
a35502d0
2870988c
86c49d95
3462b77c
5a83fc16
c13f5904
426f07f1
f688c5e1
77f2cd37
3e871948
8a483888
58d2e7dd
415fef3a
76eb3264
6f627f9e
328b8551
1346c30c
e48dc998
f60c7671
62773fb9
3199933d
08d54d87
b9364cf8
77ca03fc
3a32fd4d
5713bae0
09282612
c5327192
bbc9b448
e0cfd93b
808826dc
a134fa6d
74ce8ca5
5d227620
55ae5500
d68cafb5
331fa913
78807ddf
e977c1ab
e039827f
6bc9feda
c6dbe831
5054ab2d
57ef8046
0dc8f4e4
6f01056e
4ff20f9b
fb903869
571c4854
7e067733
efe5fe8a
7e6b0545
e9e8f292
7cfd692d
459e3372
44e40ddc
4320a15d
1c9ae99b
041eae69
9987583f
31e554b5
70be289c
050cc295
0d281da2
6c6b6b68
c8ad0b49
7a84f3e3
7879adbe
3994a900
91837270
0ab83e73
78ce758a
9c3073b7
241b8a45
b97897f3
5c14f3a6
b9478bde
9810c9b8
80d66d69
070ae056
88d82827
0c6532b6
9e65b935
9cdd0aa6
5f6440a1
5b4992b1
07ba16aa
4e9ca967
37643c8c
11ea9e52
6cfe07e3
9500bf1e
efa6168a
e2e4d096
f5702910
551b0396
1c12d227
04092a79
2904d80e
196a4b68
a7cdcb42
ce23d072
34a449e7
da023dd4
3677086c
6f1ef42f
8ccf7d48
6c27c425
f716f62e
88f4a331
23b87e24
eaf59636
8c274536
c8d1e016
b252a469
9cdfa6e0
7c07be2c
92fcc723
2175c9ee
89bbfe1b
5c7b712b
3fcc5b38
a6e02acd
5161c10a
452c738f
289f0276
3acea330
d2c9db12
de4f2977
066e71f9
769a2dcd
b4de2b07
8e6a19e1
d374e057
e4d67a77
d95dece0
3974a81d
d14cdb6e
ba80d770
517721ca
e3d66be6
065dd7fb
5f7ca14d
32a2a6e7
235f2007
915dbc98
5679a2f9
fb202098
fea6aafd
07bed1c9
bb5d4499
ba50231e
82ebc19c
1c2f65fe
4aa74f1d
9e637f52
631bbfae
5ef9012e
ba5d9829
abce44c0
fe77f582
a6218772
ab1ffc6e
e60f4a3f
38b70aae
ac252fc0
6bc64435
81e8cd97
9e0a2acc
b2184c26
9a0d2707
9b4f637b
40c08d7e
daec7024
5cbd0a9a
5e7e8c7d
82513cb0
1a904404
fb4689f8
1bc3e8dd
b38daf93
6cbf9b0c
19052d3b
a4e8aa31
d2665f72
aa0eea5a
f65c8045
bb75aa11
91909752
a9d3763a
8bfa94d5
be64bb87
bd3fd70a
5fb5037e
3975dd39
bedc1153
860b7ba4
d9ad431e
e8ec0d1c
8a982bda
e08e0bef
6e15af11
245ce7f2
2741a741
3f817bc7
71cfe9c3
abf577df
267c22d2
a9f9d3b1
7c4243f4
93d5fada
17f4074a
cc053597
46bc1aaa
95d6ec56
ab680587
8ef44448
a4a3d2ad
0d73d231
fc4a63e6
1e96e158
ae3cfdc8
ae28e8d7
8f3f1164
82c16803
c0591481
c775da83
80eebbb0
f3fe9a98
14367385
9fdb1db3
366497b4
e88bf6d9
4feea266
a69cfbf7
17e4c12d
8412a4f3
144027b9
83bab8d6
da65bd76
1b2fae73
51963266
b8f6ca8d
e06933a5
d63cae16
f42a5612
d5a26875
b844542c
7a7b6e1d
ea4e02ad
7bdd7d51
befed6e1
b4175bd8
20ba6c47
623b3591
b920c08c
8e13d5e1
f14242c0
424e8b07
5f47828a
e8f43508
b366b1ea
582206db
64b344ab
20382cfa
b24493b7
5fb56da3
07c15de4
78c6ad39
dcf896ec
deb87326
59d9d824
c30c8a47
717c4285
d71f5662
f67966ae
c6444b87
a3876ccb
1856e510
9cf45daa
5ba1c666
c9743bde
3c1304d0
270c4716
d36bb81a
34beaf7f
06e7c99b
2fc0cd1f
8b107726
4d5d4b4d
b31a11cd
14f3b0a5
6f9f65a3
7ea2e4a2
5431d72d
15413791
561d73c7
9f0dc019
a2acc1f2
b6c0f6d6
9a440924
05dd0916
c2b0e092
b0ee794a
462ada67
a727944d
d95ec70d
5e2b05ac
9bed29c7
d960d6cc
70c87023
47046233
61050302
3c13e5f3
3e9a0580
abed43e2
6704a101
be50dfca
b4713212
b21bc2fd
88097f67
fbda771c
0f336b08
a3fa7248
a6ee930e
d0df54b0
006cc557
e5791a50
55a3024c
b19dc629
ccf3c04e
98eb9c54
f66e1004
cd18ac46
a326943a
4020d3fe
30973db6
1452f0d4
ac826a29
c4e68578
c4fd4da7
9215a42c
a4bcadcb
9941881d
f88d11cc
acc9286c
2ff1b6b2
7f2dd70b
9321ed85
a308eaae
88dfb7fd
4822f3e2
7f83d03d
0cd5440d
253e0117
354f98fe
15d5d2c9
7f6fabfc
87fe0f21
6252ace6
60e14676
6c0ff1fd
e595f9cb
b0d7c777
05e5845b
54f1089b
393f895c
712d7ab0
729d1120
2b207583
1f4e521f
77da038d
7de9ca3d
d5e375d3
978eeb5c
15e437bb
35f41c43
a6aeb8cc
4bd543fc
c60ef378
62aaf3f5
63005bdd
5dc8df5f
fe60873c
fa08a0fa
07fddcfc
8a3bfc6d
d937640c
ea7f9938
3f519ffe
e01baf39
050e11e5
73fb6930
7492e964
128f9f3c
5f12b66a
993b4c52
f76ac5b8
e2fdd80c
7b194903
83ac2821
06086f1d
f684a4b7
4015db60
949282c0
c37d41bf
5d9cf199
072b23da
14a7b0fc
d76f4a41
7c7acee5
ec295f40
87026811
53917a05
fce465b0
ea8315f1
0a964b98
d8bbef8b
8a7c4846
3812154a
11c0acf3
8bf6b987
772032bd
7c02be08
7f9aec3d
e166a9f0
42a3dbb4
2f3b24fd
b616b7f9
a0341f8a
854b61b5
6281604a
0243a05a
927afd64
c6d0263f
23fd723a
458f1665
7304a3d5
9ab4cefc
0ab566ef
f2554863
b43e0b1b
fc101d51
bc37ce9d
21d8e674
a9fedb4b
a366a191
675c6fdd
1769cd3a
e992b97a
3d329280
b4f64ca3
2562be6c
10df791f
a60fab8e
edde6d7c
abd865ba
f5f8f80f
b0bfbc20
0ac11d9b
94b0048a
18772785
fdc5c0fa
afd6536c
5ad11609
9b743264
dac3affc
3798ae9e
dd29236a
c9b15f5b
53b77ee4
510435bc
a698b03a
23d02ea8
0c833522
27a9dda9
20631f71
cf89a2f4
935d1762
2c65815b
4a4f8526
52e671fa
4ed9c914
78e26f02
9b80b657
20d0f68e
4553effd
4ffb46d6
fdb5303e
6d237281
e035f9da
2dcdfc92
189f7ce5
1a022b10
a87ebe25
8151cb08
11a8f461
1f688b9d
f84cdb52
e96714ca
5a3839b0
2aa64928
ed0921fd
b6e6ae72
8c018a71
0aea6722
cf6a381d
4d0fb17f
f370211f
1c555a88
092cd7a3
6ffc62fe
5d6c0e1f
f284d7de
9f3a0f6f
42a6a6b2
818c2580
b2d1c895
13c23689
f30d75e4
bd29bbb0
09e429a5
3a06f0bb
f1e34ea0
e24c86b4
854558c0
42416ecd
c6ed72e7
28ed0213
c06dc7b9
30c643ce
e182633c
095ee82e
fc1b34ea
0d9b44c7
09ba36eb
c27f34e3
8d5b45d0
f90ac33f
d871914b
df9fea14
f9c45bd9
5c790586
3623f5cf
ce3f0221
d9cbfb8c
37988192
0a599dca
e1e99773
df3318ef
b2ba76b3
536ccf0b
4d19c328
e448d73f
e6a1392a
e4330dfa
94b21520
9a6e9d44
31364daa
a330eabd
8aea116a
ccd5b56f
c70cb6ad
98d37e85
5a29c58c
6fa631a0
224c143a
2240df0a
f1de6fcf
b27a4a31
a30c2cb1
aa45184b
6c7024da
3f5146ce
9ee403d0
9ce99cb1
f0d07e7f
af77ba3e
02dfc356
29b8937e
8a5e497c
67346a31
97bf324d
8cdc6191
b60779d2
72210751
60fe9615
ce888914
c543dc17
6d3b59ba
e03e58f0
1c1eadf9
0796236a
d10acc7e
e8f8ac17
2ec1028f
f8134df0
25ac5672
47f5547f
46a2a216
3fabad8e
21c1c9c2
eb55fa1f
9738c533
b813d579
b80305e7
a83b756d
82406dbd
9405c863
19223229
3556fc4f
5fdadbe8
eec1b862
a2d70cb6
d6cb6e3e
7ac889ab
2b6e9625
efcd62e9
9f074e24
0819a9af
3338627c
70459173
a5787b2c
61387f49
4de40ad9
95924062
050490fb
6325110a
2926d830
c033aae0
1d27640e
cd2caf3a
59f7fd10
e4887f79
bd9531fd
5092fdcd
b2aeea3e
f4bce8cd
970b4f03
cbb6e6bd
a4b71021
1d10a410
e06cc197
c1415ffb
7b5428de
23c64c0a
d837a57a
3a53b259
0847777a
58002dc0
f3cbed45
22935da8
a88efba2
3523ae30
c8a37d04
24dc3e80
1c94ee02
c0f8b6c9
332da2da
bf065cbf
a6821612
27a2279f
438a2cad
418c4f57
f0ab7691
6bb48597
311765a1
7147db0e
da505201
d33aaae8
6a7ba71b
29704105
951ce879
f85aa5a7
643091b4
a998db2e
94be214b
8d0141da
269ca832
c0455573
7f9c5863
19d3ab11
f8f350c1
e985e3bf
f31ad772
0b6df701
8e2df89b
b92050ea
c72863f9
05af358b
ba7e26f0
4570c20d
78b9e0cc
885e5de5
a05ef686
b4584adc
b46f231d
bab3703e
5e955b85
ca560c20
c9056952
dcb47b6c
7b3996af
5086dfb3
93fddc98
83104a80
ef9e5588
70fde4e5
7bbdae2b
72d615cc
4a160f60
97570a1a
eb899a92
1a793ea3
9030e009
2122d759
e30260db
6f5b2409
9169ee9c
269afb3d
3f5dfe25
f83eb452
bd26069e
63d71302
8b56044c
c9ab7018
ea18113b
a6842ee9
0b02cd56
e3429644
172189ec
c5084580
d07839d4
4b5b05a2
10c0f9d4
49321309
6b2d3a49
86b01906
6ee04db0
24d00067
aaedea94
656af150
887f786f
e3e11a10
9b9ade79
470e6aa8
c2eac879
28b42319
57fb3d96
f356aece
5a4641be
59ec67da
c540dec8
833b0849
ad8ae3ac
072ce6ea
d522cc98
4292795a
11dc2e76
130ecf4b
002496bc
9d456c66
be5524ef
607adc90
17ee0eb6
1af09d7a
0d75fa8b
3fcc7695
94328b6d
d1c0ba05
b2fddaa4
8d7ce558
be6d6560
ce66b7f2
17f8341f
3b031377
ce554357
e61b8364
42ea008d
96b8e9e0
15f190d1
6db1b45e
5a6b66a7
41c7f7ac
f872e6a3
dabd4bcd
5032ddb4
df9bee62
cfdadc2d
d014e798
cffd2d06
2bf0f7fd
dcab89e4
018cc327
4bc005eb
3c2e4c8c
a4d32b91
3e15040f
95c6cdeb
788a7532
d1efb773
16377052
546c5226
6bcd6883
c4a02e16
d6fd1a0b
bef01d5b
7c6c5f62
d3b55d02
1f48d6a0
98eb92e5
132dc785
28e0ab4f
f2fe210f
cf18aebf
9b648db7
fb514fe0
7587f2c5
21ee7f81
97577440
51f31a0b
2a26b929
e05be042
2a442aef
307150c8
4313f916
7f4d2b31
22bef536
50c2ca6d
8a22d889
f95cda67
587dda34
3b8beefe
d287b2a0
12a901d3
abe2eaa5
3672fb83
48e6d122
693f6255
609b39d3
137aa068
e543a0c4
48a00b12
c82509ef
a4689e59
fc30a8c8
c1fd152e
c762ee10
f0276fb7
647a12e5
b39cfbc4
d0b4ca6b
6aeacd3a
27d6ec8f
ba20d573
b1192b56
b8ce6279
4ff92769
5541ac47
b6087186
b171587c
0d7d029d
aae6a258
912b0667
b92afaf7
f7581445
240627c7
f789157d
0368aef5
c62753b1
b3c7cffb
5a934e18
9b647bfb
dd7003bd
d63e5e27
e0b5b649
c14c25c3
b1eecd91
3fd042bf
017e9957
c9b61d97
0b1e26fb
46b6137c
17b2621e
e1a62036
970ad739
414ec97b
2da91885
f3f29335
606513ad
b8e5c7ec
e82d8846
95e1b347
bdcebfd4
8d1e8d54
bbbad7f2
a8c353a5
dff9b2b7
fe4816f2
695edecd
d63252ef
f55b09e6
86729e72
b8257815
c54f72f6
7077272a
45a75239
2cf93e45
c6e8713a
ac21edce
c16c74d7
2e8aeede
979ed5d9
33df613c
c617c495
5cc3bd1c
02f04a6d
dcfaa514
e418dd63
881d5179
cd57718b
3c1c5342
d5783b0e
82e15cfc
b5b0981f
6d68bf66
28d82dc3
2702309e
c05ef2ec
d6cc7972
7c729de1
57525b8b
65c0688b
aeb234a5
b5d24bda
4262856a
aff23139
89aa6d8d
214abbd2
26641477
992eae6e
a326fb70
c00bf668
dfb87736
a7c973b3
c985f8b9
3930d3c5
17840390
018f1681
5472e4d3
25789ef8
09a00ad5
b047b7c6
77155a92
c857d65a
15588516
947ee3cc
bc250f2b
22dbd295
876a0894
7d8985a9
3e0e0448
897a052c
9e29b4fa
07d153a1
247e854f
ed97ad90
5312bed9
805c6c6d
4ce26d27
aa48a2a1
5c4679ac
cb0b8d49
4384d8b0
fcfcabcc
b4812efd
ce7e09a1
8d96c61e
e23ea7ec
e10a5b88
6075bbac
bba7bc82
74b879f5
24a9829f
779bd3b7
69177e86
164ce477
a1f862dd
6d9e0898
26131fa1
20568c8e
3125a912
e31514fe
409ccdfd
185e2df9
b3fbe0f2
1c2ab44e
428f8179
593b439b
ad8ae035
eafc282b
e7b93af4
2e104e82
7dc6683e
fb9b34b7
3e03c698
5a098f1a
2c74cedd
d23388e4
d367ce3e
802bf384
621e68b6
04fd4793
af3638f7
cfafd22f
c1cd67d6
9b20f718
e09f1f03
54186d85
8a0c0c34
1a5289a6
fbb79e26
ea1fbe54
cd069825
5feb50f3
ebef23e1
8b236512
fd5d7da9
26a5ca8a
cad546e3
51afbbf1
4e296fb7
d86d26ce
ee5e90ee
c2e6f10f
efcd3bc3
dca2d7d2
dbbd2ff8
87aeee81
7da89ec7
3c6a200f
8bfac31b
89037d0d
d92579a1
53c3bc48
d70633f4
8a7bc085
1011716b
34fa7f3a
3e0fa036
20bc8600
2ee5aa3d
777a2716
cc10dc96
b2a7fd8f
0b0a72a8
561fd5c3
0c88d144
649b73de
b3750243
7e486a76
344a3f4e
eea8d29e
02c7b6f9
68518acf
68fc1728
fd844c2b
520c54fe
104f6188
1839191e
f2f54896
5490d021
9993949d
d70db242
99ccbdd9
e4d0ab13
1868e1c6
06d0ca3b
8e1c9441
4cc942b9
d0c68f20
14ddb2f7
58205c4a
8e3a4311
e48b9505
b8431be3
36ad710b
255def77
20573e12
b19b2400
52a67f8c
78618729
3763f720
c4cbd794
ee2882fa
8f12b246
ed3ae631
030ce833
7fba37ac
26abbe92
a2c97f8c
bc3d57f9
97a7a545
d429bb4c
dffeeccc
bb009bbf
1c38139c
12a15fd6
edcf38e4
c4f45b9f
37a4706e
161b66c5
be49570e
19833e5e
a67e55fd
2fd687a0
45d3f124
0bb6bcbd
c3a484d8
e200b334
3afc5f12
3725998c
09b74007
f4875ca6
8f0df711
35d01ac3
18a1a0ba
265fe306
9685c27e
abcdd1d7
6ca905f9
caf6ecf1
2eb7a224
f93454b6
4105eb0d
06aead7b
84e9f877
1e8a9275
8d95fe46
1f1b899f
49a2942d
d7a75432
4b452cc2
c33f6b2e
25bde782
cacf6e45
1701f7d9
181516f4
4ee362d6
e212021b
670f3a7f
a9c7e39a
e0e17e72
09b57f98
66f45b05
25c322e0
56357093
185e716b
1b9e5ff7
df8fb71d
f839d8d5
04d99083
d200d4b9
d7712f64
743721d3
3ad5c04a
1f069820
e90f9cb2
18113095
4f9de867
048c969f
a75e7aa1
4b14a97d
ac737b92
75b8bc12
2af989fd
51cfb635
4c111acd
790ecdfa
6ae3d40f
afa28e4d
1505c27e
391f8a4b
6bda9f01
cf63ae75
913f6c21
86715fea
fda99476
e5428e38
02c652f4
30a7d532
ea576950
fe3e44f6
472c052d
331a410e
49564012
a48bf921
def9bf49
1d5d1b1b
981660e5
8745f311
a95777ef
6367847c
eee7b63a
5b99bee5
fd601a1a
304c6af7
a6568ec9
fb12437f
2bda0b6f
41a114de
b93a7ffd
4ca627bc
6a972e08
2153f5bb
b564b393
e18d3cf9
2d7b804c
9c62dc6c
90a75c5b
81bcf2fa
7d3a5500
f9cc23ce
21bd5817
b93a9bf0
38f43f5f
23aefd17
95cb122c
efbd93ef
0a90f371
53d04539
6fe86970
04ee26c0
b7c4ec3e
159e11bf
a2ef3d91
81296517
bba7e302
c2157281
fb05035a
11660972
fca2f988
649ee8d6
ad639fe5
5c7b1f29
bea17ebd
490a8267
7c8af737
f434c323
629eb1c9
ad9b2967
8ef8a807
98c575f4
b9f9f8c3
86635753
7c7574b8
f2931012
06b4bc91
e90587ae
7fd62804
dfad0388
6d00fe89
f62f4ff8
5231e256
2df25d10
f8ae19e1
6703923e
817b2b99
80351537
b965424a
2312d5fc
367845f6
ecbe2d8b
bc8e2c41
a56cf311
c0c0eb79
0063bb01
779219ae
b45304a2
975eaf61
fe4443e5
c17c1863
3383d3d7
88c1a198
47daea0d
2064b3a7
af50ab7f
110edcca
6ac4c1ee
a0d9b1f5
87fe8178
ee9dfb64
3539637e
4aeb7bcf
19821378
15943b2f
a684d8c8
c0333cb0
d52b1c59
63e0625e
d4231880
81616521
e96e420b
7b58b7a7
8ea9c825
c955d449
a642f8c9
2442ee96
6bd05089
bb8bc269
42bb24ca
1866e307
09e20581
fbcd34a2
6004e60e
f17b08cc
8632780f
b7863f9f
1f860582
ccb91e90
05f5922b
4d58317f
7b2692e6
571f51d1
86083525
f7f431e7
0da3ca54
d21d8706
7c501928
6751368d
409a31a8
99093161
daee0551
58e9a84b
3a7a30d8
436f3fb9
12320f87
fb495ea4
29aefc23
c32c2139
59dc73bf
255f6a3e
3d28d5dc
7cbd2f93
a4ec6b06
62f54f02
6435f1f2
5a1c1872
cdea8a9b
c3acfecd
f5b787db
93a5b163
d80d32af
44fdf9db
c11b6095
f42e655f
ae644b8a
48430dd0
0d0ef8a7
1d90ae66
46aa57cf
8b67de57
428a7810
4c1ecc3c
636c29ec
46b43993
42735a7a
47565936
991903b6
4e7397d5
faec2252
027887f9
43c3957a
72179df7
668eb61d
88048660
0039b395
5b7f82a3
1ca319d6
7c3b713d
c9c6bb0b
dd00a69e
3ca5a0ea
0d587d0d
fde32e78
2df445a6
c6b7be24
d5545ec2
c13f03d0
12645115
c7b1e205
d0037739
ef802bfc
99fbe2f0
1cdeaa97
85adf2c2
f23849ac
8cb43e74
627ae16a
32b6b358
fe497df8
61c48345
6303f075
26aef8c9
b2b82fb0
7ea59c73
6cdb9393
2eca8e45
3b8e642e
5af00555
c38dfdb3
f5069cef
76b584b3
e7d08fc4
f1f42b86
fd6f47a3
f683dda7
9cbeab05
006e8824
ad4e6bc4
db62d951
33eb91ec
fbef0a62
4e6cd929
a28c8001
06649c26
b6939d19
dc226020
c220af5f
8e95739f
63465244
5a68365c
741fa749
74dca7d4
e2f40632
3078e80e
e094dad2
af4590a3
81ee4a74
4259a4c7
acd2c5c5
25a01db2
c2cf14b5
4a155f43
366cc603
dbdddb39
3056872d
8235cc0d
af4c4f07
1019b0f0
40b6a560
c68cd0ea
0780c3a3
aed9f04f
bbe78349
084db96e
160d9950
31e81777
ae1ea33d
fdb54cdf
b6a890e4
2adf2770
21160cc3
bc52db6e
996c56a2
99eb4180
952eede5
c78c4514
dc5666b4
e225da9e
48606df0
e418d3b3
d606cbf4
0875e098
7b748a09
cf6a49af
399dc57f
fb87f998
3e0b971f
23ef6fcd
f7ae47f4
297c392d
633bba0f
e2f08119
20e24665
07301440
c342e71e
7697eacc
79e12d53
534dd225
ea4c8b98
92272049
31657fda
ede6face
e57760f4
489c4803
94c89743
0c5d069a
66f6364d
13596b81
6571cebc
c0d12fac
8e38e932
c1a28a3e
983243ad
bd44b22a
324114eb
ce571914
e50b476a
13387411
1c28c344
fb9b1b9e
b00221e7
e423d0ef
49fd3d9d
dd3533b8
d083a785
35c178ad
2465015f
f3255f65
19736c6d
7a301c0c
c062cd66
e99b9ade
05e6dc76
809e4144
7f7e50fd
3dcd1ee3
743c59d3
f8b36c55
4540b3cd
3135e1ed
aadd57dc
f56a010d
8ffaf4bd
a95b6c9f
8a509772
10b598e8
2a5d4088
a6728c60
3ea22ae9
6182ea69
1dc24d08
7d0e964d
617d15a5
509e9715
1d54307a
19acb410
00b1968c
854cebb4
df059c89
91c6f8f9
a5c4d69a
290b8979
39119807
fbd600c6
61609762
c2b04aa7
36aae864
3b2f84b0
dc82996d
6d1eee8c
ba684a30
8a11d89a
a907d84c
200e92f9
3b075023
ddabcaa5
4dc6b5e2
105e8d8b
03409352
8a907920
e6ee357b
996c97ec
e90fe99e
752b1ca6
9d172275
5897bb18
7eb8125c
a7332e63
655b0bcd
5813335f
dd33ae4a
b0c08173
16cab211
9292e8fb
31916e59
96bd5519
6bf41a31
fd2ca5a0
05fac274
e233e42d
bec4fd98
65aefa92
6074bb6c
e5d47fb0
85c1155f
b4559930
39d4ef1d
b3cffb3e
f714b491
18c1b96f
d147c682
7ec393df
db3b6e95
4c919268
6f392a67
3471abb4
08d27a83
fb39decf
7e195f78
f3ade818
8befedf2
4e2f8524
ae4e4cbe
7ac67b2e
a0979687
59228fdb
eb96621b
b401d3d7
7efa3504
59c8a899
d0ac91ee
7f3ec2e1
282fa266
e4b99d41
eff67052
249384c2
19dce8bb
b8753d97
4525f9b0
8d95efcb
8d01707c
9bacc9e2
8e1a9470
e9f85577
0f4a45a9
5c506bb9
29d0dfa8
3b665827
c7422228
fee13d67
b0985205
4827ba6d
b9df91da
4d93005b
b91531ab
7f4bf9a0
92e23236
efcd4399
178b4852
bb7f3e40
d2a8536f
8913917f
60e215d1
7f62ad5b
08515b86
0117ddb1
bacecf19
7f5a8421
fede7aa3
78b7be11
0cf82bee
77a0ab7d
8e180122
5b71aafa
6ceb968f
cf7e70c4
481af10d
37a49fa3
eede2961
b5fbfda1
f7293b2d
b1ee6bc1
a8fc7936
38a84d33
91663d35
06aac8c3
43c24bf6
62ed51e5
d1e2c544
3820293d
0f9ef4ab
31db81cd
ad8b2cd5
7a36390a
dbbb8612
43a48071
826f824d
5401d0fe
8c45ab5d
dd6643bb
014c1325
4e9f8457
b7004209
2454d2aa
abaf42e4
e36ba738
3e97e879
04a59448
f64ba0c2
0deb8fcd
260b9dce
bd7fa780
2729e3b6
e4a6e670
bce633d0
489e9002
e1ec5418
f0dfa89e
2f1d4df9
0fc51350
9f6f2d0b
63a25a72
6170209e
a38aaf43
e308e04f
ab5e61d5
e48e3543
c3238c4f
a4be0293
e88a4fad
cdcba3f7
13231d88
a17792c1
0c0849f4
bd0ba0d5
5858405f
3a0cfb08
da7857ce
745e954d
295efaa5
8278c21c
11d48b5c
1356538f
27e7308b
2ea42c1f
04ebe366
f2025299
1e37bd59
3ecbb5ca
9dd06c68
7ca228cf
db611950
3b0d1c2d
ac463ea7
18625dbc
bf9288c9
8e5dac8a
97df0226
f013f460
d0bfe52e
5e8d4de6
6025c596
0f08fe6b
616c815c
d0b3bf1a
0258d5e2
a9849569
63ac3b3d
1bc86545
253ea3f6
c4074772
dc1d0c1f
a8e02845
11f7f12c
d32712b8
5ea059a3
9e698ecd
04fb9845
8b4cc6c0
a3256b6f
3a70da08
3472ca99
f522b9f6
4762d78a
97e2cf3c
50721d0c
4f4c9103
dfd0557d
f41171ba
21230221
80e805bc
7555c0a0
8583b777
f7418269
3a6e5baf
d3279c4e
c1b10bcd
ac409a0a
122c6199
4db856cf
859650c1
c6b299c8
778164d1
6e5ddeb1
c308f2b1
42734789
05f04268
2724903d
a7ac6af6
37b318c8
d056a6a1
869415de
73b809c9
8a322b46
effa17de
ac5d2965
abb25b62
f452f2d0
04d3a8c2
366dae18
d48ec7fc
90844798
35375a65
0d15cbd8
4583b1a0
c67f66a6
01e931f8
7e18e794
2049706c
157f3eb9
4f822c98
c256a45c
01bec711
ef426e23
43ab3369
8a6b0c0a
e5fc790e
4bd9b3cd
fad9b229
6b4c5aef
e5689c48
046b9fca
f0694def
3a6a7543
f4896b97
5a33e6d6
f1ad5cea
76151959
b7979a91
14c4cc98
d96d4ee0
d3305b5f
81c87581
14a8432a
3fedc26b
96874952
4a06fe25
ec6c24c1
8967039f
a02ba8f3
cfcadeba
11c7b8c3
9ed9407f
9c42bdc7
e660c9a5
c83bd42c
77c4b61a
f38c7a0f
50d826f6
71582a32
71b8b1ea
2cd2d87d
32910dbd
96845921
8823e82b
7e61daba
d1469d75
902ded30
debb8341
a4b198e4
ecd683f3
fb5e5721
37a9afd8
d97434e9
fd519b2f
9ab5975b
9e7bdf65
82ef82b8
de1101da
38f27c0c
4f35f417
3cab622b
3c4e0f7a
4b6cd32e
26fb4379
f7557af3
910fa7eb
0f64ea76
569efb7b
1a18d917
9d0b4903
ccdb1342
80221005
7fcfa617
8f8a3ab8
1bb3d3dc
f02a9453
fbbf44b1
4f92e3a6
b7bd0ba8
6d0bbbef
3a25e7a8
0d3c7a11
0d229786
100b5dc1
7c6f196a
9a13a2f8
573715c2
7e2caf75
3a77b87c
ac91bd30
2e72d6e9
ac5e5477
9ec4faf7
2642f93f
477d70d2
5234a5a9
a866fbca
dd42c982
d3a3a6d8
e1a8f438
f46262f2
54acee01
b8f8e0bc
c3a58eec
f6c985ea
699e1492
7c4a98d9
5064d645
fb41ad4f
75cee7c8
5f7696b9
ced9cb62
230e3541
c88a2150
06be1b43
4600db75
4dc34aa2
465d44df
fa148da9
ab3961a2
7ebc4e94
abf5dda3
d3460be0
16f45ef5
2bcdf48e
44eba0b1
fb5e4dda
387c8f19
dcc15f52
238eb274
cebb82cc
f71db2c4
4c5d9a5e
f3b874a7
c878da6a
1bb8a1ee
f213f963
740311db
e55619a2
201662fe
14b2f7f8
01366ad4
6f8a2363
5c30e1d9
ad518824
3ebc8e21
23a8e3b2
196cb135
448569aa
6c8b1fc5
f72b7feb
15eeb9ee
0a252403
cbf552cf
c329da84
cc9c0af0
8c2ad4e7
67349886
5b13136a
9cb2d5a6
c3dc4506
5498d5c2
c5612a2f
d224fadb
aed21dbd
5116e455
9c6c8b0c
7ef457b9
46d3d4e2
ea66b3c7
6d068636
a245d109
9d64ec5a
d213bc72
648fc5fe
3066194c
68d01279
005c8a56
d173cac7
fac6b39b
a7267d86
b00779ac
bd0b845b
c86d2ef4
27e383ce
e3bb57f9
3f7d0be4
f851b6ed
14a959b2
c98d1c5a
112f1384
00017a11
7d14e582
6b948e8e
8fe1a2c6
91f291c7
5839aa1a
dce9d4de
edf5076b
02b20171
e2e3d02c
10639c33
c6d22d23
f994d63f
91f14b8f
667b28fd
461c019f
ad2ea0c7
a73f4ced
0f555c34
6cadd71d
507c7b81
736e094c
a68c72f1
21d7cad8
4946788e
72c9ad35
56086bcd
69aac5f2
93f93773
65581140
7f2e0f55
0dc98464
6d5c0dcc
15193330
df91b9bd
81cb95d4
322e2574
9e491b50
17f7d590
78f9adbb
a1bbc1a6
76aae23b
d5f07786
918a388c
6025da1e
2faf10c9
83b39171
7caa9c03
fb166feb
3f8ad7f7
c6272e00
70934e5d
ba4cc25d
e8e34fa2
e50da699
ea3d1485
86f8a595
23cbb299
25884f60
0c5884f8
28fd869d
2b4a66f0
1631fb61
3c4ac22d
ce9e0c8d
fa0c9caf
e053b665
14196969
7b5e79ad
c74fbd83
2fe8b593
b62ca812
5530abdb
e4f30df6
8d78892f
cbbf6582
e01cacbe
bc3c5502
680f966d
fd8f085e
4b3e8e13
1a3ba77a
3f247a5c
7ca67950
28cdea21
7e7ede49
3726fa18
07fea20d
743f1796
86e9b374
a78028a0
b909aca1
d97b33e1
020e4417
80b5eb91
f9a23979
fb394bc3
a3e34040
3913d16b
2e40d686
76f72d2d
af665a6b
638b0082
5bb2fed5
1a59fab8
9df45fcb
fab04c75
9b343b22
a231bf50
5e9212c9
588fba29
c7914b79
799b4c57
75014496
d0e605a3
91a03e71
9b6eee7c
b133d2e1
3f7de7fd
e0b23662
de4dc8f2
1caa42d7
8df67e74
3af9c872
82643e7f
68b2d682
f01df5be
f92dc779
898dd808
67455d4d
108e39c2
b688fda6
54e2cb77
00d202cf
fad2e029
9efd9a80
a9cb2488
a5b99b9c
5e3cfe7c
0c8556a0
33119122
65f04123
927abf83
d84c5469
35ef519a
f3d9c766
18205023
23548a5d
404817be
6cb54209
09996d91
0ad9750a
167b498a
a99e91c1
04f3346d
3d3c91b1
0ebf25a3
1394df78
25675d8f
6d862b59
ea5a57ec
9b525b72
d9dd18d5
f3f749dc
a2586355
900ccffb
0912ab43
6fef3ec9
fc0901de
ee001e09
a7153551
0bf51bcd
3ed64912
c366799b
71dbd947
563c51f2
46c6769f
f8b74710
f8da7a4f
dfa79164
b4d6b328
96bda646
5aa57298
b877a05e
b900753a
bb987afc
be2b5e08
802c68be
c9b83396
994b78e9
fb6d08ce
1d4f2891
1aa264c6
1808744e
bfcb8bbb
d868f984
4889422e
f415eb85
3efba189
153edbd2
9650e953
6f6a7add
35814006
002c78de
874476a8
c39b8289
46554c37
72486b45
1f03c00e
6e6d8d4c
066d6924
d9a5bc38
a4d508ef
3647a793
3489e086
abcffd9b
2e97fb69
0cb7ea86
1293b901
0a60266d
035dfce1
fabadc84
93b0cb4b
d2aaa5e0
771c9ecf
ed3a6cd3
95238008
176d1fe5
e6ca5732
a561d2d5
396435e1
0b105e10
06e4d855
6de5884e
f5227917
897796f1
83f89375
78380c1a
78d05ba7
5316666b
bd2a5404
9f62a1d0
dc5252c6
b7f8dc6b
7ecd7891
2bcaf213
6506d801
b401cd7e
1c449f00
62726f1c
254ea7a7
e5eb9edf
7ce1443e
10cd945f
f8e23680
3729334f
56310c63
5d7d05df
5b027181
849410b2
c4c04ce9
4a75e279
18f61c35
e4b7c5d4
3adfb4d4
2ace0bc8
546cd73e
d8a3cf8f
8ca1db4d
8dd68102
0bc843b9
fce17f9d
245e4548
636fd10b
36232d1d
3d3534f9
b95398e0
29faa3e1
8d3f2924
5620c12e
8c4ef8dc
0cde2f8a
d92a6cf8
7692dd39
556ff5b4
5fe9d4d5
d441844d
cfdf693d
d45b8129
19bf52ad
36e17eda
1cf84b55
303fee85
c46fdca0
3e85d9c7
848320a3
41f2a6c6
61dfef36
c404c3d4
e64ed058
2c2e3b82
269f1ebc
5118c590
443a9045
d63d04bf
fc03e16e
aaa1f30e
8a7f7a81
72da9d87
8a1780db
e2187c4d
15062f61
f47c8d52
f5c91150
c7b8b5c2
57b0b57e
9afb1b89
893d373b
ee896533
e84735ce
fae40a95
c13aee56
14829c4b
62669a7d
7d86ec0f
61ecdefc
d8356650
fe1eb1a6
19d4c569
37dd07d8
28dbbcef
638170b3
309cb833
051825fa
35c2dc1a
54dbc909
e960f58c
5959dd19
411a22a7
0602be56
b1ba770e
f9de885f
da272741
3797bb29
1214abaf
49b8ce3e
69fbfec8
14abe6fd
8c530796
f50ae736
e0f93854
d482bb5e
3baca6f3
58b2e0df
69c122ba
8bbde56d
aa46ace0
8801235b
89b9788d
cba4bd78
cd41de5c
6cf4f7ce
0522450e
74cbf6a5
f090bac2
c7e240eb
02ed7ddf
0533f0ac
ce48e1d0
9f021e69
86928f82
ca3a29ec
e5b12e2a
a8f71646
b98a3225
c25fbd43
a01f5ab9
3041383e
cc41e437
c54152af
938f016a
f779f067
ef99feb9
7e582426
b3dd4a3b
09ecc35e
b66cc13d
fdda75ac
cf3384d7
874b8194
584dd62b
fe96c6c2
5b76b77f
d91c3f55
869afdde
35bee62e
90769cca
e76e1e6a
9cbfb22d
704ae48e
309bedd7
bb34090f
7b08bb57
e7bd18ca
8f9e7138
5343c502
0071feea
be6859a6
5f1b4a39
7289ed66
349e5851
2552a6ad
1d13ba79
7af767e7
e11531c7
46b02f97
4a6799dd
f52477b8
6fcd93e5
1b6fa87f
46fc1429
422c33b4
7f72e621
0f8eddfd
5bea160b
8978134e
a762ba50
02476506
2eaea379
23c3595e
cb8b0e5d
0be5a9ed
b0bb7646
4118122f
9ca3fa25
82222736
1894ba0c
16341653
ca17e11c
cf9ebb67
2c47ec38
3c799b0d
4da74ea1
2968bd76
900d163f
91d210f5
03b5f69d
88356229
f197b991
d254b30e
d9e40de4
6be8126a
00cadd1e
50589be2
07936f84
07e7ae21
6d4bae32
6abd74aa
db33023b
21b56b68
f5ca04c1
0925ecf1
0c50f1a9
83cc4a13
eece5ee1
1305d913
ab3de7f7
3cd0f8cc
b45d44df
15e2640b
89bbb605
1f891ebe
bc2f7b49
ee7dc6a6
d2b72661
65d91575
f8ddcef0
377660f8
99bccdd8
7352bae6
3e085794
968b1185
f7171180
16ab8997
7ea033bf
18d223e5
81af70ec
c4948261
67aa776b
ea991862
cf2ac22a
c3045b2e
09e53cec
c56ca593
5ee303b0
1c73f936
8e417dab
c3295fb8
4a483c1e
c8dd4704
cf552bd4
bb0fad5e
7d564791
1a558694
6375fbe3
3c9696e3
d06a7bcc
078bfb3b
5f28bcad
496a61ac
6a187bd7
cdd4fdd6
dbe5a0f5
a32eb2b0
c324cb75
2d539616
26d19d37
c564ae67
c679ce28
18c8efdd
6d09cc0e
8a2930c5
c2a1e794
91141e19
96fee51c
7409ae2c
6068dd30
2fb42356
512b5608
bca529af
da6d0d18
99a1f603
0cb28689
39ccd893
f81b8297
76f7d327
fa84369a
a532681b
19f47662
bf12b898
0f134440
3c6d5db1
5a11c825
524b3434
c29d3432
02fa336e
b9cad0e3
315a7fd6
5157aaa9
472e8e26
a6e9630e
9ff4a915
26a7eee4
62047045
bce5d7de
467ace56
030875da
62afa28e
4dfbb6e8
fac9f46a
b331c29d
4bd30dc7
68c8b209
629ed247
4cbf5289
19c2e974
0d0565ec
ae8a93a0
5039c235
53fc662d
ca9f2780
e90fa7cc
baec8d5a
bb4686b8
495c2169
fea7b98d
9a8d35f6
3aeea9e9
c01329ed
2b2c4e3a
dfcb4e27
cb45761d
72eb16d5
dd1ffa6c
9e19476f
d5f94179
41ce76dd
a4a25cdb
f218bcf6
46f61233
eb50f5d0
5c334f02
47867ee4
6f866721
12b5aece
5da9db58
ba780301
6b253fe5
0b4a79d6
ae7fa568
66f2b6ed
fb19a4dc
72567c9f
901cd59f
13d2b765
4664b635
29d8dcb9
486fe385
e74335d4
5d305b97
82ed3585
90f14216
afe29da9
004218df
018c97e6
3c4f39c8
242eafd0
6729ad53
d73d6f69
d8d9d8fb
d9f8be41
affd52ca
079fa17e
07130209
bb6e9d5f
4418254d
a9ad3349
e9d65538
f324f16d
8de2cd14
00349d6f
3d1ffd30
f8237a16
a06ec869
513b36bc
a1bf2acd
52f9bc54
70ac5998
005e84a0
0ba4583e
942f1a3c
5938e585
7ab105eb
2f07189a
0bbe876f
bd77f5c5
ac4074e1
454de237
49a69329
f17370d6
2b68a5e3
3e19d0ed
b75705f3
d5fee8dc
386af4be
0d266db5
8a4772e1
8bc13c89
3efc2738
d4032742
e3ddc77b
4a8ccb85
85f112b3
6973d128
5ffdacf9
17026b3f
d5803e63
2bdb48e9
21d2043a
d734d87c
2db7eeda
99583960
bdbf7ba6
3077e1b6
39198f5d
16cb6878
aaa04fcd
d455265d
8718f406
111814cc
1980cebb
36afaa6d
3bef1977
3f40dab1
c8cf0942
e0f9407c
cc462f68
1a2f2508
0bacc233
694dd204
70a2a992
a654874c
d5077669
fc5bb83b
7c71e68b
5a79609f
aecfab49
29da6bf7
fcde812e
7f71799c
b17f197c
dd3751b3
b13bb511
7f1247b1
dcaed41a
6b58a7b9
3ff95a56
a9cf3de0
a9e5aa33
eaef2fb5
c9d18094
ee3abf20
552506a2
a881bb24
f37dad1b
81cf635b
f84dbe29
b065e1ea
a90fbdfb
3b0d2b05
3ea3b1a4
3ccfd355
b37f120a
a55c9332
80122f8a
98b935e9
5a76d3bd
dccf5ef4
eff7d220
2faaa675
6789f42d
d21935dd
6fe9e04e
dc2ba622
3df6785d
a189a657
d98aac2c
55794094
e28a17cd
44d8c200
354fe90a
69705988
6e46954c
bcb66cfd
275125b3
f7226b5f
cf4d1458
902b5086
df3f8348
d945c6b6
19933b14
c06a4279
b7ee509f
9457623c
e3b7e184
3279b58a
0d3977e4
f5fa3d8d
13b24ec4
5f9e783d
7743d536
ddb62d2c
527bb017
f454298e
60016a0c
e5dc70cb
376714a3
a346f259
34aa18cf
489cd6f9
130196b5
7d16f501
452099cd
2570c6ef
60f291e6
0272f61e
f509084b
8bb006b1
0b531378
430a7427
a0c549f0
ef5034ee
e7c61923
02f5309c
68af2c93
660c89e6
038cbdb2
62df1a91
0834c8f3
eef38b56
52291237
01a9c56d
c1cfca3f
dc5596e3
91e4910c
7f8a648a
008b4838
3ebde2b6
f7de0e85
b4264be5
a1ca6352
8cf0b96a
7ed8a269
a8243f4c
764a4228
aa077ff7
37890de0
e2b0409c
eceac15a
b4fd0578
f7a14709
1e2f190b
ef6413bd
435eae89
9c811c39
b3efa761
3cd88742
2c91ebe1
1322ab84
2bc11e00
b9404f8f
fb5e1ea1
f084c01a
0a2d1bce
3933446b
b9d698bb
5618f1f4
06a42afb
500eb5ba
acd4b7da
61df31be
294d2738
d013c20d
114b63c4
537722b0
a00b7a51
7afd1265
a043db06
436b0790
4cdb0d0d
752252cf
e093edc2
65ada3e4
0ae47f64
211a36e2
6147fd1c
5a89cf77
3fb15d6b
b85aab89
83fb88cf
24f0882d
f031f3eb
350cdb29
99214f49
b3d464c1
193c71d8
fdafec29
8ca8b1cd
debd1cda
2927659e
14107967
16d579c7
e4381130
8732370e
d95dc706
6ee43370
6040e634
527315e4
7daacd1f
939a1c1a
fa1ac367
b81c7bd6
5892afb5
1abae6eb
0ba6186d
de2d0536
e8877f8e
bb5bfd82
c57fe5de
72700a61
8ab71678
6f184225
1a9ae5ee
48b8d638
c55ae2f4
090e5cd3
091173c6
1b436298
f7486395
4e79fbe5
3eb27f8e
62ea0784
dd128321
9acc3f59
e8832d73
f5d69e7d
d693681a
7304208a
b6bd42eb
c09dbd6a
0535b5a2
8612f4e6
4ba44f6e
f3576b00
3599d8ea
6f7372a2
d8e6b907
223bbef9
56637857
cb25331a
2e8d877e
cd798ca7
b1e438f2
35c33db5
da3ef4b0
a9d653f1
ecd63647
2aba6b80
64aa6872
b3d6d6c6
20f79415
a8a4f90a
dc60227c
26eb14e1
149dc930
b5f1cfaf
21609bc7
42fae977
ee3426ab
d2d2a69a
08121d16
a9ec2eab
cc58b28b
a9dc5d90
3924f220
ded05182
1a37ddfb
1c010291
9edd1c1f
381c21aa
d36b4842
d84305f8
25da9e91
d07284f7
78430377
febab57f
59ea4b03
2ecb7c87
d0f6978b
049498ea
3ef06c95
e2d5d74a
d7fc52f9
dddfcd54
24a26903
946ac6db
61d93914
54f4dfa0
6c741259
7d4b8213
f4bfae93
07470324
0e0b1279
e8501e10
d9cdb8aa
3602cecd
2eb1fa3b
cd775bfd
0212c6e7
6d3b0167
bedd0786
a649d3bb
27af6c9c
6f590bd0
f635d1bd
f3206723
aceee5a0
a1c2082c
22e31142
adf42ff9
1ce7fc8d
885b717c
cb226faa
724dab68
505f80d0
d140934e
033151cc
43c51bc2
3405c196
2ccebcf2
c7711e09
e5a9bbb2
a0790c17
29c54b4f
bef5c062
43acd458
109dfe2b
14348dc8
f8d87d8e
961e245c
ab757e54
774eceb6
708795a2
ab9f61e8
66ed43d7
94fa38fb
9af66771
b4d9c119
03e0af14
36d53270
1351f0ef
e891d91a
22466807
31a4b88c
baa3fa40
fd7d95b2
d144aeb7
2bbe31dc
2f61940e
17562319
ca9defc5
bf138d9e
254f9ffc
7a56b7b8
dde938cc
39c607ce
7e9f4116
bf202446
38ae200b
df6dc7fe
25a2cf5a
9932dcc5
70b0b40e
aaf02429
d8aef119
da41db1a
d5c096b6
4e9e19e5
cec6c5b1
02210747
dfd89363
124cf6c0
83a55a54
129cc212
d0908f45
9d7a38a2
af7234c5
3db1c11a
a1dee0f1
d80bb394
dc9afd24
0b2f9ad8
b19ab8a3
d4f1b24f
e1e2184d
bd89f7e0
e520914f
fd403f3d
16a3e13a
f80a16cb
1c90f2bd
2dc63942
bb8a89bb
5622fd4a
12fb1800
0f8d8414
8c309a4b
f2f8ca95
54cd366a
560d91c9
7b61f89d
7aeee77b
e4c6d48e
e0716d4b
e670de53
9efc1f18
df604f97
d59ac8e4
3c7f3c1c
4b3c2d39
cbbe4321
b9488977
00cb28a5
11d5d1cf
39792039
131ff245
2becc650
d18167ee
531eb359
cd6ff46b
af90c560
8c62a447
85859e6d
3311d79e
879c9dab
2372a728
972b7ac7
d5a6c652
76602f8d
5ce1f9a1
a89cf9bd
94cc68a3
f0c7f25b
39984a64
340a21d3
99bf6300
5ac1f54f
fe456641
b792d659
1c7afe86
c6ded081
6eb47e4d
05e8d7e7
a344f1e6
ee556c42
42683cd8
a57ef992
1cf131e4
e7345f9b
896ff010
0f9ce794
12d691fb
995c0200
fe405cfb
2494e917
9b9941cc
7c4edfb4
52f26f9f
c507b96c
96dfe19a
7eba2639
34a8e1fa
1a683778
b33e0cf6
7a055a79
a9d99631
c38e6a86
72a72efc
9813819b
ddb61dfb
4d799e67
8436c907
a876161a
9fb83d87
707af227
48fb43d7
9331889b
304ba3d9
e4c4ca13
2248a644
e9aa6f33
06c85cbe
b35a7134
4868ba3d
63d44c9f
715ccb59
ebc7ea89
af046195
f2d6fe09
adec519e
bb392248
a482a72f
fb22c043
9cc88412
7c4e6714
c9a2311d
35d7c2fd
519e0dc3
28addd01
d69e78a0
fae90af8
cd6d85f1
c74efae9
22e37db6
c8a75581
02a034f9
d62e6b49
e5b0ae4b
186cb6fa
bc382eae
b7ed61ce
952b3932
7640c361
483d86a1
a8265772
af0de355
e8c850e8
980a52b8
29cf99e6
44b7b2da
f16dcab3
484e175b
ec819fc7
c723aedb
b95d3132
94a3d7a3
f3d2a041
b67a98fc
90729139
a26a4fd5
ec9573ad
ef73cc2d
a89af76d
3ac8e623
8cbfca81
5d7ece98
440a1399
0416d466
d74abad4
0c9e14c9
7f8ffd79
41fcafb2
2fceb00d
c507bc5a
a5b901c0
1d9f5e82
6f0e6c34
0e5b9adf
7e6c45df
aa9d78c7
e9579747
0c96b13b
9f50a10a
799151e7
804ea1ae
d90fe2f3
f6217417
854913ad
b8609874
55b8fbed
542e6f0e
4233ac61
950e3cd1
97efb1f0
8711e91f
835b2299
90a40e56
9e7e6871
e614ac7c
45c899e2
491e1a28
fc140530
34ae8b3b
11e2b662
f50bce7a
10275bfe
c85df043
cbb1aced
e170a6c4
968899c4
79b74ecf
1642f16a
12412633
d3cc4f68
57820495
fe499264
3a5566ce
c7995545
6238a62e
686e7cb8
db34910e
9bed3249
2c417723
cddb4225
3e4ece8e
239f5381
4462d99b
e26adf62
d304e0d3
397ce679
a3bedde7
28416c5b
ab720c9e
4c20445d
8d71b446
8066edb5
9d8cd7e3
a2a3f255
c8302ec0
891af9c1
d7fb0d21
9d8090dc
ec22466b
34019791
38f380e2
3168c35d
c5a045d1
db9e76cb
a0afd017
da83d302
af9a7f7c
5e33bd06
36bfda72
62b87c73
164c4a6e
ed01c1dc
fba646e3
022e1982
73d35001
eeeb0ca7
d678c143
27adc15c
d043f0f4
fa266aba
345c9bb2
57e32132
c024f45c
047b5f6e
b51378c9
248f0317
ed3d1675
479adb74
a5cf170e
35cb80dc
0e336d04
4f7b416c
74e71235
63de4887
469a3b51
57b6bccb
abdbf161
cd42e6a2
a3d26d28
aaac2ca4
8e65d426
7c65a5e9
3ee8422e
87f609f6
6b90731a
f40403ab
014cd50c
d7446381
d13c79e9
d293dc74
9550d60a
e0e736c0
c554beda
51a57af5
f3b269fd
aa40b8d2
3d0d8412
1f6de497
de128130
d928f781
9513b93b
c51e60fc
567f6a6f
066609a1
62635faf
262b189f
a239d7d4
fc4bb95b
5dd3531f
210cc33c
91210c76
0dc1d64d
b7568a3b
e414e8a7
0ce8aeda
9a0a77a9
e331fb02
0623e773
ee312efc
c89c5e20
041750a0
14875ce5
243c81e1
db00229e
0aa0975b
25c891ef
1bbebe9c
20b7983d
b6eb127e
52cb43b2
5f72a882
7b2cc2c6
28d9dafe
47d17ca1
9ab689b2
9c166521
04282898
f234181e
482b7308
2c1fc5d8
59d1095c
e7775f09
8b8b8dc7
0b0ad0fe
0d75dbe6
781acfbd
76894479
9bb75f06
c6a7fae6
bf2186b5
8639d5c4
fd87e703
3b8dd731
d618248c
9a8688e6
acba7d75
89e02b06
b2e0d1a0
b274eaa2
7450c842
af10d0be
a9a86eaf
e40c77ac
29d11374
d22db941
f347bfac
b0b63799
7ef6f936
84a4d1b4
80fbb927
d5a9eeb3
c636c632
e192df37
66e97ab7
609c4d9a
dbf32216
b1b3f4f4
f0f9bab8
005fb35b
f25349c8
a89b7a8e
5c42edac
aee43817
67b94e72
c12cee3a
e980dd52
3457cf8e
0752285c
470c7827
44578220
dab20151
2beb52fd
55ea45a3
056e56b1
2ec9052f
2781cf27
4a468adc
4f7062d2
fe3671e1
95f32a37
17f1d7e3
1393ae12
2370d80d
782febcc
b29dac8a
8a0f993c
262e86e3
bf597c1e
25a6bfa5
b638c8e8
1b85c016
a8d5f79c
c995bc34
ba3400f5
63ca8244
ecf67dd7
06e47069
88153256
07a8650a
772bc09b
daf9e40b
2fa7ddca
27523dd5
cd0a645a
cdec47ee
1009752f
76361cbf
534929ea
860b4a2b
7832ce71
320767de
c6279a8c
5bd7b5d6
e7cbcc9b
05130792
26d6714d
80f949b3
9d05770f
fb0b8bdb
7ce66415
c99a4f01
c548269f
75646266
6c279290
ce72eeef
c5cd1481
7c9002e7
027475f7
3fa879e7
a53697d5
d7de5775
0e15ae2a
e008bb97
a7712087
8d0e3a48
e3a5f456
c20493b3
0fd37efa
f0ac8129
a5d1c827
14131920
423ebd4c
3f7c019b
b95d9e14
6e52578a
3989f9ac
c37b9aed
9e1ecce1
ddfa2c90
799d8109
8d1fbff4
e880a412
920fb88c
073ba02b
ddd17d24
a9b3a670
85550d94
65231691
e2832bd0
860275ec
d1f791b9
cd3324b6
d3b069cb
63acf15c
cd4399a7
66c827b5
05ec25a4
1e318387
05751b5f
19118ff8
72d83e8c
73fdf559
6cf53c69
60179901
d1275b68
a8c7167b
b4621a01
d6b3c2e6
f8fc495b
932c8ec8
029e7e5f
106eb28d
1fea9624
6bc87d4b
c83a86b5
ac5211d6
70b223cb
ef263a31
d95509dc
39f8ddbf
d9fc956d
1a5c6942
a753b8a2
69a1ba55
690b3969
0e5cb246
51c9d5ce
9c419731
d49ccc02
2bfa3b82
49482368
5eb24040
f8c8237a
6850d8fd
9e060d81
dbf3b19d
cec511a7
44e9f20d
4cf4a724
cde489c7
7743d034
a6902ddb
63ca08cd
fa42b45a
87168d3a
e2e8ddf4
7c863caa
28b2c6b7
97caa0fc
6c64a6c9
9cd456fe
e6acea30
d000f0de
af7921fc
91d3db42
865e6d6a
c7c36be2
1cc3c006
ec63a271
260960dc
10724651
ddeffe8f
a6c44c7e
5211b660
58cb06df
ee0d6a65
0b007ef2
e7199c42
94783b12
8d6cb7cf
320ca71b
caaef41d
eccef4f9
1268e18b
49d264ec
94968582
bf57a91d
569ac534
50bc7e45
76d4add1
ea880189
738ce0c7
fbdd72da
c88e16ce
269fde00
7f7be601
d1e266bc
544f1490
c8e8e0a7
391b8ee7
2b98d9fa
eb8b257d
b69fe5b1
b2a6d9fc
47f9da79
7ec63d16
987e30f4
2139cb2d
bbdbfb5f
267d6fed
45f9aec6
c1f5898e
1ea72d40
b296be0d
a38284ef
97d45b70
18699a2e
98b6d899
0b12dc19
da2eaf85
09016011
fabb2bde
6e635718
898cf5ec
4dac5861
c2d4df7c
8681fba9
0a4afe81
ae9cd0c3
5e096c07
8e66182e
a2786a86
a474ea4b
4c99b761
2c5e32a1
b8b8e3c1
e2976cfd
503f1275
22cafd95
7628c121
e167c5df
70aff857
5a979383
7c8fac95
7769a110
fb86bcec
c37f72c0
c068e28f
d8fc6f0e
f157b675
be9673a5
b9644bc8
d72cbbac
4f5fdb77
e4a9cf73
27b1135b
7f2c9e9c
fa927239
517d22eb
fa051adf
d0694d19
a4a24e04
b67f0f31
aab25b05
8dd7b314
542bf2d0
bed8c7a7
f0e109a5
5b11e99d
5625b549
94d11353
3244a796
81f3b771
de93f581
55bb5a5d
640ad40e
96ce3867
c8c32a0e
8ef8bdf6
b4dcc334
c9850bc8
0f9b9482
ea6ddd9f
bdbabc7b
efa0198e
13723121
3a2987ac
2e152a39
6ff7f26c
2c17b992
6a352918
291b5539
772e9228
3eb928fa
e10bcd58
6790f65c
c4f885e2
8884014e
faec0eb4
0a4749cf
d7336017
428f9672
378159dd
87dca5ad
f4529b22
81657d1c
b8c453ec
56427f6c
b2c1f254
4783c5d5
bfd8c34d
2934bf02
be3db777
df404b1d
f564fc06
75981103
b47fd240
ad900166
667eec7e
cbed436f
527d80dc
23a8b90b
c4d2ce0a
c359cf79
ca7a7eb2
bbaff063
09163622
30accbd7
6a7f5b9e
22a05bbe
ddc914f5
81b9684b
bafd8cb2
eb0d67f5
f811d3b0
8dc8a068
63fec791
9d507a50
a2cea7ea
9dfaca7c
9953b628
1118ca67
34600d21
97abfc68
14154ddf
07419a99
07a50c2e
22fbd03f
0ae4eb98
401e8587
760d7a47
5271119e
7c964e10
b016de9e
de062ac8
586fa8e4
38467971
37610424
7299b63b
bc4f92db
f5ec5f47
2c5d2ed6
476f52d7
4ef137fb
8852a687
f387d4f6
d9da1def
278f645e
29069cd3
b1bf351b
a4872456
53f728eb
dbf992bc
cf44e07f
e5b3dd27
ddcb1ead
868071cc
c9af75cd
1395bd4a
6ce19885
6d9edceb
41c99a24
5813feb5
c4221fd0
a98ed793
eab6216e
f9efa52b
d246a2b8
1289a0ce
de877e69
4aa12f6a
31e4d98b
1024ceaa
9b436777
232ccad3
662d0c58
b5a2a61a
fcedd032
b02df14b
1008bbaf
1e07479d
6c24a041
4fdf7e67
d99d7faf
4ab0339d
b8e3af9d
27a45744
0d4f0b9e
ca864922
aa2f0b13
2c68d10b
1465fc8f
a3393bd7
5a1f227b
caeafd7b
edc2756a
1cb38f96
81eef9b8
adb0750a
05184763
401cda0c
611a6e94
b37bf4c8
a3f59494
546559ab
c4187dbe
fdd68b69
87f5901f
e7d6409d
df932be5
21a02fad
19b7f48d
7091d8e2
af60dcf2
9b346807
4af31ad0
ef1fa28e
7b3b98dd
f7079355
84d6c353
be1a6bfc
9daa17be
46dd2d7c
430200ec
797a6da4
94bfca83
fed9df16
207d4c57
10f05688
41b23774
7c0f771d
13992ecc
e158bac5
44efd789
0561ea97
ee110e97
a412766d
79fc3bd3
6f8a816d
23c64282
300b7b8e
9f1069ba
a889df72
261572ea
9923a07c
8c8c14e2
18e2719b
4c26b0d9
632be0b6
b5b98e2e
0929f487
984d6c4f
014b0766
1d81a3f8
2776be53
4ca9a264
8cc60c18
d6b4b0ad
5cbcbe42
a55c30d1
2b3b62fb
52792008
52cc3058
5f5ad4f6
6bda507e
ebf0febd
37f35d9d
bbf01441
15d78f7d
2b6c48a3
fd068d9b
3242a778
99bf6b06
04e48976
6a20c9ad
886a4870
afc7c2a9
99467b35
53969936
0c7f3d2b
801e2d1b
31d525f6
d618d254
4d8db492
25c36c18
69f6475d
a4009164
bb433968
33c90905
1fca70bb
6c328e49
a44ac984
60abd45b
cd5abdcd
3de21bf6
9b0e7df7
38bd7022
1012c4ba
aaf37b48
726c9f3c
18d5acd6
7183907e
f1fb3ea7
54e4be25
d74cb495
9ee182a2
baf1faa9
ef494985
f4d1e7e4
4eaf41a5
4707926d
de3e24e2
5fd81af7
529116ea
ead04dd7
2ab69f13
5fda6b6e
1e21c71c
411f737a
b9bbd2da
430974ef
55de917b
595c376f
e3a55cc8
224e8e41
7f7f09c6
9ea84def
8939fbd4
92cf5216
5cdf921b
b07d185e
d8fd9268
1a5e6206
4f780a5e
568acd75
b3030f6a
6baf6a1a
5591b7c9
69b912e3
5bfaec09
a8124833
dd409fd2
56ea4b83
db7c880f
f6c77d51
f968a038
e9356979
f81229a5
1fdf676c
432276a1
18adb692
7ab8dfa6
4df1ed7b
241277cc
d4de633e
aa55d5e6
60716950
8eccb60e
e86291d0
0e67d48c
fe293ba6
24a52751
3565413a
30ccea49
a07113d8
63092fbe
d6f2e43d
32e8c6e7
d67f2c30
b54ac13a
aeb5533b
6c860229
089df535
408a0b71
836e096a
2022c290
08e50f6b
a20858be
5a84bca3
245ef9f4
a2cb8856
48257dba
c26a16b4
ade0bcfc
ef0b2239
bab807d4
6c789099
f01088b7
c09abb9a
6892095a
f0de58e0
43a0a407
86aef59e
153ec507
c425d511
5fa826d6
107cc337
9c50e6f4
a3899923
708ffecf
666fa0eb
d1c2d4f2
2dbb4ad7
e8e44800
9b63327d
aed5cfbc
4656a108
133b78fd
1f3eacb7
e014b3f4
66050562
b8e7a364
0ae52733
e7d42962
a3ccd19d
c26859ee
d7d7d39c
5461f9ad
7afb94ab
acafb3e5
0e4cdb72
5c585ce8
d4324e1f
fddc489b
cc1541ef
bb37bd00
35613328
f645242d
1aa7f5df
00083996
5469d458
82841400
36886dd8
0bd823c8
2a9e11d5
15cf98bf
b81da5a5
857073b3
0e7a108c
d47799aa
66a298db
ab43eead
8cd931d4
703c9621
c1c7f88d
167947d5
50b3459c
8381a078
5182c1f8
9a90f9f5
95b2e572
7cb774a6
f6c89a7d
29304749
57378ef2
3c33607a
77c32bbf
f365ae17
4b434097
862c9d7c
bdc817e6
46f4ec5a
8730a0db
757bb9b6
b7a2c76d
6a993de8
14740891
c36fb2f6
e4f49955
0861a944
85500251
7e071977
aafd0ae4
f0f3acad
b81b5f35
02832548
8d7926cd
0b6083a4
a3ea27e9
bffb8b93
b02a40b4
401413b7
e7fecbd1
db27a18e
667d187b
7eb02704
eae2ad89
2631b8cd
2feb9717
79c27aeb
d5bc0524
b01463b4
46209de5
97f454d9
eb29c20b
650fa405
a8e4070d
adfe092f
2029a5c1
4765de32
d117a0d0
d7de5039
91854525
303aea51
5c9cfd3c
f83cbab0
4747c348
9978363a
1da6f09e
b573b628
8a62aea1
a62ef14e
e313dc76
f74d5697
0663d80a
24c71028
7833c8a5
39b8362c
750fca67
5a156170
855894b5
8932440d
b8d0c29d
7ccc91e9
9d9c35bb
254b2455
6112bb7b
47f506a3
145d19dc
01c63144
120209f2
af83e38d
64211a9c
58ee786c
c8a84fce
47e7ec6a
bcdc3c5b
4bca7ebe
31faeeeb
e6cbe053
b1311df3
61cb4057
76b8a55a
f32ac4f7
d3d85d20
81954378
0b7ed211
e91b26ed
60ab731a
aef12366
37111d58
9bf709c7
56be4fec
a85b8a59
316e92a8
7c2cc84b
6913d8ef
9810899b
183bfb8e
971d9e08
07016d47
940cd88d
e20b2c52
ad9364bf
ebba30f2
d2b30190
10258156
ced224a2
8c4ba0e0
1b875ffd
45154804
d607d1b2
97eb5d42
07fce0a4
9ff634be
c8ee35d5
0124fa10
cfaed67c
9e2aeb66
c2d4abd2
0560030a
c85524e8
5980b80f
f4d7ef22
94f180b8
d3a03c70
c92d0ae3
8e0b1406
693c83f9
0a3e04dd
85ed173c
46a96a1c
8ab9fa70
0010853e
1d2d821e
b5d9ea90
068379cd
d1b49653
3130ace5
402e5279
f71ae6c1
ba8814ab
3dee9cb2
0311f00b
3f29f55d
5394bf11
5a7eebf3
60bb4e64
8ad72936
be8c3345
19962d9b
26d3b493
dbe44289
5f4b8681
7cac9759
228470b1
4af3459e
2c22f31b
d6f81241
73b3832d
3efdc22b
ee1d7ebc
05665b8b
c32ea67e
d423519b
d7011742
48bd6007
4e432ae4
8960e497
0484fd01
3f75ea0d
090a6a72
43b72cec
d63a793a
7ab68273
6530b17c
72444f3f
54ed0bb8
c9b3e26c
63bbc6e0
891c3d89
06bc1fb4
803a0e02
2ea0021e
71b34ef0
d943c5f9
870da2c9
53798959
a6866f23
83caed7d
a8c5eac9
d091fc61
968f0e74
9ca0c289
128c2564
2d805d9f
eeef8bb4
b5bc3b5f
1d01d737
bf4a50c4
15608dea
11c943e1
cd47a6a2
4011ebf8
7283d18a
ac269bb1
5c4aa11d
bd77b868
e7b3da9b
c907f3fb
f08e0fb3
43e61078
19569ce8
6b60893a
49a5b263
c79a92be
acb72eb1
5b0c7dd0
8e1f782d
a362fe98
b52491d8
d68f5dbe
3b64130b
8873b5d7
ef30daaf
ea997ecd
06ede890
88e15890
260c2739
6607f9e2
e5296d50
9583f59e
4eb214b7
7a2e3392
e11f27a6
1de993ac
89ca09a8
305fcbb5
070e3af7
91c93c4a
2dd24365
3bac4997
efc3ce87
1b29b554
187ded37
6de209cc
64a27f0e
ca315dcb
3d46a5c9
2ca3bcf3
90c63ab4
9b8d4dc2
8ec4d0a4
717c6869
838d2f34
3465e7c5
96ba8e1b
6680c9c1
d6abda5d
4fdc06f2
bc9881d3
25148b1e
09f0a4d4
56998a6a
843dedcf
a518f162
61655985
f0420f6b
824f1222
cdfac495
2a29a5d7
f5ce2be9
07e96c49
d64ffc5c
f369ec8c
56e3c999
4dd0b7ce
68c786cb
9d055f9c
470f9e7d
57d4b865
2fed8183
5bb6f0ef
200be199
dcc78d84
81f3ccf8
07545a91
7600acbb
614d9cb9
b265adba
f2870c12
160a697e
3e1c4b01
320dc8dd
14e5295e
e6c8b89d
a356dd2a
89b385eb
ccd27e03
0894019a
a213e203
428e44ef
713f3a36
14b4e92f
33582bb0
d1b936cf
42ec436c
d0207b0c
0223a866
3b6e145b
4f45fa26
c0362eaa
3fd9a1cf
c9d9a252
a6972470
9efb160a
4aa6b629
15e0eba4
0dac3cf2
cf9aa632
c3ee86ea
afefefd2
80747bdd
8c3b8f2d
870691a6
978b2ebc
15560789
164402c5
a803a0e9
15e87bc3
b62e17d5
8ac42e37
6c38ce0b
f6c47474
eebff0bc
3f03dc71
df09d6f8
2a7bb7c3
454c6dfe
3ba9d136
b0a71df0
2cc32f57
7e0d71b7
7c57a43f
6bb3c089
d88a2ee5
256dd91c
51dec33e
4b20b4a6
1c35bbe5
345cb6ec
0d2e053c
8171d07a
05a282a6
a0c57018
da442a9a
19c8a984
cf58e7d8
c0d7ccf0
ae03f5e5
e7c28d32
9e7d4abf
d20e7e67
3702c3f8
99e6fe98
50362e66
f025d7af
a4906bf0
fd05293d
dc780a75
b24618d5
2ca1eef0
87cfa09f
9deef846
2eb04a30
639ca48f
0b29bf6f
b52f27fc
d82fbeb6
617f7a48
5e425d90
cf4d615b
b4635919
9e226c11
ac8e0030
5ea69bb6
a1c8c337
9afb7392
83d85ac9
39716b67
cd2a3360
b5f5faf2
a919ec8c
4c0df0f3
b07192a0
6c955a36
7b83b247
fa5ec505
8700f6f0
dd4de87b
ccae3652
74aff609
99dff1c6
e16fded4
10471411
44e38783
4896598f
380b4177
0306aea6
0a3cd4c5
8d1b2dc8
4b490b98
0e7ad33c
a05970fd
31c20fcd
d5d2ec38
8ade2bb4
6a233324
5f270b25
63442928
c9edbbdb
7de9b8b0
3042d2a0
f0775def
4a18aa27
25eee654
ec4b12c1
7ccb3d7e
ab044fb3
4724fab4
9f5cdf52
0208351d
c028cc31
6361f069
7631e1b0
270caf78
f9f08a3a
7f5dea04
68df9fc8
e5f1bef7
3898e83f
1c8e5651
5a6307b5
6067f89d
291faf6d
021c493d
a509eba1
bbd8875f
3685c7ab
bd774419
0825986e
45719ff8
aad86e1c
54430107
d26204a2
54415d38
278fb371
203ba5c3
76ac9604
ddd19d95
5b368372
09bb6464
2f72daf6
b7fac412
ee883d10
b8931ef1
603d7749
624c7b59
26dcc9eb
30efe1ca
1a5ef40b
8666d3d7
eaba282f
6b391ac5
5f481653
c760a357
fd35db9c
ac6ab4c7
f29d65c1
495060f0
4b227b62
a9740f50
54cc6834
6f671b8f
cb063220
dc94d310
5abbe9c8
f1eb686c
f6b12581
398c2a1d
1058a17a
9560ece8
1371d72d
01b8b729
905c1afc
bb0f8755
15a71716
6a7a520b
adc10d28
d40f3a56
a12542bf
c6927af1
3ab94ae1
695c7cd7
d569dd34
1346c7e2
e3411cf7
c6e27057
3fc522b4
a8946bb6
003813f4
69702078
7087b217
2f034259
5982aac2
68b5a76a
984d243c
40837b70
9d4e9a51
d1b403ad
645bf46e
3f8fdd81
91761ae0
495b7898
3ebbe044
eabcd448
4d20431d
29b415ae
24462959
5c4420b4
f9040ca5
28adaccc
5bfc92c3
b27a73c2
b4d660a2
9fca2dc2
f8b6b896
f9da1e16
08673680
c6f4c2b3
5fa2da9d
048a6a32
54046b40
fb68501d
df580b23
174c5aa2
a89fe923
1bebeca2
95c82bb4
88b97be0
c5168ad8
6c3e7717
49a27c27
f98798e0
dd9991b1
1259aa3c
b0a45bc6
d392bf0a
1be9c049
fbec7c03
8709b35a
6d059f70
e780b29a
d716bc06
b27544e1
ba2f1292
e27b2f05
6e8bf7d6
ac0b9e6f
c1fccfc2
99cbdd74
5e091249
a7b5b498
9aa7233d
9526ba6e
513642a1
8e28b29c
ba23ea6d
a8abc0ea
cd24d1c0
09da7fec
df740733
69f859d9
615d7619
48651f54
73ea564e
bac438dd
fbc418b8
5727f1a6
4b9a93ad
0d8ee435
8fa46ca1
e9db862f
55d506b3
f6747cce
308d04af
d48462ee
e2f91ee8
a53e7aeb
d6058e5c
8af4bea5
b3d37c0a
058cec18
0e98715c
353118d3
ee194537
760b2af9
e3ee1022
d9cf9cc0
3152c881
38d07c70
4b687670
e9368c7d
0db9342a
420208b1
9f1d7eb4
29c821af
ea49450d
ba90501f
18e3114d
4b142f3d
e2d653a3
223c47c6
0f6f1c14
3194a1d2
a7aa9219
68cd8bd1
ed389a38
4d595fc5
366ea93f
ef8065cd
2535f9c5
fd333dd8
96dbd1ad
d748c532
cfeaed69
1fbb82c3
768bc77c
4f6209ae
40dda5fd
a1903ed6
c45c6f2d
4991f941
94592496
4c2ab2ac
f0f0181e
99934eec
a6cf710a
38490e35
d2ad4482
1f7a8106
7127167a
fb8dd228
88a7cbfb
c21275ce
42862c19
0bc76073
5b4649e2
a911122f
8d38f704
794f5ea2
821b506f
f009ee1d
52887d81
fd4100e6
6735d405
eaa39fea
2d583292
24fb7a4a
233c8121
75ee5a2a
7152bc1b
dc61cb24
ea11ad0a
1ff99dca
e580a22b
13345bf4
5e29da34
ad177d6d
1d768144
61b4fb76
34120532
7ed663f3
87f98759
8bd6b06b
80ecbd6e
ccbe5257
3e08f8c9
f6f2039b
5f94cb48
f28d2a84
9a468d33
56cad58e
5d8ae800
e7241ed5
5a4a229e
e0571c53
1a570765
66f05055
69487bfd
1b44417e
eb4e3c60
687d46b6
df46b578
6bee4bfd
f612fb72
73590608
9113c697
b4dac5af
57232216
13dd6b60
60067e86
5f693906
7b80d032
8dc25939
ef8fcbc3
33179454
50a59225
e3428b60
bf210c07
da8b7192
f3154b8b
1ef692b7
ac5eab65
349778ee
455d9a75
24335b24
e3485907
96964d3e
5b9096fc
f486e313
d6d98138
60e1cc58
99ad1d51
ad990580
82dd345e
bc6cafa9
df5e82bb
60905417
a6b26915
0db8fcde
fe54b6e1
c4e6e31c
d31c748b
e2d2bbbb
21108ad4
7784e755
5b40e70b
fd1331d9
574149ea
9ef4a550
f6a6bc25
24617c41
d9d5c49f
956da8d0
0a02fad5
7a73a9a1
47b74836
2e552040
6808527a
02047b84
8e226d84
b6e7f8e8
86284692
c3b719f6
a270ad23
8f5f002e
395ce6c5
3fc37b51
6a5104f2
47a08985
0616e85a
d3dcb3af
400b88a4
8c32802b
30d9c30a
a716e497
bf871196
39a7b0ca
aaf2a298
177df0ca
154d243f
97440056
6d42822b
282ea2e9
305a33c5
f838d627
803be29a
5ad5311d
1ea3b0d3
e3748d5a
ad99c129
fca70e42
3b259015
9f348520
d6894907
03b74d68
a0a48aac
d12580de
3535b840
1b160902
e7915984
ad843a9e
e5422a2e
da6dada5
dea7e107
4ff4d370
fc9bbc46
8898727e
cc2dfee6
82aad493
52b27ee1
5b93b8b5
b9ac79cd
f0318626
5b070bd0
d0a07431
525b3016
fc3a87f6
b16f70a7
d8af78e3
6926408c
68bc0edb
b18e308a
acbc75c5
e788f50a
3e69fae1
7f6ac81a
d528ed2f
c59f7576
197e76eb
9770588f
679d1b2e
781777be
2c85e787
18978ca1
58252ef6
568d7147
affe4720
b8d5366b
29afe40a
5b509f38
f8201892
8250aa95
6edfbc54
b2f3b567
42c36d9c
d70d0b68
51ee60fd
cb6833ad
0f531051
7984b79c
a3fde05e
66519d68
059c1867
04c2915d
8e2976f8
17b4f54c
8dd1a696
02352f92
4ec1b67f
d582eacc
6f4a7bfd
6c8a0f2c
8b2cae16
d9a689e5
bf32add5
0b50cb72
65300d9a
2574f1a8
2d6a8e50
de79734e
9db1c215
7814307c
a2f8f5f0
90473012
995872fc
23c8beb4
1ecaadc2
24233c63
a1c52fba
22a674fd
092228ee
d8f88d49
fe090e9c
a2ccb633
b5c509b2
03cb17fe
4abbdaa4
efb3aa79
e75c3674
8e0d502e
ab2bd8ed
f12d884b
b0a05bda
bd09dcbe
f2508942
c9635737
eda43fdd
95b78559
bdc20d13
96ed0dd1
43fd452a
df7865ef
dd545acf
bdf0c504
6dbfb30d
28118963
7b72b071
91cc1c48
4c4398b2
cc639808
6f029edc
44055202
cf2fc4a3
dd4f8003
5f784655
0355bea3
73edaed5
88d9dabe
d0a4a8fa
eeb147b2
c1d1b999
abe6a3e4
7fe9d4f7
116d307a
51fa4d90
a368aec1
09603943
f49900e8
6c08d6d8
92662273
5a0181a6
c43a46ce
ee0ef030
91597cba
90a53ce3
7baa662f
a50c6fde
1bc5a250
d26a7ec7
2e63f2d2
54636241
0440f163
a3679be6
22e790ed
6e70f93e
1a6b3aaf
0a41dba9
5fd4a679
5e2d4c58
15380cb0
b9dc3ba2
2d903c40
c405e673
1ac1c4d7
e1e84a59
a0bf1082
a5cc4775
1c0f5b81
c647eee0
c99c21fe
6f3decb6
d474e372
6daac9af
9417e861
8217bb8a
36e3b58c
59a52fc3
c7b1f691
ad750923
5a711971
71e90946
d6526533
38a922d9
6525b34e
9e820cd4
315bdbb9
7ebfdeda
11f67d0e
69f7bd5c
9e88f59d
4bbac8f5
96ea1d1b
6b05c576
4fefee33
882790a6
c8d5502f
dfbb949b
3a4ed20f
463b859d
3adde71f
e0833d59
4f6d15ba
81f5e27c
db066dfe
0d61b8c7
31ae33a5
1fb2e6a9
6aef01aa
253e3cf2
6719b6af
2206fb5c
9ba17906
0ee8b4d8
dec88f07
dcf9c811
06afb19f
dd5f2a11
f0f226bd
e47e3085
95240341
22d9c7a9
179041e9
9bd5c2e4
8c01da43
f4b18d07
3925abe9
a724a98b
36bdc622
7eaf7acc
acdc846d
5c979575
e63f9c96
e827a77b
849b6ddc
737b4fa0
043f54f8
8aa1246a
2ea68b94
a55e09d5
16a0a1bf
4e17c740
86c92f23
794f61ac
27becf1b
99590f11
05310960
3623ae48
ca6eaac7
9da003fc
ee7147fd
46a23356
8301cf1b
abc45ee8
9909afd4
a4274c3d
81cd14b0
d5336b12
5f792f3b
1ee40055
5e17a18f
87928d0f
5542e127
b55984ec
e582b5e4
478649e4
bc1b5e15
a900589c
5646172b
8fbc2337
cf0b6a7e
55aeafb8
25bbb908
d11084d2
b9d9b68a
99e177df
06a8411e
d0b8f5c1
bb397f13
0bdf16c6
393c7d15
b776eaeb
ae992d35
0c02f184
73765728
f2bcac5c
24001fd9
9bb6bb78
b091a500
2b4721c7
037c1519
e6620387
c67fb1be
c3d3fa1d
6619999b
70e0d1a4
c5cf03b3
8e5752d5
55ad8f02
5f4fe705
0ebbd83d
8c97ca1d
4945267d
6dae2b55
bcf22829
4d405df9
b3d1201f
eefec73b
2d58d222
39693e31
bd9013ba
b7fd7ff4
cd94afd5
852bd9a0
11992712
cdb6d29d
d2cda484
adbaa9d7
6f645331
875caefa
ba0e8345
047dfc5f
18a5817a
6f12a9bf
8d02f88c
08a58191
7aba467c
a4867c2b
5303e27c
ade16c6a
7ba7d6b0
703d8ee4
94b208e2
8801f3ad
951a58d5
3071a628
e412f615
dae8256e
d7a0cac4
8fbeebb1
749d200f
89635efb
0b61d1d0
2ea26a3e
78f461e6
c0217cd7
01b14b2a
aff6c5e3
a554eac9
57520aa8
2e871749
d02a1529
b7da908c
e0d8f848
5aa12143
3eb0fc65
24d799f4
810d9fb3
d4de0601
dd2e97e6
9a78e97b
e360c158
9e71576f
35cfb27b
501380d8
b8e6464b
1c6c40aa
416ae635
875c9823
724789f5
1a662afb
b6905deb
d258278d
d3fb9775
4ba0f81a
902fb3f2
a04d1997
bcf91777
1c685518
b9f9789f
9950e7f5
c35fcf44
bffae992
1f2d8cf4
c3a85726
de746c5b
8ff17eb2
fb4f0020
6ae89a13
838978ac
042de2bd
68de51be
74e0a949
4e369521
6305f148
3b5ecded
a7908787
415e2d8d
d67e2797
528bc90b
4458b5fe
0bcfd016
084d8672
a8feceaa
f89cf45f
17f78c21
1dc35cc3
5030208a
ee5dbcd3
50b0c269
d6d18a38
c6adf4cb
65710b2a
7eec1ab1
0b2aa47a
ab1bdeaa
53eb0cd3
90847c68
cd6c534e
d81628c2
61a5fc2c
97e613dc
f728e041
f9076f56
2078a0c5
5cdba419
65122c24
42156fb0
117d881e
e2777f4f
45add8b6
f8341248
d32d0d83
863a671b
a2336185
7a3f4f04
12619a9a
d61d1c59
0d2f17e8
3661d956
d4448c50
c2580822
ddc25e96
2baa1e7c
93ef2ee5
8cdb15d0
94a74b0a
ea960240
66b6c8cf
b94d3f17
f35d60f5
9e1499f4
2c8c0aba
35f0d8a5
04e0088a
16c7e8ba
5f340954
e08d47ab
b18982b2
2203cac7
5781f652
66de5965
f091d0cd
8b1c45fb
98fca1ce
2db41807
3c5ed05c
4fe7dfb3
17f6e61f
4d187ac3
85992632
07960794
81997b0f
71ee620f
9bdb9fb0
77fba447
9e3a8781
92cfdaa3
cfab4104
52ab4ab4
a04f45e6
04aeb55f
79be92a5
c5052d35
7f650e8f
f664bb91
c4ad4f68
a2f899df
8b7b9d56
df5f32b6
aadc0e8e
ed8ca2bc
1db4f353
4ce217a7
0d273767
7d4fbbc7
73b35875
94a01856
53451598
e5884341
b6d48755
01d404dd
fa4f06d8
48e82ab9
ad7bab41
b10b86a6
1cedb6c6
20513150
aaac5f58
45fcc7e4
c016bbd3
d5e38590
7597c2a6
599f0e03
687f2fe0
ce26640d
47e3129c
84db8e10
e96eb9ae
d4944743
823cfc8c
616e45ad
a910df13
c3643a74
08025e42
691aa0c2
e4923dbf
90591cc7
290baf77
b14b3ef9
ac7aefa2
21427766
17d13c61
6a5737be
4167bcb4
4620bc2d
87d1907d
0b77dafb
4e48e6ef
c033f040
86cd6ec7
5e512d8d
d30719ea
ea23f4af
9ff7e735
34f53aa4
153e4798
c5e24a4a
44e4a7a8
51f15496
1ee37886
634d4b92
80ec7842
7f28c24a
d5c9c071
76051de1
b643a910
d72018cc
62fba068
7e57d199
2dc95dfe
505c0919
c681b750
23522528
afb0ac68
f6bd5c6e
830f85d3
9f16d56a
523bc62b
3bb8807b
e8ece696
1e216f17
0642981e
2a25fa2a
f658e9b8
f73cbe38
e6319ea6
3d33f9f1
f4b5f897
71033dab
730af570
73948fd9
21a70632
1e3bbdb4
4042b629
c0959d2c
a328dc62
ac033049
111f2ebf
cb5a376e
4ef3f4b4
e3f189dc
316015f9
4f1d0710
f8aceec9
b02b5d31
c42ba1a0
fb0da9da
b0724a98
4ba873c6
71e4f5f2
35411437
d0be2a41
abcfad11
119fce29
6c9609c1
1975c062
28b001fd
6d2af754
0d5185e4
32347e91
f5b78cc3
b1590092
47688ceb
6ae89a9a
23dd14d7
176ccd78
a9820e39
12278b2d
1db30283
ae6f099e
55462847
ab3e904f
af67960a
ac8f5ec3
661c8ecd
dbfa3a70
4e903e44
d166201c
d9896c8c
b07f424e
e2d49c4f
d8f02454
8756e4c4
f0cc8589
5e1b1082
84420353
1110bfd2
d40e71ea
a8d419db
b7e36d14
f8f28b40
3cd41312
af7657f2
1b1dea1a
0a3b0614
564b4bbd
d51d71d0
93aeae16
b48b8c39
055a7270
5aced535
5f027093
99ba1afb
55540606
9118467c
767501c3
5662043c
1ba53a60
e6495ffe
34d9b316
1a6eeae9
0461c402
9408bb26
a9db176b
e2dd2c72
758edd96
1acf3927
6670d44e
13b35ec6
8afe264f
2aa00086
eed6dca9
8f10a7f3
e762713c
73c68da6
9bc04025
a6d23c67
dc837675
5d03a918
41781b54
449d2a8d
fa2f8ffa
0126bd7e
fe3afdfc
915bc474
84f918f8
157307a0
a869044a
7f484e29
972dae32
7e379270
d2e955eb
19a4419a
5cdfd467
ae3472d6
edb8decf
c3f2146b
8f8ae14a
be63a2c1
6281e9fd
98ce41c6
80f980d0
5550b972
ba52da0a
f0b0e14f
67e6441e
0e139aa9
75d1274f
68d701fe
7b97a723
865e8a0d
7391d9d5
5ff82102
fe84ab3d
5ff8ea34
1d53320c
969d393e
77026e2e
ea037e98
0358c338
290f9486
be6a15c3
4f5d90ef
aa1153e5
5bbdcbf7
8a703d82
6f592ec3
c6f09007
c6b5e940
b7816a93
0c5dee8c
c61c199e
98db454b
6078f5e0
ed478813
0e79e905
6ff22553
3979fdc7
88908265
ac605cf2
68ad9145
ed8140f0
4709dad9
12d71344
8046b4f5
989de283
3b4e9567
e978196b
4083dbd2
42b7d217
d17b1b57
5d20f76c
c5e5e270
96d10f21
756a06ae
e9f8d8cf
9a78e215
0a7c6c25
f9728389
4fe863c4
c62d47c6
62cce587
6e71eb03
ec35daf8
593e57b1
becaa278
1bb7d447
ac57d707
de5522eb
1669d3cb
210151b1
8a6b0602
3cc8f5e4
46122ed7
7237ac02
2e78ba0e
2dcde9cd
db2fcce4
1fdc72fd
72d9c76c
bb94f19f
76ed5ace
bac2b693
36bf476f
87447668
0ff579e7
601fb4d6
4fa8ec38
84c0010e
1770ca4d
06c6c9f3
6ffd0279
4f08790a
00cd8ee5
fba0f568
f73b5506
8a78a43c
9dea657b
bf892660
cd088050
7a09e212
56c58c0b
4dbaaa8b
a8417381
6aed15e7
8bb1d628
22f2bf21
f0cb2ffa
eed2dcfb
5169ec43
525f67f4
ac4ce9db
6f920330
984a8cb4
1c328425
2ff1181b
60b60b76
ba2eafa3
d7525353
cc5c5ddc
9b2c8d36
4509f78b
9cb94f30
5d43c513
516ae66a
2ea94d0f
dcf95fc8
83572265
4ab93137
012290b0
62d8abcf
34e2dd41
6bb2e8b3
c0ce07d0
ccc9a7e7
8e14a032
cb12c268
b78a1e40
5b4ea0a9
61b6d189
059466b9
15a18af8
804c1cb3
645ead12
1577640e
0a7a68e9
66f9061e
dd92bff7
643fdacd
02521072
84fd2e82
76422c01
a0918638
4aeb0fd4
4abe2612
bc6e9020
60ece2d2
2207f412
1626b2b9
90489049
cf8ee20a
35740549
32af85d6
4cc05b9a
9bf06251
89c4201b
476bdc9f
52db11e7
089b82c4
c7fe4307
528714f8
d4b97eae
33f944cf
2bb52151
dcf06b2a
5b2eed7d
43530175
fa7ed2cf
311c9e5d
7e38ccf9
17f6d68c
5598b56b
166eb2e9
4c09748e
0df8af09
fc0410ad
1f509203
ded82b1a
2cb4f0e8
131a4f3c
2ac5aa7f
833e53e0
41c9ef07
e3604307
65c61476
6c7e6566
eb0fe374
749f42e4
0836317b
7852514f
0c9cb1e7
b198bea2
7f040e58
c5604ed9
0ffdfaee
b5da5046
7f10ac53
9e543a87
cca1e01d
5e60a835
681d3d24
70694aca
ca9b4993
bce2c997
38f3a144
03ec500b
13abe9d3
433200a5
ec36d749
444f40b8
57265012
a8adc5b9
c7ef88f9
f9e05189
257c2ccb
1888f925
448726de
4c0102fe
b21c369e
25866ed4
1b80eb20
da03a3cf
0b176818
b84d2fb9
fc9db0d4
9aaafcc4
25938b83
a28ec8a5
e145bd2b
4018ec8a
f77275ec
d197d762
74910b32
0eacc316
730506ef
577dfbbf
af78e130
004bdafa
ac2f192b
3779ae82
3f8ad48c
84f785d6
909b3735
3f204d46
efc2a024
dc4ad63a
c6770cce
5a294ee3
69e5bd0a
ee0fc2bf
930bea46
74f468f9
a38c9537
576488c9
e5fea4e4
505e4260
4d4100af
c5277127
6a91250f
1b13e400
d05cb0bb
57c4e7f7
291e3a79
0821ba29
2172d9da
0465dc01
749239ef
3649592b
7395f8b7
caeadb35
89ba74c2
1b148d27
f8949a56
b6e17864
bb7d350c
b9b14a3e
72960749
96675f5a
af92f366
961a7bbf
b30bea9d
92ddf5d6
7be00e10
c975f935
439ca12c
facf0a2d
4b75fca5
c1e7a66f
9aa6961d
8280040d
2a0c2ec6
ca415c67
efb0cb41
da5630d3
887a02b7
2e6a33f5
8bae2673
6cb85b24
55118ad3
7c7df302
b891764d
8fd5fcaf
d3bd43eb
d1282b73
b88ccd73
60338f34
68db216b
13b8188d
2d42ee1d
f3a7ade3
7efa46b9
dcf4d61c
4ce7f0d5
100c72fd
d5b00d9c
f099eb54
a19013af
47330015
1ca3835f
dcf26bd2
0e80bf06
d4d1e065
c993d875
9fa229f1
c3e9397a
4a057c72
dd2e3ba4
2cefa8bd
c70b0d00
1250fc30
f3c8ba84
378286a1
7cdcf0ad
a0b038e7
61cac076
7691891e
5f252804
23fcf598
064a7022
e11a1ac9
49117b02
e2a65d2f
19f2182f
77ad1f98
7292a35b
a3b76c4d
39522a06
f15bfaaa
688b40ee
ac218160
8f0c9fb5
c6acadec
b5dfd10d
ce771fb5
a8645c61
4581c2a5
56068f0c
9c26f6c7
3508f417
19bcdb2c
8a6d6dc1
ebd909ac
bcc53cd6
1c9b894e
6c24c271
a974cdc2
44f94d2e
aac9c3a6
78a96c97
34e7bef9
840f813b
3dce1a0f
11774370
2bab1ca4
4e222d7d
27382dc2
96b8a0ba
ad8599d9
6c27f72f
5290d576
64eb7ba6
3f2bbf23
d189df08
93b256e1
f88b207f
32659dea
22dc2350
eafb4507
1dc9546e
6583423c
f69ec6c3
d51e5060
093f5f2e
f509f4d9
5e26d6a4
729a19b3
9b59f233
166bde83
0786f836
4ba6535f
85d0c5f4
2c5dae2a
e0ef7c12
7bc658ce
90ca7026
082d67f5
da0a8820
07eefee4
99d00835
f4062006
dba720ef
5e405ae8
b0b222cd
a11eee92
dec69200
591207de
890f23f2
1ad36e54
fd8522d6
160d2a3a
b2992f3a
c1ba171f
a89a2aa6
7f6cfacf
75228b3a
65c78ba9
0e250f0a
b2aafdb6
2e15b7f7
12286992
274b1a9b
7c7a134a
0523f042
2e21d7b6
3f9a438a
6ecdaca5
12db5777
9f131d14
635aca0c
95f0355a
7be769c3
48331f87
5ba991b9
dcc54c29
9fa4d995
8205bb56
8c2a4b57
0580c5df
a1668c12
9b8a1525
a7947dee
a7ae8881
e824318d
3587dfe8
13921233
e4bbbfce
9b33cf6b
6917fd3d
6fba96e3
652417a1
2ce27de2
9e64b075
87da8609
f672b7ca
b941bfed
9f80f079
fc22b0af
11a0556c
27b91c8e
15da048d
ec7f5789
13d5a279
f170740d
35034bac
5eae2178
8171d301
e0f41359
7928458d
03223146
2b5a0573
4c63e70c
abdb42e8
32446b85
51b50d3a
97afc0a7
97d66ffc
dced9e4d
25285e16
b1c23502
7145b852
96e61cdd
78ce8971
81cbfe52
560a4aaa
6d447e72
7028073b
c59db51d
bcd7db4e
7a8ae9bf
3dc66ccd
8d6390ee
bdb9b7d2
c4a57044
123bddc6
b23ac040
fc61eb46
78d4b555
4b70274a
cb5ea7d6
e7419553
fea9c8a8
6805ce62
d2bc2c16
3270c01f
cbcab7d0
1bde99ab
dd400f7a
fcde10c1
e665384b
67a3c477
ac1bdd49
45bb4652
b01d01cc
e140d79b
203d545e
a3596d5e
bdfc1d2a
7df53fb3
170c9080
8f19f7ae
6bc3a9a8
6586f9fc
35396102
115eb57c
7a4e7d39
bcc75d9e
7d270a06
23b0c432
a76efa4a
98af9b7a
61d8ecd2
f6ed18c5
7653ee82
40364748
01e0f4d7
d4c4124f
b2645fe6
300ad09a
eeb19665
b76765c4
bd84ac65
273f73e8
84b9a847
eb51fa95
059d4427
2cebb759
bec1f7d6
9febad86
c79da00e
566486c9
ec2d90a0
73fd8a1b
5d9e82b1
b8dcd78d
4eca1bc1
ab381288
99c477f3
e0e2c1da
3f0554cb
d35a0661
20f9da33
74c6f519
9076471d
03d36721
ecc5a121
fa0298db
d5b6804e
f3db34a6
802579cc
0ca01345
35b0ed94
d7f05c50
bd00008c
395fda55
4eb69bd4
cfdcc90f
597a0733
9ac29ea7
8c360d95
cd3936ab
13e43900
2a68d823
5e1b1250
fe62ea0a
02fa0098
8cf7cd0a
86da54f5
858f3067
67141edc
ad1ee214
0e8617fd
e51d2b0b
03d5e640
0281d430
2760de21
80d97e14
6df0c389
4095d02a
325bf460
a4892c65
ab8fb25e
72c87907
dd8e8ed0
c72c009f
7e3416f4
43fc82eb
331e7e55
f684aa0d
6413f490
21cadc4d
70370e47
0fb458ce
7dbe658e
133ec568
f62879ab
16d10821
93b88215
11322cdd
69a97eb3
0ee30c1c
7749b442
2cda98da
ce6b3aa5
00d10bd1
c7f02fdb
d73c0f41
c4a737a5
71e458f7
f10c69b9
7f1150b1
27c8aeaa
efea85e0
57133778
daaeec7c
e4855965
728cc561
bb5284d4
dd4c9918
c8af7ea3
2fbd065a
3d8e96d7
b2df8499
e6502106
5130023e
b58aa828
36336dd7
d5dc4a55
9a6d9bce
630bc143
a34922fd
0d0ddfd7
ed5ad5a5
840ccded
8661e437
25d5ccf0
23236b5e
ebcb9846
7cd6cc83
a17b5d7d
cf38c3ed
7bc09f35
cec262d9
b2f29408
924f09e5
19b52dcc
a9871a52
5ec25e9c
1574593b
94550e7c
2790250f
822320a8
9a4e0cf7
2c878b72
8949d1d3
929039c5
ba4d5349
e4c650eb
925d22c9
103b26c2
9d681ed9
97e03f1a
f3af15cb
416e3eec
ad6b0913
a43bf074
9c58ce83
e699c059
25f80c5b
883121e2
747f9af2
5aaa9e1f
8aa02dbf
6bdc2f87
81efce5b
e4725953
704067d6
82d1bec4
3244a8f3
21c2ab03
59e19ac5
23cf91a1
7359cf3e
a8d760ed
cb574ce5
a2fbccf4
c139f9ed
145f38b8
96663842
bfe9ed18
bb26019d
28a0a2f9
24da9539
b8674451
71075aca
5eb73ae3
6afbc8c9
3f4f520e
bb5e6ca7
20535359
b34158a4
a120011e
334e7421
ce63b684
5084780c
651946c1
d76dd705
cbec6e90
9cf12e29
d3ba2c55
7ae0dbaa
7db56eb6
d3587075
9e36d7ab
85f88430
1651e57d
9f044816
c35da10b
a65f04c7
cb1ffcf7
e35723fd
e1aec615
d39b7be4
4d335de1
ecdda75a
2926630f
6bde4229
db6b953f
e30a14c7
34113659
478b4132
b14710d6
c109c1d9
05226f52
d83427f2
3b26422e
6ce40488
da27bd8b
17e689c2
5d0c9c06
13c2018f
aca72216
72b9d835
ae1af81c
8277bd3b
1336e124
cf936fa7
0038c9f7
fb7633ca
6869a2bb
6b5e3b2d
7ae30893
0ab09c4d
f696b197
3c858e0b
51f21a2f
6a0ac525
c5aca76e
71fca426
eaeacc0e
68882e51
118a5fe4
ce27d86b
47946598
d87b0c90
0febc61e
34359cc4
e6adc658
1e5e55a9
b0a431f7
cfcf41e1
10d05d17
6932971a
b2131241
925d3bf6
65eca202
37d027d0
2207ce62
e1c03236
9a942e3e
d275aa93
d10d35b4
a2d11901
82eb752f
8a644c4d
7edbd656
92b05001
1c0f515e
30c3d330
d7fadcac
48176bc8
bdc27407
248ba59f
225daa3d
c143c47d
276a4a39
21e6ab82
5c777980
3a9fc1cc
8e3cc3d8
ab2a2e28
29c1b724
4c729845
943deddc
2c671a79
1096a95e
217c0b6e
e58ea889
0e0710fb
5cc2a09c
204e9637
e10f2b0d
d3133a4e
9a7e9411
635f84b0
f207cc60
eafef944
7c1d915b
bd1deae3
46a59273
e544c455
63fcf03a
d052cb93
8ed35e94
d958bb2e
86b5246e
b751b7b3
4dbcd5cc
8e951842
7ba3d26b
ec9b9c3f
867a6fbd
773894b3
31d2bb79
89d33093
1555b483
3a44b9e5
3633a1f5
40fa632a
d7d493d4
764c1fdf
103238f0
63c804ec
02e70f4a
2a636e5c
753c6584
60136784
fa536194
58d25957
6f6933ad
670b3960
bbd33849
eaf9d20b
cf2fb8ac
3ca3fab3
137be044
fd151be2
34e9b684
a8f8b2e9
85f39c31
621a4452
2aef5580
f8cc964c
5ca69026
e4e1e867
8bb7e43f
f5479503
7e3356ea
437a5876
7eed323b
c07a2e1c
56948d69
75fe7245
077d0056
78f9d9dc
d91116f0
20db8b33
5d8da15f
be410f94
1a7e8af5
9f8ea784
858b9f87
a9872509
5011a996
49714eec
5fd863e9
842c7097
c0a4e341
61d9bb81
2ccfc57c
f3c75cad
dbe2e954
f7d8805d
17b3bf98
eb731de0
dd26b39b
b658f3ce
7fdd41d1
c7918015
c392f89f
2e2d081f
55c7117a
1166f6a2
5d3f3151
8995333b
e6d3e248
6ec2ebe7
93a9a3b4
15192adf
e042aa4e
cdbf558d
8de827fa
7c3c71fb
e74765a4
ba7dd59d
413fb224
18d86d32
da0e167f
50f22023
678c76be
fa0222fd
f5955858
ec098d7d
074e0cf3
3f814070
4c60ad6c
7360d9d9
e4163148
61aeee1a
c73008e2
bce4e670
5ffc8697
588ffd54
c44960d9
9f8ff954
ccd0a7e6
b3d0416b
39cacc19
3f65f981
189907fd
5c748376
f4f9ccfc
fe6ec460
47745fb4
f572bb54
484e5b6b
b3066a2e
b3053f1f
9f60ce82
f3653385
9ae6951c
3bb059df
6943678e
aebd5d1e
b44b4190
476afbc8
131d439d
e056647d
c6938c16
3c81803a
7365bd6a
add71160
56051f7d
44f6ec56
ebfd6396
7ee8da8f
475b2c62
e2817b48
02570be2
ebca95fd
81e294a3
50bead1a
299434a5
728efb28
16279551
b74fe521
e2d3ccec
c3d9ac67
64464e4d
c58bc911
643175ac
32ab40ac
ed23f485
05a7bd2f
31c1f559
349247a0
473ba8a4
e6f4d6ea
a5a7e16b
5e099786
baedb14c
bb7e205e
4b46a11d
653f0104
adbe2dfc
b4cdd7a2
faf9abcc
a0c06293
3db89b71
ae30430e
56199d3e
32f552c4
daa29b37
45335baa
07ad9517
cba00525
42a1a622
d67d3a21
4c4e2315
fcf34fb2
7267ebd0
8b6d0755
b1a105f1
cca92a1b
7985a4ec
3f0d500c
99fc0fc9
b0474c09
fa936995
17298767
31ab64c8
a2dbce45
3d3d0c1b
02da12e0
6d5c2cea
3a72686b
312871b6
2be0808b
b9a642fa
e67b91cd
e2310ffd
e97a9663
2f345fa7
45c45e19
834c59d7
8d7c7682
0960a39b
8715ebe3
0f1eaa9f
b118bf3a
e8b0b1e6
6ed2bba6
44d2e4fc
4624274d
be9d0817
7a8b833e
83ba33a1
7e9baaea
4d27ba2f
c5ee85b2
5c2ed1d0
1556a718
ad37e625
6bc4d655
1e05930b
bb57d255
4f124b2b
ddd601ef
69bb3221
64d2ec71
679b94ed
d81cc81a
5e4434ae
1a37c661
4b5e22ec
2851330f
023b9b93
bc6b93cf
a729498c
16312d27
4fc7c1d9
7e3f270e
a0afafa4
63fd66bf
cbd88648
f2866d16
8621b903
7126e731
dc432d51
47115632
055f2f64
1215e691
db576c9b
c8c028fb
c55b2fbd
1d90450b
4e576d4d
7ae99c68
1dbcb84c
c0b98764
038d037f
0fd3ca03
2bc3ba32
13135783
54b93f6d
8a9c6bca
9b9c276b
75e9fbfd
4bdb87b9
a3519705
fdf4f169
aa37924d
6c415dae
ef7cb075
1260f338
f636c823
35ddc5e8
a048cea6
1cda2d2c
34aa629c
6b499a51
39d4e80b
e92212b0
c922b998
1984fd36
1281f997
cc578238
f2bf8b66
6e33e955
c97fb15f
7d562cc0
f80bf1c2
39047c99
f19bfae6
7279ae22
2e49578f
869fb3e7
694e4816
91b61d86
b3f06868
0a63f852
d669bf54
9ad59a51
59c4179a
25eb2026
a23c35ad
5f136716
a644f727
9741adb4
adcbea3e
eaaf376f
b9309406
6431b720
d8a68465
0f81d287
b54c2a91
eb7a989e
cd098de9
07f65865
681884c4
ea07f82f
6819542a
a50cc7c5
99cb6b29
c2af7f1e
83693892
5870002c
555ae88d
56bb0295
a74a8838
78dc922b
ca8f460d
bcc647c8
182b503f
b660a6b1
eaa8efd2
89492a3c
b460e46c
1099428b
50bcd7d0
4a5499ab
c6586123
a5834a32
be83f5a8
9ad03cfb
ae3ac829
705e1e47
b7e532fa
e03061a8
14a8ec33
ce324d79
ca8efc5d
49fb9eea
c06967c4
e62a7cb4
3976fcc8
cb13c247
353a4cd9
ec024684
de692be0
9a4f98a7
a35cf3bf
1c95ebb9
da3467dc
5f2e01c1
e4752448
ab39fa7e
0427468f
43b090c4
bae16297
7e859ae5
566746b5
f4627566
bde08012
37496e5a
4093fbbd
dfd64fca
2bc3ebc3
d54fd364
06636b8e
ac78ae3c
2a484170
52ea5440
245c2add
3139e543
9f1c60b3
7214d20d
189b1eaa
797a5d7f
0f9e1d11
986f139b
6a7e575d
091acd63
f336d24d
3e92ebe0
94584237
a9506d6e
64854956
0679a438
f01df8ae
06cafa7d
4bb4bcd2
1ee37766
3407e01d
053347b8
09e686bf
789dfa1c
57db601f
54835a7d
909b59be
0b412181
1e99c29f
9bd3ec60
1dfc4660
e2132240
a32977cf
f59961fc
a0de1b21
220a3985
88106e01
35dd75e6
2eb5bdab
5209738e
24e39c82
de29ac1f
93c63617
5dab8f6c
e32332ef
5b2cc5d3
45c3c099
5907d1af
37328f4c
078e61b7
5180610b
5848662e
29b0ae90
52cf6798
5ec24bda
b67bd687
39d2afeb
307dd384
911e3703
d0869201
3b738289
3c86f6c4
2b620bc4
d03c486d
bf4b66f7
269e5f16
9cc2eac9
737b6a18
aef54531
d1b50a2e
7c6812f6
5a897c85
1490c238
a02b2f15
8094be83
6b20df28
4b7359bd
d26c3cea
49c0dbaf
65106580
edaf36f9
7604b467
5f12fb88
83190f5b
95806612
002f9822
db2e560e
70d2332a
9f4601d4
23c55a77
7d1bf00e
eea4f491
c92c2ea9
bcf2de28
b0bd2055
501d3ea9
395ec5b3
fb590a39
cdbf9a35
5bda6862
02bc9307
a6d051d2
9d752812
4393aca7
679cc8a2
00547312
1e7aefe5
e360eba7
b4935286
9173b438
b3e3c28f
03d2d2e8
f386e77a
5c505bb7
2e2e64b5
6e4f8e1d
6faab24a
42cb77e4
30f99636
4e0612ac
01ec3fe3
8c477f80
fe459b06
819b5895
095d6e34
539d78f5
0888f0eb
75f0b271
71a45554
74152f7a
be5852ca
3eb5a566
fcb164ee
c981597e
dad48877
215874b9
b18125c4
bf17be3b
35984010
c9d73d30
42ef2ad0
cd086a49
726f7fb3
77e51019
59ac2614
c6dda3cc
cc60454d
9e6c75a1
2e0f124d
bf3e6389
feaafc5f
e74ad02c
e2094f11
576a126b
1d46d90a
35451525
fc94de8c
a323639e
8853433b
a5821fde
1c17cfb2
ef441602
1e2418a9
37abcb04
64507846
155b8a97
b27b4775
21922926
cbc7f9fb
d42b0a80
48e8fe21
23553e89
db1d7ca5
5b839c39
727d03d0
2c6962a2
df036945
1d0a6a18
2e143620
9018e807
bd5c9481
2e89d2d8
e78799a5
804ef0b5
75a5ea50
7385bcf8
96137faf
fec6069a
d8bb13fd
c999341c
21998885
fe55934e
6f450721
e64317ca
469f30cd
2e0bce80
8536f72a
a3ed780f
daa09e72
b6f99250
8dfbc1ef
83926b4b
6eb76d69
be1dddf5
8bb9bcb4
e05df271
8a6fbf60
befef72b
a49a803c
aa5df6a3
b4d34a28
64291c8a
f844e086
4e989958
0527d58a
db3c673d
e3ae2153
5ee8d6e1
9c9158bb
014165a6
692adf87
3ed140df
05ae9fe9
6894e0a9
851cf122
dddb0c37
6a0eb345
fa5adecb
2ed2c327
4c85b988
6469bc65
e385878d
89eba8ee
ba418435
43160f85
334bb8eb
78be7570
8e2f83ea
e84c72a7
c22cae22
98a29ee8
6cfc4236
ea160bd3
a89c8fec
7bba01c8
368091b5
4f0b3332
60f17f94
199321d3
676b4467
993716ea
30663ab2
113ef41f
647f7e72
83eaf9d7
4cfcdefe
a6926b9d
e30ff95f
9009e7ba
e4c1dc38
a66ceb7f
e2447739
e59a7bd0
8534a06c
25e3d656
aac72b0f
d6f5a11b
81e6fb05
18ae379a
3197e55d
4404755b
39276c32
a362df67
e591b72f
2b279009
a70be688
7f288d27
ba06094d
9e17217b
0cc90681
91a67eb1
e7228bec
a842bfad
b9ea3327
0622ca7b
2e8ecf59
50b9ba7e
461f9392
0bae69f4
a20a8417
605d5a94
660d85ed
17c08b75
5e8df763
2228035c
0fb23935
d63f6925
cddd0c5f
b7f96691
c4fa846a
78129f72
9ab1fa5a
3c5a0a1f
72590142
226dc559
7516bb15
e6448225
de67b903
37be8830
a40d9702
96418342
1e39aa7b
9f263e56
8424f1f7
c9649148
ec5bc85e
bd0052c2
750ba719
6ef6675b
3e743642
21943be6
265416be
09afa0d9
47b7263e
29003ff5
375f9bcd
0aeff96c
6711046b
ec1d7e3c
2fb16225
50a2ec97
610b5ba2
a39f5bc9
1bd7e742
f510bdba
7d28faed
d98eb657
ef1b8a25
cc186ac6
c19e7f88
9301e3be
d88d7942
4316b887
a525048f
69c975fb
60a480e9
fad108df
6ceb0330
7b434a71
9d8618a4
913bc5e9
a475e729
7efca785
ca263169
5b50c28a
592321c4
1444fc6d
62659ba2
7d4ab785
30b633b2
b5ea90e0
76ca81bb
e1ed2e46
b0513864
7e861dfa
8cfaf19c
1abb2ede
096d7cc9
0f08fd72
69cd7532
85e4e7d5
23a8f2b7
2504c992
7d8f60b5
b88e2ce8
c12f0ef5
8f9a376c
7af65f20
6b87a762
a0a7676a
bfb6d921
3f6caead
01319c49
be954cf0
730ad817
d491ea9b
e3de4aa2
c9096266
9753f39e
572ace2d
c2e634d4
83673268
37776386
5eb45cf1
33d3a224
43e052e6
f6ebcf5d
c0a58487
f6151541
9fc54c86
7b0d84a9
ab9c9df9
69dc83c0
a8f3dfd3
0b8d5bf7
f67e5884
440bfe07
1733ef07
d12f1655
b5085683
69925e9f
dc96d5b1
4c26a9df
b8ad58bb
389b6e4a
54a9a0b5
b56bf8ee
129c28c3
2bb828e7
87a37c68
a1e2fadc
416504f9
60ea8533
4509297a
a5310b12
0acc71a5
cf70f478
eb6d7642
1f285cbf
e81228b4
5e1112a2
43d96cfc
addbd92c
3577c561
428ea94a
cdd4fb17
d583024d
c8500f81
812541f3
fb88e3af
151336ad
7c1bbca7
62733b89
fdc6a9bf
7f40864b
fc293249
b7be4287
c47ea221
47b867cf
1d88e528
271687c3
4f0d02f5
bbe378a2
327cc986
a48cc773
735ffee9
e082d4cb
2e9babbd
44c9d2d9
5a5a8210
cab8c2f6
b2716528
284bdde0
754cb4b5
8c602656
0475e1c8
d146908a
5dd35f3a
21dfecf0
c07bc92c
9db4e85a
de51cfc0
51705d73
00d414fd
e5dc9980
3c72bb07
a69825c7
51b14c5c
4300e78d
e8020144
3d81ef2f
9d252f38
b0600252
851b9407
ca13e78e
22a5dda8
cbb6929e
956731a6
2025155b
aad23aea
a45d9406
caba05ea
2d989f30
92d1617b
1ed9090f
1e2c58b5
1ccde037
31667aa9
8596cde0
ebbea36e
120e71b0
c84595ab
9565dfcc
984edb34
9086f800
481bd493
c1b51736
35029120
10ce8c52
a69492e8
e9f508de
de3d5aaf
862804ef
2f492b95
088aa062
60f82fc8
00ebe7d3
5e430ba6
95326a3a
2a07026e
b6928a76
5de48d85
374c46c7
4dd35edd
c7a49809
a2d39b26
15e8b72f
5f8910db
f5f2b71e
db3e27d0
85a52929
e9871258
dc7bc45e
7a93a83c
1727bf40
828de36e
debc03a5
a7021db6
11e82293
8709a32d
f570b8da
e7042ed1
98d708af
075fdb0a
5ac09348
2bdda22f
ef9aa2e3
bfda599c
6b332da2
d6414aba
332d0f92
87baf94e
172f86e7
0152ab50
c50be6ac
e9e4cfb3
806d360f
9b76edda
705ebeaa
47f65a1d
e022b8d0
ade723bd
b6895f30
85ad205b
0f3b29d1
d6526cb3
b7b34392
b818537c
c2b7127c
d040f8ae
090e9df0
f719408e
90166663
06ae5563
35d4f3c4
4f02328e
40f1e0ef
f3275b3e
a0e35a06
d60605af
221a9887
ec3021ec
f1313f79
1f6bebb8
85da6a15
07bd39f5
d10e8d20
b0388684
aff4de55
b8943015
986b968f
9d21e57e
5bf0d349
a0fa7c17
6665e101
338b8782
8732693e
54a51b97
08b09251
0efb3a77
0eeb5d5d
4b7f6517
c783c750
14d5e967
30e1e77c
1809b33a
e6576555
85691198
e6095e42
bccf10e4
19037dae
0d7a53eb
5b5208df
816eec72
16b8dd22
55e11ee6
b702ecae
69fe8b5c
311cf3b0
d9299b4f
367210f8
a2386eba
82a689fc
20fb60c4
b14d831c
d5a7d90b
cccc6d6a
cf869594
e22d2462
3eac2c27
b4930974
731824cb
e0f7afee
d5d7a133
5574ca89
126022a9
f0264cc5
06756502
76b68381
869bd95c
4bddc886
a184ac85
42c81175
570e1aef
5d8798c2
691b2f55
67504a1e
8bc82e0c
ea8138be
09ab808d
83660f0f
f876a117
2ebe0e27
389f01b1
4911bfa1
87e5bea9
dad1e9e3
7027cdf3
ef29afc1
5367af87
3248d53c
746c999a
e918b40f
c117ef7a
5a934b5e
74257a03
af611e21
b84dc1d8
0890085e
d60b310b
365381ae
dee38e78
522ef843
73f055d6
b2376f5a
0625e08c
f3fb7b93
780ded32
8a757c7a
fd2c5e7e
e2edee47
70f7655d
09317084
0b17da94
260f01db
fd5120d4
06137faa
cb46dc94
f55a4972
f407d981
126b87dd
1ac40d21
4e004520
6efbfeec
efde1765
02907538
7c44eca1
9a61521a
f220a27a
1c328e58
1fcdd0d5
8a9e8a7e
4e7f9e71
4b53cc2b
b8e3200e
568abb86
416ff744
bf98622c
952ae405
4953e866
4af95115
fe25068a
e7616b8e
b942e550
d09ec0b4
475d5f88
01d3df89
bc5c4f38
a26dc2a3
ba4fd480
80036723
0c0dd5b0
fdef7878
b2b1e3e0
c0dac7d9
c4dd881c
49632157
0857aac4
5910b828
66567560
787b1855
86d5e672
8f592cc1
ebfd41ea
f8ab2654
7ee916c4
41afc47f
ae457e38
5876224d
a99e98a0
0bacd794
56371ed1
55c74db6
48a16e79
d5019556
1a07253c
961d660f
1b064d95
5281c610
5544f23e
2855fbc7
3f1d7ae8
e42f3125
79a53fe2
dc7f7fc5
f1bf5445
5c6839b4
19695b59
1edccd25
335746ca
7349f2e6
0b2c8a0b
229b4264
0626a94c
642389dd
4979315d
864a3371
b9005db3
b75c1e59
172febde
46c8ab14
7964a69d
b4761057
dc581b58
9be008b8
6e1e5606
27ca3a1f
aa2e3b94
bf9fac29
a2b9edb4
ce4e3dd9
e20333ed
4bca0464
ed81a864
d6153eaf
12607678
9deb4ed7
b21a9fb6
45e40cae
5d2e4f13
183eea96
0767d026
794b6ab4
600fbee2
04f38145
c7b9543c
cbc900d1
3b1351a4
2a6b5bb8
461bdad5
5c50c37b
82df7e95
c0bc7e0e
416903fb
bba494c2
943fc850
7274def0
917930de
6a08dce2
1f14a058
3b75702d
694bf9be
581bb685
753f2478
86721c3c
d42a3d8d
deb43d57
4bea3b14
7a63647c
89618bfa
abbbcdeb
98f51c44
f21b74f5
47c58a37
a95d5397
190ed35f
c2dd53f8
b594d78e
825565c1
f79109ea
6d8cf69e
2ade39ac
a0e37207
46e9f1fc
613732b8
bf657678
9e3c2e97
8113e8c3
ac37039a
ecdf7897
d1e2ce51
39244964
be827633
f6f7d0d3
7a694784
ae7ab66d
43332ccc
8a4800fe
425cfa75
0c4a387a
b460b213
e3f50c2e
9ebeabca
da98dd8c
7b97579e
7b36766d
b8f61720
7d5d2b78
47699488
24a3249b
86b944b8
00747ef8
1485ead0
20562b5c
7d98b1ca
427ea615
dae9885e
86d12828
2ed4aad3
dc367f8d
4bd2cfec
87d907cc
636cae01
2c542232
e001661d
d613974e
d9bf206f
c72ad599
4fd9cba8
a5a2cd5c
94b8a49c
85d7b889
d9d85b4d
b5d32ad8
63f5f688
002d2848
ea005616
2d2dde29
629df5a6
1628b449
0d9d5362
db68ba77
e71e9a05
5fb40258
cb31f219
62bb3fc2
b4b37c06
d9e742d1
d592f8c4
48da00cf
ce1e2884
040e6984
618564ce
d12656ed
f6c046de
86768fe0
fcd1dea9
6267ac59
65bbcd37
3eeb4b31
88070402
abfc74ac
f2b0bdb2
678a83d4
bcfc32b3
41b3596b
56d153af
2b34617c
288f9efd
2b5629ac
fadf4b6b
1fe7db99
280e3c38
32c4f7a3
3ce3c14d
fd75ac87
f10ae9cf
2e4e7ea4
f3c9468f
25b23237
629b7976
e358e01e
5331fecf
e1021042
be680e39
3a71418e
78a759c2
549c6f1c
61da5940
47baa385
007e7464
1b59cc8a
f52c4980
b71e5cd2
e85ea683
36352872
a6fcf939
64d55527
e157ec0f
a0ce3852
7ac58bf2
ec179a3a
490e81b6
70a46b08
75bea148
392b5ae6
971adcfb
c5d4db6d
a09667ea
f72bf18c
41aaf222
70bb11e9
cafd91f3
bbf8a21b
c9b2d526
ca80ab55
2c05df6b
aa943494
5fe19b8f
2e0bfe6e
b9fe4ff8
95388295
c9442506
6cb610fd
0d13fc9c
0a6e7b80
df3034d4
89d4f209
9258a0f8
deccb867
00880401
18a9d8bf
fb072220
8f686134
b185d0b6
51fde774
d25a97d1
d9d70f73
68ddd4e6
b3d5b1f8
d99e9410
b1fa2ca2
d3257318
92f6169a
319e2d45
5a6f8de6
58756389
89d20180
5afdbed7
8741cad8
1762be6f
a519c564
048fc4b1
82f1fed4
cd8c2893
6b94a347
c933b6dc
3fc86d9e
993c4234
0d7662b7
95812552
550a722f
7a34f685
fd7f2f1b
af4c88e3
4a29ec55
bfda2ff9
5196b764
4065d683
e681c0d3
01fa77bd
4f7df386
1af186e8
a9a2ba6b
69bbae30
144a2b16
3a097ae0
de6c4be8
54f9ee22
10bc7f5a
92c4a715
6d790fd2
4063b6fb
dac984e7
0499de5a
b22d74da
6c48d5e2
c98babe2
b8a3ed36
0b03788c
149f4551
6a53ca07
844d7e2f
30fce423
fea6257e
b2d17dcd
6a368631
0eae36e9
9c126566
93b63de8
c6c19428
cf644c00
b152f045
dec867c2
4d921280
e1461a15
2e25dcb8
3f509d37
83255c34
4cfe7e7d
f6b2432b
95c42f69
c8724d53
8b4ad543
a68aacd5
346e053e
ba345b96
69950f3e
11387bb4
6160ef69
88b76cb4
7131afd4
c3f1525c
c770cfa5
6f6be752
548517fd
a87e9080
ce390543
f45c2aba
74614d3d
57c7ecab
ae3bfcd9
41d83092
0a789a27
b7c3095b
a3f85b4b
0e49acf5
73214a57
499232e3
8c4ffc75
7bf14fbe
051f8c74
aa3ba59e
272a1573
dbe9c008
2b2dc134
c626f2d9
81aa9d86
9d2bb895
24e6f19c
73022cd8
f4984776
a543fe9e
bd525bba
d9a19ada
c303f2ec
0505bf2b
e78728f4
990c0442
013888ed
1b25d74a
3a115051
5ef6d8ca
38855c28
48a0c385
8f38eda5
135e0073
08d97f81
6b38807a
9d0a8fa3
187abdb6
db4da43f
743fb77e
ee5c71b5
b2fb8d15
7348484a
49f1d296
c5e8cdad
02ccf448
b4573a71
d5b37373
50821928
c5d05b4f
981443d5
e63bef4e
8c7fc012
53f3437a
0bed02e8
cecd6234
479d5898
889d3f74
3e51e6df
b8eb01af
530f143d
732f3bc5
4b8a63a6
a182584b
8422b143
aea287e8
c413df75
2ec547d3
76fc6ce1
23ab4a4b
27860a4e
36505ed4
ab48e0e0
87063d94
ba374a33
11d581c8
ada60253
1fd89e3d
95c9a841
73176d22
73312049
fe5f1734
7db52dc9
5adfd955
4310e6f2
bbf13fef
9a869528
d03e7951
a3f6b955
4309e48c
05ec9582
386e07a9
08d7e833
17dc59ee
e22ea6c9
2698694e
16c49c27
021bbd89
87eacd10
83e56874
8b6bfb68
394ce9bf
8a3cf255
561c9bf0
1d5481fe
92110b84
709c88df
769898b1
ce7e6a81
70090250
a3963737
88561904
823fc856
e2fdc715
2344573b
70926447
10ac4fc2
df466eb0
9c00163e
6e82719f
6586ef6a
450cc441
1de2ea32
afdde776
4a69e8fc
bb38cde1
8ef94494
c6addd4f
5403d9a6
dcc7252e
1f0a502e
494c74f1
b751e8cb
51dc9e5f
94a1fd84
86303c35
88de729a
6c1ae444
d3275d47
530d2033
84e7486f
d8812a79
2b06aaa9
6991195b
298ebadb
bd8b4341
b919208b
9ced2956
f1165eb8
2df4c840
088df528
25af36db
567acd29
2777e976
7f512451
70405ee7
69651ba6
6b73a8ce
c4ee9f67
1cae4ca2
663092d9
05a01831
814aef6a
d128c779
fb56118e
7ce9addf
a36563a5
1023dc6d
369abc9c
9a2cf939
3c3f9885
97eeec64
741a3a9f
3725c1d0
ad0b8d20
70e69282
94427ede
7cdadc71
3925caec
0c2d168f
9e43a20e
39046deb
f611be0b
ecfc814a
17f7d4b2
594b8340
2b96df3c
f2826f46
e577a727
a32a5517
fc9395f6
937ec9cb
d551e4d7
1da20b41
31f38d83
42b83f38
3f145991
7ef6480c
3ba60295
8f35b8f3
592e5467
0a1d49e6
1e19879d
523af69d
c5788189
2e797ab0
a0791e69
3967cfdf
67ee7bc2
4d16d7ba
d8aee774
aeb9cfbf
bbbfe9cc
d5ed81ad
230d4a4e
aceab3ac
e04959c6
d6b89681
1213bbd7
833d223f
17f6d66e
f868bb19
620f5527
a39123c2
3304ccf2
8e72de44
a3d1c950
45772f7f
5c12638b
a9ee9bf1
8c2eeb29
cf0540b0
7621d477
ea46bbdf
14e7f1f1
736ea738
53bea246
f08d5030
771e22df
06cb198e
5ace53bd
be18ef9c
30abf971
9e436883
661068a4
cf90b739
7502bce1
a8a406d7
e4445b58
c1defe41
9f7a56bb
a5848b2a
3b4d4f23
01049374
e096dd5c
4b946e5e
23694f1a
38d128cf
5959d75b
a840bf61
a0016633
4b5161e1
904cadea
2963b88e
21bbfe01
c96386a2
1f453d24
c66f4666
2b1b78d9
d099e38f
c0d6fa28
5d593ad7
29a24ebc
5e6499e8
bb4e6230
69acb61c
a20c616e
e703641b
da00af2a
91416b1a
448fee61
8e7241de
19a3045e
c1bb9d09
7cd5bfb9
24879dc6
60fb9220
b8ce9e82
20cd67d9
6b560057
d5443f6f
c0cf5125
b6d8dc40
ec87c83c
603037f0
a5552b54
b0bcab0a
0c3b8ac5
c5316c3a
2270728a
e693cc25
e2edfd01
2edab4ae
f0903780
f8a190a2
6bfd378d
311abb8e
f8c5b746
62bfc96a
80818d04
b625cc93
6552ccf0
e628c711
02d38bb6
8eb68cbc
d3aad403
2f933cdb
c04f069d
7de6a9af
ef2082f2
9aaddc46
81b5b171
13abd163
24a22f05
c75b4c69
f0410b2f
f8496bfb
7d5ea0e4
468cfbd8
a3261a02
8b259e30
2f3e1d3f
408fb697
6e7b5dfe
6d1ec562
8e6b6273
90572f46
8f7e855e
0cf255c4
1714f957
28551897
5ecb4103
1002017d
64ca59ad
5b3536c8
eb45824f
f4f69afc
039c775e
1438c622
a84925b8
e950a11f
8e125359
170529b0
df237d7d
035ffa73
87cc0125
985c2100
52f4156b
1b3226c8
829dc9d6
a6b74a14
23e60b25
546d64e3
a229652f
384cb8a5
6eb32233
6dd81b5d
fc676f9a
d41924b7
2c29a662
3935afde
698fba1c
bb55bc14
c1293b09
710ef7eb
7cbc954d
2866be15
831a420e
b044fd9c
1bd40437
5ba540f1
a84759ea
c7ece6f3
0e16f5b8
2c5ccfb4
17f0ef5f
ed59caf7
abb9daa8
5a342ee9
8ebd6624
c17e9090
f9295830
8bf305a1
a036e346
b2bf0c5e
a45981a0
887dc07c
7b2513c6
50be7fb3
7baf2b36
87bd5d06
84f67ff4
9a08354d
2a245d64
9f4aa12e
93d7a375
141184b0
97fc2709
5d1db8c6
28e32fc3
4e925f09
5c7ba66a
09c32b38
cbe963df
92cc1705
ea0c39a1
64f4ee19
c9c7d7d7
fe207e57
c648022b
113107cb
28324e62
e91d3907
f488f443
09586b95
7c6bd460
5426766f
d03d0e96
99c8ee3b
35c2d50a
183c1c71
f120308b
a01d56c7
2d8a0f79
8e3c8a57
5658b6e6
0c4d3717
41ef650a
d0ef3af3
4a550de6
7bb5c8d4
1c7eea05
bed9c25e
5b27f67a
c8bdee7e
bb25ab8a
4d6b28e6
c88218a2
07705ba0
d4381588
b0f55edf
49f354e3
b1e46750
9f153ece
c0c5b0de
63198373
cbb8b14c
7c242f83
e2be40c5
094adaec
e29ade6d
5687db60
193c51de
145135f0
e04cb099
1901b167
b627b7e3
c23ec424
b7aefe73
bd9b0cb8
76a5fb41
7c0ed2ef
c38fe4cc
d35f1485
a637c6d1
e094046b
2b075799
f5735a9d
02e22b46
f51b80f9
0cde5970
10a52e53
3f011362
97eb56b1
a1349b60
937dfb0c
4cb68c38
f36eb138
e1ada0fa
601aa367
93fdb58c
fef58f16
9aa05b1a
308068da
410d095c
57553821
3b0cbb5e
c50ca5f5
e960096a
59d7f5d2
59acc33c
63270468
a3acdb54
4582109f
24da01a0
b314c793
6c93b193
8828fad5
d87b7ed4
c0a8dab8
2d58360d
ea68e4ae
6cc8d659
44d94555
a24353b8
8b724598
4962ac56
9b6162c9
d8645128
a35671a9
5d35318e
c4e7302b
51396477
07943dcb
14737b1d
dd69476c
244b52cb
947781cf
fe9cbb24
541f85b2
549aef65
f8db4015
f1c2b1c3
63b7c2aa
647bb17a
d9528b7d
d074b335
60b0d6ee
698d8d8e
0bb1931e
2460ee52
fcae5efc
3201e608
eb3c25e2
a88764ca
d5de0112
83f5630b
09a3d97f
7018dda8
f98c1dae
ed1a87f9
a08747b0
1308a4ae
47b3662d
99540354
25b2d6b9
29e5e347
7ad3478a
5143a53f
53bbc2d4
2d01b8ce
9741e3d4
a240eb6f
e1caec78
740ee26f
ab267dc5
ec87f997
f50a4c49
745c0ba2
e1eb6261
699ea7b8
4f6141b2
ad3b7d03
d1e69ae0
f586baf4
38934b2f
ba57fe42
b3474389
27d4c8cb
fba07a12
0f809ecb
7ef87a5c
ef5d53a5
e0c4068c
5643615d
a5a3a606
30a69a7f
dc31301e
c10a2dd7
f4a54140
e5474f08
37f3d8d7
6ed7dd02
fb2bf478
9093e62b
fedb600d
4eb58bc2
52240ae7
08d5b95f
01b67242
7c908713
6b34d0ba
937a1c10
6ce53e90
0acebac3
aa75b5cb
185e1f28
c0aa4d06
e65f6a3a
38bedf27
e8032785
9f0d799c
9dd3a553
ce412b9d
bb818148
c5a9ac21
eecb4e68
5ca253ad
290153d7
1e2f80e1
e145eb8c
7c970930
69814426
c5143fc5
3ce8c951
c079a2b7
daafb1e1
664ae7a5
166fe911
4c884eed
a65bc2e2
be66c307
56ab705e
b62ac26d
6a325ace
5182413f
b7402dfa
4dc35c19
6a132a42
810eb347
18e0b0e0
c2135b5a
d0685b09
9f96bfcf
d100f240
ef2f8eef
7060a77c
50d23fbd
22d0d2c3
3cb4d3a4
f4bb3ade
9e381313
82ab9bd6
3792fa7a
37bd6382
01904047
deee2327
e553fa87
7d47da80
1a55e76b
1928dec8
21c29a9b
7c9488ed
afaaef27
4b72ea69
1169c2d7
bf754196
819ec5c1
c71fcd62
5cd3b86c
b3330ef7
a3b7d013
0418b5ef
f2a9813a
b66d7c9c
dc31e19a
56ce252a
68dbb8fb
a5e00c9c
6ab2de05
684c3e3d
b2c7cdd1
85edee11
e250b521
4e336da4
00400e6c
e028979d
21ae9f06
9b7f95bb
0d648e30
fe5b6ebe
a998868a
cdbdfd0b
27cea013
db4b37b6
7c0de92e
c8164b7e
40e026e3
0f3018e9
1fa57c66
1139a8d0
45fc6df3
5567d4d1
1c9f879e
c1b28c14
105cd47a
c7a167ea
0f7efe4a
39a21804
7c4399ac
234d0915
c4cadf58
e09df131
427df2fe
309b6cd1
5142ea44
79d71e22
0c95a7af
465f1589
4c652f48
05437d88
44679b41
ba76f82e
04e2e729
a2875da2
bb07c2c5
6b4b11ed
921032f4
d4c6c285
2120fa12
69302299
181c384b
6dd80729
43ebb370
14550ee7
9abb3f2b
e0a299e1
d4c032b3
19d3ac15
f01bdb09
38addfd4
01e9c41e
70d674bf
020be322
63828faf
311a1df2
c3ea3a90
d0af04d6
277168c9
314be6bb
1ea9d0ac
6a2bc5d8
c39ac6c7
d2cd220f
e6b02c68
77aa8260
89f4c3d8
2ecbb8dd
e076157f
c881a64e
9fc6451d
40f74d16
9e33096f
1bd8187f
e8311fb7
dfa2151a
a970e37d
4cbb7412
5169b986
a3aeb71e
11cdbbb5
3f742b4a
c6bbfbe6
79b1dac6
8f38b58e
3420f2a5
48dc06a4
2bf603a3
0899b7c8
b2b591b5
f8b9d5a7
9880407f
178d40d6
fc1e16e8
ae80f38a
56aa2d04
47080a92
8248e38b
4d25c54d
12d92cb9
f93fae5a
af5637f5
cea1da9c
373005ae
f95a4ee4
9582c476
70d6e037
253ecbda
8bd51da4
8e1632c0
21a4f781
c0294e6d
112d33d4
46a89bd9
db1c3776
0246f747
5adca0b8
28f2c99f
05ed7300
c8069f2e
ec5e1239
a1a2a4d9
373702bc
1f9b1b31
4f2e0e34
5c1ef849
528508cc
be568b20
c721d192
c283b4f8
5f5d1ce4
0ca006c3
6c939571
f456c086
31d30006
f355d541
61b3ba25
ccde05d9
b48ecf2a
01ba51a3
7325627d
dfd8ea40
bc4d1f03
032e6c8d
55e109f7
b9df0ac7
f34b3d48
d9ba4397
2a8dd289
7ea99620
413a4a2e
7fe45830
bcfbeeb2
09709c57
f5cc5801
79c9df47
48fc56ca
94a7600f
069239bf
f4b809b1
3ad33413
46557bdb
51bd6618
32c146d9
c44cd5a4
a68013fa
215bb567
a34b299e
227b0752
f2fd53d6
6a0b3578
58fee1d8
6dd5cd3b
15556e59
f3961009
2275621a
b3d68013
c7bd83f8
3ff3599b
490089cb
c16afe0f
36822938
2757ed35
dca308ba
e3d3f1ef
c5bc9011
c8cb751f
e55458c9
12e0c6c3
6ae0ca75
c07d2e89
9f89cf08
53fd40c0
df4a46cd
5264aa9b
e77e699c
0bc3c002
71a37045
e93ae2bf
4787f48f
6cfbb1b3
0f43ee53
f8a83832
27a3f31b
d3f51a58
b24aa9cb
2b3eec0c
d6e8488f
55ea67c3
438d6130
3bc01f7c
5843900c
53a3015b
baefec8e
b432a010
4004e2a8
50d79492
479a5294
90832977
cadb220c
62a65ea8
2eeefd11
b579e310
bf2f6e7a
a19366af
e938e132
357336ef
fe804a73
348af099
e41f9b1c
0c36869a
28db840b
7dc99145
8aeac0f6
90b6248d
706f68db
da29b1f4
5c06f5f2
3e2fd16f
4dd7b3fe
543a88da
378ffd59
6f2774e5
6141d3b1
160dccfd
ca9839c9
1367f7b1
68da73c6
50821bee
5c9fd84f
2a0ebd77
6e75afed
21a5f92a
08bd9bc2
ddc7b1bf
44fee249
5098bb64
d9306510
e5fd990d
3a60839d
b8f561c2
6ab8f26f
22f6d042
106a8f85
5cbc452d
b9084f67
d469a6d6
fccec710
779afef2
e82358bd
b3bb9397
40859644
f0b7942e
a4e1a96b
98fa8ece
2fa178f9
dfadba86
de836035
bbfa3c29
bca8a699
0057f683
5075e367
53dd8a5a
ef923d8f
43f3561f
7d946a57
39a79514
7157820c
371b8f0d
60c37382
b4bc1e8f
33401533
4dcc20de
a8fdadec
d9fab43f
e7b33627
8e35eb48
7b5bbb62
810070fe
ae231b17
dc9dc982
5f623fef
98ca407e
63dc98c7
46ec37ea
da730622
f9629141
36bc85c4
7642b16a
7c578b24
2a747260
da90924f
9864b880
db2eba8c
6a90ca8a
d96ddc41
f703bd9e
cf49842e
ccd202b8
79504ed0
e62042e4
5622a571
273916c5
67596c28
7e749174
5d675c58
f1cff988
f38c113d
757677d4
a1a46738
33b8cf10
831527cd
d9398c23
7967a555
bf5df182
1c853793
1809c3a8
7ca95200
e17da79d
418c8c99
b7a16214
c26c75c5
711d1d3b
d4023e60
3a3edfdb
3b2d8654
9f91eba6
68e803f4
1d2a8f5f
74b72977
736a0547
22272f5d
61881d69
6c4ae4f2
a6a3f277
ec653f44
79f60595
a9ebf291
78d53638
b4fdbec5
b6f63c06
a99f1bda
6d46c2bc
99bbf247
89d1a18c
4baf2343
b302a059
0cc40807
3eb1cdd8
35630f57
609326b3
8fd39224
16668f57
9827feb6
9cb3faad
af5673f1
35c4eaf0
09458f16
4bf09b94
47ef424a
4c8418a6
5b9bc1da
603911f7
d2e1f798
c4b81675
0aa8e73d
c5a56371
0b25d2c3
8ef8e6bd
79c7b1e6
6cf68552
d3ae875b
f7ec7e43
c087309e
30564c9d
abfb3b40
781144f4
3c7e96e4
2002c790
9ccd4bd9
76de560d
9074a2c0
b1bc54bb
12e47781
e5188a9a
b6488dd1
405c5d21
95e22828
57c18cc2
20a043ea
4e5a533c
2f58673e
6c32cc4b
6a19f8f4
a081e7b5
55c03255
be9113bf
2a935724
002f7971
e56ece1d
ac3c8c1d
be2c004e
62a5601f
2894bbbe
9e3b0e1c
1fedf706
97f5b146
be02686b
40ceac10
b2075b62
8eacd214
454b7ef6
05f504cf
983c4739
fc18d34b
34b55e6e
9cac75b7
e6b12f86
09d289cd
e14cd947
af77139e
75d0de58
7ad7eb39
cbea05ae
f1e6d768
d800c23a
08eb84a6
f5ed53e6
0f578be5
ad0a430f
0841d53c
2832a687
e875c6e5
579316a1
e4830242
2a71a9e5
17c66f36
1b8b8f42
766ed098
404a8dce
f6e4e711
110b9148
0e321ff4
96d93b91
243b8778
c8f1747a
777e14ec
94a242ed
0ba95dbe
d2bbf4d2
c10a7e59
863348d9
adb9f02d
8605fb17
c71450fb
c2ceb6a1
073d0517
57c072b5
3facb5b9
cfd865b0
570baa84
9500b9db
23230c03
0b067153
fbf32a88
2769e1b0
a1f556d8
db93d1cf
4003b99b
60e6cffb
deec7cef
87577978
78c69545
fef8be05
4a10ef98
38db0f3b
207f4d39
63a94f1a
dce504f3
f446a307
67b369da
266d24d3
9a0a5baf
f18243bc
1e4a2c70
05311d69
2975f9f3
bd2d894a
7e674275
ad17bb33
142279c6
5c0c496a
1b1bc39d
1ae45e51
f8ea1c20
cae3f894
d0f20ade
dd2b08f0
d04bf27d
3ffc12b3
3152b1b0
934ab6a9
b1158c98
4660f010
198163e4
5c2a7bcd
0f13855e
cf7b815e
9c3733d7
b640c40e
e438aec3
701626db
ae6e3c3a
7188d258
4b9bb02c
923537e4
85d8155d
47434d81
f1517356
f87ea2f2
09c1b02e
f5547491
ab4e7b31
097314bd
c76d762b
8fb36e86
14908930
09985fc8
0944f72a
4457d2d6
f9d0eeb4
81539b39
773ab01b
7081f383
dc26cbc5
571e7f4c
3fd98ccf
9cfb287d
aa022a11
a7ec78b8
58cbac32
af3d5a6b
33a8e1c9
5fbf1307
b5e60f44
3fc45670
8b4a3a36
d252e30b
bb33b31d
9fee0c19
9e5089f9
74797b62
442dddb3
e885dbfc
c99b9877
c5a20c0b
1694e726
edc464bf
49946252
107d4cb7
45e1daa1
18ec91fe
63eb79c7
76897495
f10cb897
ee15518a
03ddea5b
aa65cf42
244814db
62da4814
938e1dbf
21dad96b
888428b8
e7c49580
53d24a85
961fcba6
38ee7431
7aa08835
8e9a3259
2b1dee57
f403212b
b59cb4fa
01fc1c4c
fde9e930
fd4b7a42
53f641fa
43f3c9cf
4fd8d9e7
6cbc6258
5d702c54
e896406f
ebd0bf80
189ac85a
ad9b2293
c5ddb234
80c8ba2a
2fc40d19
8f62d391
20ba4157
b2bc9817
089d1851
40615de4
7c5681a4
b27a038d
027c17e1
d4a5c339
96a81a02
2fc85762
a6c0932e
32294214
be83c99a
8b1ee7d1
5dd863a4
9c614546
9d5ac837
1ee93cdb
2178cda7
3b594707
50e6241c
ee8ed59b
6131e78b
47bc8144
b76a7d04
f4dc370f
fb6bd361
12dfc5b3
2eca64c5
9550760d
b4ae30e2
b20a1887
b74d4ba2
26bbfcb6
d240ee31
b9a71ae0
80cbcb62
3ff9c5d7
1646cf8c
5cb9402f
a4aa9d39
455889a0
c613eca1
b69aef43
9b734fe1
6f9e80fa
283c9d59
7fe82223
5ef529f1
a4bc315e
e7399fcb
89561a3f
8917a04e
6f21e936
1d562fd5
0a95d2a1
43c71c47
572ca732
3b1e9b9f
e3bfbebb
b8bf05bb
02f858df
38036b45
7ec9f1ee
58991e4b
f341af48
27d42fde
f7ee33b3
53ceba1c
37f2e40c
e82bb06a
bc589e16
b3fd3e4e
cf9e13a8
7c8bf1c5
d8fcc36c
49e464e5
c405ab7a
92a74bd4
92a2e5a3
d9364d1c
374f5bd4
8e8b266c
bef9f2ce
21ea6f89
e13a31fe
a2ab17c8
0d8c8ee2
f8d05351
eee17eab
6c184a1d
fabdd1c1
f2c5c2ab
25ee8aa1
7bb220cc
c6883937
e90ba7da
05ee3227
e14f8268
122b884b
d041cad2
7422e4cb
ebf4177f
4af84519
ef1f2473
0fb9206a
7225b6c3
48860eea
812ed6ba
fb3b7804
651339f1
2df1c43c
c0b32f7c
76f9d9ce
cd51bb76
e9b17faf
fc7a0c8e
0e58494e
d6978474
8958e52e
fcb440ae
b9a70243
8d49f785
f7780b7c
65a7295d
5e5f45f8
4d525787
8c1d36b7
a2cc540d
e22b79c5
62282d29
1330eb83
9efa4774
17807484
14e821f5
d1664b4f
d1d20d9e
5a23aad0
023520d6
162feaec
1ee4d790
4a82f721
2a1fcb6c
0282d89f
2c58dd58
b9bb7662
cef0a11c
21d3b626
9a43f593
56c59202
3537fd8b
a974295f
0b4e56bb
7a92b13a
93f4625d
3e4f7693
a0f3f34c
c508b1d6
e3bf2d33
01e6501d
e97a6c04
8a308f6e
66ead094
51dded05
0ae6e81d
fe2ef26f
b9b75c2b
b00f5f68
c243040c
6ac12c7c
80d6d700
3e2e4206
f7e97138
60575215
21d63c11
76387aec
d193829c
96113933
2732ed20
7aa0e04a
5a48578b
d49165a6
f93c2a0d
ec66493e
ea7f67aa
576baf86
5711f2c8
ea11d387
33ac9f3c
6e092332
d96cb1e3
11a48601
22066b15
0fcec4e7
7c594dac
3ab68002
8732b487
24a71122
ed91c014
1196cde9
7a0b06f5
96553bac
05f10c24
ca024ccf
b1b4f4e4
4802b792
496ec7a5
f6290099
28c5fe7e
0a126e73
bffb828e
98759476
48b21536
acde2d81
43b55016
5d08e1a5
eb6e65f4
9732c913
3fa40326
545eca20
4a5e5088
2a6303a2
9975f252
0e5cc11b
d3747589
f46ed767
aa3a6ff5
de788978
054d1db1
ecf4547c
908c33db
065c9f40
b89a37cd
51eb1003
aa2b67ae
304f4e36
01e7dd00
01e3b820
739295a9
e3a8bc4f
9c754a52
807f7607
047bd9c2
885f6f65
cee8ea5f
58fed0ed
74e675eb
f36948b9
7d4266c5
90746947
c93b247a
ecfb5c34
0d9dfda5
f7d92430
81a5a75a
b13372a4
839fd33e
37e097cd
938b2332
5b1b6bb1
5461834e
cfbaed6f
ada37d28
b5507014
e3147b10
1f8c6b78
cb2aa7d3
e9f14452
e538a147
054ad25f
2357ee3f
acf90651
acdf6a49
0ea658a6
fdca0019
a5dfe052
2a5ef672
c93ae85c
a561dbc2
303920bc
ebb95609
9699bc27
59e95ad7
9286b6cf
5da2de89
15f28a8f
a795c6b9
5e5bbb88
fc195278
04fa8f50
ddfb8a72
143264e5
ee2867a0
a8d696a3
13a06055
0103effa
bc615b6a
a358b941
67b41e6c
7aedc363
e913cf6d
4d577d89
71e94f1e
da6d86ef
f90d530f
5b9592fe
c3954fb2
e16ccd59
77f46b04
311fa86e
11cc934f
012790e6
5969884d
33406fdf
caa1b2a4
47d378c1
a1390704
3b5b9b6b
67b61430
71cf06cf
1323a82d
b9de9621
c6f73159
33b60b22
2e7822f4
37b4b7fd
684ac1e5
75ed1e3c
4d4cbb88
bf2de556
27882418
a7730f13
f579dcfb
85b372f4
89531353
30265a4c
cc29a6c3
2f272d06
883d8935
30b88ab4
98eabd38
bf047caa
e200677e
e1d55472
a6123d80
fb5da078
105e5006
eef55084
5d0484f6
52b29a17
06ec6e88
00e5fc1e
e4823629
ad2a66b8
4344618f
98225efe
3f9d700b
e3029414
ec8a633f
0b4c9153
5e8f0f70
70efc340
e1d30bc4
0f9385fd
a863c7de
5de9ea90
665c27db
8e8a0bae
e6b2dab6
eb3994a1
48bf4e3d
6ed62f8b
17488e4a
7fe8a4fd
ec4d6f6c
2df4757b
037b5bc9
40f3a596
fdbe73c0
a615cd01
14ebc88e
6c45e1f9
3a2b2842
cdae5743
eaf32a09
216ef3d6
f8205840
c9cbaabc
b8867814
a604e05a
cda10499
e829a8a3
27dc0c31
df3d43ba
3723bef6
f8296fdc
a242ab17
cdc69bf3
dfd50e9c
7b3a787c
793f8c26
0c35dbd7
628bc5a8
31b4380b
cb639dcd
25dbf534
248d2b23
be56364f
b07be5c7
e8ea5c8d
236b8f52
33f6618d
97a14938
5ba77648
763e0691
dbb0aef2
ac384a73
c7888c7b
9d53f2c1
9c425b44
e3f482a2
aea6802c
9dc8ed4f
91acd188
63a476b0
372054dd
8b1e2ba5
330b30b2
fdb0e1de
a7c52476
476470d0
346b5536
8ec78ec2
05cf3241
e48ae03e
ed42ab8d
726c4370
3b7cb995
a16b938b
e8b94404
75a0a581
486d4b00
fcfbe5b1
c489c71e
4d9b8220
b0865fbc
300d09a9
0eef0d7a
32b49c22
2ae4658f
a2245f9a
55c769c9
535c0e1a
fa752ea1
1554bb6a
a735ecd9
76a81378
81cdddcf
64f84bd8
843c796e
62eea308
c66a1a54
363f8ea2
7b745794
a7a3a5c1
7a2ff682
da3a3b92
09ee9b28
da0e9204
112e2f25
275de411
61f31f66
5067f88b
aa13457e
a62c99cf
036c9ceb
5a6bcc9b
8c24d993
94699e07
c260ccc0
894c27bf
fd12134a
f2bdc915
aafc3de2
e8476a83
520dd7ca
8d0984ad
73777c50
469f56b5
38c4f4a9
4c642e6c
2a152470
3f281679
9820b81d
945bfc1d
8a41ecbf
8c5181a0
5467db68
ec32483d
6178ee8a
ea24b221
f91f8f16
02314e8e
eeeeb2c4
f20d9b9a
aa647a76
2c92dc28
0ae1bff8
65fd8a53
6fe844bc
75fa1978
381971a9
6e7b7926
85d47dda
7bc615a3
d1e08c5d
24ba9793
b700b2df
4993f673
56d43068
d0c77b4a
5cc5e406
b162ecd2
76274cae
2268741a
87ceb6da
3782be9d
bcb246d2
e033be25
d7e236ce
7b817a34
0bba288b
9f166301
2b5ac266
6030cf95
d662c086
3c8a4fd5
20bb9675
04209c79
b64d5d9e
9a2216e5
a8af824c
14c609d2
8d9fddf9
30d79c0b
6b993a88
735d3388
890421b3
adfd87af
c1856f3b
0ada977d
f73b2b86
37a742a2
ad737aeb
88b6c6fa
e9d0a7be
5d15fc8e
dd6ad4f0
3433817e
01b7d39a
c91a0fc1
476cbc4a
be8cac13
f63e181a
002acbb5
567ce878
f20d24af
aa8951a4
2c9d8afb
9f9ef717
37b2b3fc
fcd931af
6abe999e
83c5917e
04ef5f89
ef1ca161
d6f3bec2
33d816cd
dcecc4d5
bdb7c798
fc0da6bd
2f2ade7f
478ab84d
51f1a51a
2c2904a3
cb7b9144
2288e81e
f9ed4e5c
0521de70
eba65964
2f100c0c
c0fd0809
b99ca0e2
fa9d82a5
2ce02418
334fda48
78c326b8
a639f921
54c6f822
7f91c56d
87f03be7
194139a3
5a74e068
6891d2fe
1e913239
b1b86e31
3d28d368
d57d1e7b
af32a71f
afd7caea
49f77323
ecb64bca
9dcdfd3e
e7fb0e77
e66a4be6
79acb5d5
5e0f518b
acc29a56
78364c24
9e35a260
4ef0af12
4fdb631d
0690e2cc
513f2551
5e7b7775
08d61564
2d2f000e
694926eb
c6a077c2
79120990
0ecd62e5
9f8a2a3e
7b17f668
438aa51d
d6abf47d
cbe3acde
89f9577c
5f90e05b
c310d5d0
3e68c372
158101b5
1bf230f8
185a75ed
b40aa0b3
10eaf93a
55a163c4
ec05277c
1756b0d3
d08fcd74
1fedcc66
85c8f9aa
ce21ad3d
88581fba
07d97125
aa631b57
52faea8f
134e5811
ccdd185b
976548c4
e7770aca
90215842
fab7590c
bfd8f2c0
6f4a38ce
36f6375a
8dcf0593
549b035e
3806ded4
d92d21b9
561cea65
a615b866
83347377
77260ae9
68e166cf
feee51dd
6649f005
67b2d695
89548095
eb6fe294
19b3b410
e5db56b8
e608ef57
5c035d27
c0575222
38c4a4ce
97dd7d8e
0cbf4cda
ba838c91
2e7b55f5
bb6bf315
bc201d59
418496e5
89dabfa4
3ba93352
0806dca2
55ee55e5
187c0e4d
dfcf60aa
2f747bc8
d558bbe8
62b9110e
6c4a03f6
6d4a68b2
1de681e0
30c077dc
b7168701
97e6a0b1
d3eae216
d4974dee
5cdf5db0
73576d99
8a7ef36a
9f7e1617
f055471e
ca6e789e
4f33cbea
7d430d8b
baafe11d
81ad2c0f
42b830be
a5524518
a55143ea
db938a12
66260dbb
486daed0
7567984a
5fd41555
8bee0b43
6a5dc663
2ccc1241
60086ba9
5c4025a0
e164e8fb
464bf383
95fa7bf2
8f544b46
b4abd6a7
c5cbd163
a15bc22f
1897db4b
db8dde06
cdf52202
0534232e
21db3846
1381a857
1a3cc17d
fcc16533
778796fb
9a32d44f
d57e5b9e
91e96c36
013a9211
ddd7ef8e
4cdb36da
550e3e25
0450822d
7e10bcfa
565d946a
d8b274b1
8e4c301c
d7488696
27fdb978
31e33e95
140192c5
979b6fca
602031b3
1279b7b6
d1481653
0bb8fafe
b3d04f8a
1b6bbce9
6d778f27
1c39bed8
37a19d7c
55957481
9e3ac167
8b2cbf9b
e1f91e2f
07cda581
b48a4e08
1b5d54af
3fcd3132
c3bf72d3
5775619b
83e63fef
b80778e6
8620d573
002652db
7735b35f
1d5bfbc2
b6c7313f
21f48a70
17e6ddea
15aee373
03b370ac
3abb19f1
2b969d71
c276af0f
99435724
d8e7cd79
82fead37
1d9bd8ac
b9ddc720
d363f2a2
d64ed6ee
0a1fe2e5
36f3c43d
6539ed99
244d285b
da039bda
53fb1250
e2c4f901
023ede07
6fb9c53e
e5bd61a3
353ecee0
7550ca9c
940229dd
ae94257a
9dfbd358
524b64b0
b67e115c
72d63371
72cb7ffa
9e2dbe82
a1de0739
711aa54b
52108d2f
365c2a15
c84222d6
36abf17f
84b3f38c
7bb8a43b
c57fb4e7
0bfc1821
95aded53
607476ca
e1c0e340
0d0ecf12
a8d410ee
954150b4
25d5ae7f
c490014b
52fa4648
d694b9be
cfefa1a8
552bb24f
34ce98b7
1f373e9f
7356dedb
99bca31b
47f01a9c
3f25f286
7101e7d0
fa827b9a
ece9b8cb
241b4e01
02d2dc1f
eaaf379e
e9e65c05
c14893e8
1b231248
e9a87808
51c22d52
5d80fa98
961e063c
bcc72891
72a61340
39e8d76a
ae5df39e
1a60e51c
63497a35
acb5b3ae
5b86f985
be4829f5
f2a95bd8
2d1fb320
8da3508d
d7bbf72d
7b2e6f12
0c11ad5a
b248bd06
aefe541f
8230365f
558f99dc
4826101b
4ddb8b0f
21280df1
ac63e075
814f9176
3d7b1bf6
41ccd406
9e9f326a
62937d9e
67c275fe
1d98a4e6
e7e1bdf4
f6b88e73
49b92aa6
7134d0e3
9b734970
e3796a75
2dd0ee97
5869758a
eca912cb
453962a9
a5948a3a
c251fe24
a481af9d
63a6e571
d9ca04c7
0b3b9290
04c16fdf
b002fd63
c8018e84
347d1b85
73a5b0f6
562c7dd9
446a5877
58cd8f1a
b12e6a28
6165ea8b
59778523
17bda2c1
3edd2b77
405d0c00
03381d63
c8a8189f
ee0d79c5
7f390bcf
e4012000
78b4a79e
5d1362ba
eb7c8943
8175733d
6d0b32ad
2a931fcf
85b6266e
a122c02c
998bf744
201eeecc
d2b1a8c8
138d6a86
dedcd15f
24bd0a9e
92c39a4b
eb3cdc23
1497d293
e6a4fd61
226d0b43
3440aa4e
f6c53d35
5c0077fe
247ade92
a19c42cc
bbc94c8b
9b2372dd
735433d2
53eb65d4
734ae561
26a36dce
409d4684
6e29b9c4
12425b59
f9ca63f9
1788e9ca
abc28d2d
3a5c4e4b
16375477
dca46671
3b1bc3f2
54139fca
0278b373
740142de
7e1f0394
5d072fb4
e56daf26
40281795
22b9280c
6c86bc53
6e0b1fd0
59a68277
75c2e792
5bf89e3c
112e3825
0747d55f
692b7828
11104b31
248d2ee5
4eb1cd79
e2391044
b7417082
9db17ee8
ccdbf058
eaec7227
3079ae02
d2a0a045
4ff00fe2
bc6e3968
2446f116
25fb6500
d3330f93
954077b7
9ef5033b
8d381c1f
a4111b1c
b64cfa37
56224ccf
61071881
8fa6c707
5cf769c0
acc2066e
8d7d236d
c86e5120
527480f5
fcc76169
83344036
43080fbe
860b6e9f
3046f3e6
812368e6
0fd58790
690e5cc6
c699a8d3
96cb2c1b
9e613ac2
f9daf99e
57561d1d
b21c122a
d0b8c6e0
8d16f658
d4080ff2
bc7b827a
577c2713
55e3735d
ec6f4866
add75fb0
0489085e
e1939a66
32d1796e
64c6dd61
e733c916
