5800-243a
-2532-26-1a
-201307-e
-2635-31d
-37-b-c27
06-3d22-20
-92f73-30
09011b-8
043b-4d25
3e-5b300f
25-32-3-17
24502a-28
-90f2528
07-4032-7
0c181929
20-80-1051
3d-1f-4511
-15-3e-2e-26
-20-35-f05
-3f-3f36-3f
-2428-1f40
-56-d1a11
-360a09-1f
-1c-1-432d
0525-3132
-56390605
-40-15-3-4e
-2a446821
54-1a49-16
36-26-3921
-5439-65-7
-612d-c-d
142e0052
2948-1d-35
27-3640-32
-55-3-c12
-e1541-11
-4c1f5a-75
3412-3a0e
49-1a07-30
-19-a252a
37-1b33-43
160005-1
0a-56-125
17-2b-482d
560a4f-40
-13e39-8
3a2a23-36
2c-3a-40-4b
-2746251e
0a-16-1e-31
03-3205-5f
07-15-42-52
1d-292904
2c1a-2831
48-49602a
-765061-8
-1b-312447
2a-5b04-2b
1e37-a-6
12-51-4b2e
1c1e-f-36
33-7d-1116
0d22-147
